#version: 0.2 - Trained by `huggingface/tokenizers`
Ġ t
Ġ a
h e
i n
Ġt he
e r
Ġ s
o n
Ġ ,
r e
Ġ w
Ġ c
Ġ o
e d
Ġ b
n d
Ġ f
a t
Ġ .
o r
i t
e n
Ġ p
Ġ in
Ġ m
i s
e s
a r
Ġo f
a n
a l
in g
Ġ d
a s
Ġa nd
Ġ h
Ġt o
r o
i c
Ġ l
i on
o u
Ġ n
Ġ re
i l
Ġ e
Ġ g
Ġt h
Ġ =
l e
en t
Ġ "
Ġ 1
s t
Ġ @
e l
Ġ Ċ
a m
o m
Ġ on
a c
a d
Ġw as
Ġs t
Ġb e
Ġ he
u r
l y
Ġ '
Ġf or
Ġ u
i d
i m
o l
t er
Ġa s
i r
- @
Ġ@ -@
i v
i g
c t
o t
u t
Ġ r
e t
it h
a y
o w
Ġa l
Ġ 2
v er
Ġw ith
c e
at ion
Ġth at
Ġw h
Ġ it
c h
Ġc on
Ġa t
Ġ j
Ġa n
Ġb y
Ġd e
Ġs e
Ġ is
u s
Ġ k
Ġ v
Ġ )
t h
Ġ (
u l
er s
Ġc h
a nd
a in
e m
Ġ1 9
ro m
Ġh is
o s
he r
a g
a v
u m
es t
Ġc om
0 0
Ġs u
r i
Ġf rom
Ġp ro
o d
p e
Ġn e
is t
i f
il l
u n
o re
l d
a p
Ġs h
s e
Ġ y
er e
ig h
re s
o p
i es
Ġ ro
q u
ar t
ar d
b er
Ġo r
Ġe x
Ġp l
ic h
a k
Ġw ere
at e
or t
al l
Ġu n
a b
Ġl e
an t
u d
o c
g h
on g
at ed
i p
it y
es s
Ġa r
am e
iv e
Ġt r
i e
Ġh ad
Ġ â
ac k
Ġâ Ģ
as t
re d
ro u
Ġwh ich
ou r
g e
Ġa re
m ent
Ġn ot
i an
o v
Ġa f
i al
p t
o st
el l
i a
igh t
Ġc l
u st
ar y
Ġw or
in e
Ġw he
p p
c l
r it
t her
Ġ 3
ou n
Ġa d
ic al
av e
Ġs c
c c
Ġcom p
Ġb ut
Ġ en
or d
ct ion
Ġth is
Ġf ir
Ġhe r
Ġ2 00
t e
ou ld
Ġt w
Ġa b
Ġaf ter
is h
Ġcon t
Ġfir st
ou s
s o
Ġt e
id e
Ġ2 0
Ġs p
u re
Ġit s
Ġne w
ig n
Ġthe ir
Ġa m
Ġal l
Ġ ;
Ġm an
p er
Ġon e
r a
it ion
Ġin t
Ġp er
as s
ĠâĢ ĵ
Ġal so
u b
Ġm ar
Ġu s
Ġ i
o g
o k
Ġs he
r u
Ġ :
e ar
at er
om e
Ġt im
Ġre s
ou t
or m
ag e
Ġre c
on d
Ġthe y
i re
Ġs er
r y
he d
Ġtw o
Ġf e
Ġp art
Ġ 4
u e
Ġa g
Ġwh o
Ġcom m
d u
Ġd es
an s
Ġh ave
Ġ 5
re e
Ġbe c
al ly
f f
Ġd is
an ce
il e
Ġg o
Ġ1 8
Ġw e
. @
Ġ@ .@
p l
Ġo ver
Ġy ear
ow n
t ed
ic e
Ġof f
i z
Ġpl ay
Ġh as
ur ing
en ce
Ġbe en
Ġc o
Ġo ther
e ct
Ġ20 1
, @
Ġ@ ,@
Ġ im
ou gh
k e
a re
or y
Ġc ol
el y
t s
Ġo ut
Ġm e
ation s
cl ud
Ġu p
ac h
ac e
Ġin ter
Ġp re
ou nd
l and
Ġe v
Ġp r
Ġf in
w n
Ġwhe n
Ġb o
ad e
i b
ac t
Ġs pe
ion s
Ġtim e
Ġc an
Ġd uring
a il
ur n
Ġin clud
res s
c ed
Ġa p
Ġf l
r ic
en s
Ġw ould
k s
Ġse c
m an
Ġf il
on e
Ġin d
w e
w ard
Ġb r
an g
nd er
Ġint o
Ġh im
Ġb l
Ġat t
it e
ul t
Ġe ar
ol l
at es
Ġ 6
Ġ qu
Ġm ore
ab le
Ġj o
Ġw ar
c es
as ed
Ġch ar
Ġp e
re n
it ed
Ġc ent
am p
i ed
Ġre p
as e
Ġbe t
Ġfil m
rou gh
w ay
Ġg r
oun t
Ġfor m
l es
f orm
or s
Ġ 7
as on
a w
ing s
Ġp o
em ber
Ġwh ile
Ġa cc
os e
Ġm us
v el
Ġg ame
il d
Ġm ost
n e
v e
Ġthe re
er ed
Ġre m
Ġf r
Ġc ar
in d
c k
Ġn or
Ġp ar
Ġs o
Ġg en
ak e
Ġas s
Ġs ou
i ous
ol d
at t
Ġcon s
Ġh ow
ent s
a us
f er
Ġ 8
re at
is s
Ġe m
Ġl ater
Ġn o
Ġs ong
Ġb u
ic k
rou nd
Ġpro du
Ġre g
f t
Ġag ain
Ġon ly
g an
Ġa ct
ri b
v ed
Ġu nder
Ġwor k
o od
Ġs y
Ġm ay
Ġthe m
Ġk n
Ġth an
Ġs ome
Ġ 9
Ġre t
ter s
al s
Ġth ree
Ġab out
ub l
i x
Ġ19 9
at h
we en
Ġ ver
Ġbet ween
oll ow
p h
on s
h ip
Ġd ay
Ġb ro
Ġh igh
Ġre le
Ġen g
ot h
Ġth rough
Ġm on
Ġrec ord
Ġf ollow
Ġm in
er ic
Ġm a
f ore
ation al
Ġa pp
Ġsec ond
Ġre l
Ġe nd
Ġl i
Ġp h
Ġn um
ic t
Ġsu b
Ġa c
Ġe le
t on
u g
Ġp res
Ġim p
ie w
Ġ 00
Ġs a
Ġ ed
Ġal b
Ġa ir
Ġse ason
Ġf our
Ġe p
Ġde f
Ġp os
Ġd o
Ġwor ld
Ġam eric
Ġin c
Ġnor th
Ġ ent
Ġwhe re
Ġbe fore
ct ed
r al
n ing
Ġte am
Ġm ov
ul ar
at ing
am es
Ġspe c
Ġw rit
Ġm ade
Ġar m
Ġs m
Ġs ch
Ġl ar
Ġl oc
is ion
Ġw ill
iv ed
Ġg u
Ġsu ch
he s
Ġp ol
Ġs ur
Ġc ap
Ġd r
Ġs ing
s on
Ġalb um
Ġp ubl
Ġ00 0
is hed
Ġse ver
i o
Ġyear s
ain ed
ic s
Ġsu pp
i el
od e
Ġc all
e ver
Ġ1 0
l l
Ġsh ow
Ġsou th
id ent
Ġb ack
Ġre v
Ġad d
Ġ /
ro s
Ġgen er
Ġb oth
u al
ter n
il y
Ġthe n
Ġin v
Ġhow ever
Ġap pe
Ġep is
Ġc ount
Ġus ed
Ġde c
Ġre ce
Ġm ill
ut e
al e
if ic
Ġbe ing
Ġthe se
Ġw ell
Ġst ud
ur y
Ġs et
Ġm et
Ġser ies
Ġagain st
Ġb att
t en
Ġ z
an k
Ġchar ac
Ġin st
if e
Ġf ound
Ġnum ber
vel op
Ġle ad
Ġb el
Ġman y
Ġ1 7
Ġmus ic
Ġst e
Ġs im
or n
Ġm at
Ġper form
Ġ 0
an e
Ġm ain
Ġl ong
ot her
Ġo p
Ġt er
Ġc ity
Ġc re
in t
o ol
o y
aus e
in ce
e nd
Ġb rit
Ġde velop
Ġbec ame
er t
Ġun ited
ig in
Ġd ire
Ġs l
Ġsever al
Ġar t
Ġhis t
Ġinclud ing
Ġsh ip
h n
ĠâĢ Ķ
at her
a ir
a u
Ġde p
Ġex p
Ġst ate
is e
Ġm il
Ġin f
Ġear ly
i er
Ġor igin
Ġd iv
is ed
ow er
Ġo b
ver n
Ġ19 8
Ġ1 5
Ġ1 2
Ġp op
Ġtr ans
Ġd id
ar s
it s
Ġd ist
i red
j ect
le y
em ent
or k
u res
Ġn ov
Ġ19 4
in es
ro p
u nd
i et
Ġcont in
Ġgo vern
Ġw in
it ies
Ġp ers
ol og
d er
rou p
Ġpro v
Ġepis ode
l ed
Ġst ates
t il
el f
a z
ros s
a red
an c
Ġc rit
Ġjo hn
Ġsa id
ir d
f ul
Ġfollow ing
Ġk e
Ġ est
Ġcon st
Ġdes ign
Ġg roup
Ġc ould
Ġd if
y s
Ġst r
at ive
Ġm ed
iv er
Ġret urn
Ġ1 6
Ġr un
oc k
Ġo per
Ġdes c
Ġameric an
ou se
n a
Ġal th
te nd
Ġkn own
Ġalth ough
Ġcomp le
iel d
Ġan y
iv ers
Ġw est
Ġg er
Ġa ust
Ġs ign
Ġ19 7
Ġk ing
Ġm od
Ġser v
r on
Ġj un
Ġp ass
Ġl o
em b
Ġd own
u ally
Ġ19 6
Ġ1 1
u ch
Ġl and
t y
Ġf am
Ġne ar
u ed
Ġbe gan
t ing
Ġli ke
g r
Ġfe at
Ġe ff
Ġoff ic
in ed
Ġun til
ro w
op le
is m
Ġdis c
Ġb ar
an ge
ak ing
Ġh ar
Ġsch ool
Ġo wn
Ġbec ause
er n
Ġal ong
id ed
Ġrele ased
Ġop en
Ġp ort
cc ess
in s
iz ed
Ġcall ed
Ġpre v
Ġe l
g er
Ġn ational
u c
Ġth ough
Ġc r
Ġma j
ist s
i am
Ġwe e
Ġpe ople
st em
u red
Ġy ou
u p
Ġg re
ial ly
Ġin s
ut ion
Ġan n
Ġcol le
Ġcl ass
ment s
Ġmill ion
os ed
Ġj ust
i um
Ġe ver
Ġsy stem
ce pt
Ġc our
ul l
Ġg e
Ã ©
Ġbrit ish
Ġs ince
Ġl a
Ġ1 3
n er
Ġs ix
Ġb est
Ġad v
Ġa ut
Ġhe ad
Ġa round
ar k
Ġa ug
Ġa ward
Ġl ife
Ġc or
Ġmaj or
Ġ if
Ġ $
Ġj u
Ġe ach
Ġsu ccess
Ġb re
ain s
Ġse pt
an y
Ġatt ack
x t
g est
a h
Ġv ar
Ġcharac ter
o ot
Ġu se
Ġa v
Ġdesc rib
Ġsept ember
Ġst art
am ed
Ġaug ust
Ġcon f
g et
r ap
Ġs ame
ib le
Ġhe l
Ġro ad
Ġt ri
on t
Ġe ast
Ġfin al
ac ed
Ġl ine
Ġo cc
i k
r is
Ġsupp ort
Ġo ct
Ġde m
Ġan other
Ġf ive
Ġpubl ic
Ġc are
ain ing
Ġs w
Ġ1 4
Ġp rom
Ġk m
Ġg reat
Ġbu ild
Ġl it
Ġt y
Ġo ld
el s
Ġcon c
Ġr a
av ing
Ġ19 5
Ġm y
Ġg l
Ġex t
Ġto ok
Ġc amp
Ġb and
Ġaust ral
en n
u es
Ġbo ok
Ġger man
Ġh ouse
Ġm id
Ġare a
Ġsm all
o b
ov e
an n
Ġ19 3
e p
Ġrep ort
Ġcons id
Ġcent ury
o ber
Ġrece ived
p ed
Ġt urn
us s
Ġcont ro
Ġoct ober
et s
ant s
iv es
b le
Ġun ivers
Ġst re
ical ly
Ġs k
h ing
Ġ19 1
Ġg ames
Ġwh at
Ġpart ic
Ġd ue
Ġsh ort
Ġl ast
Ġdire ct
Ġgovern ment
il ity
Ġre f
Ġh al
Ġre st
Ġmar ch
at ely
in a
c ess
en e
Ġle g
Ġ es
g in
Ġpers on
Ġcomm and
Ġh ome
Ġ ]
Ġ [
in k
ore d
Ġw ay
Ġm ag
Ġj an
t le
Ġjun e
ian s
r il
Ġsing le
Ġth ird
Ġmar k
Ġgener al
o ver
Ġm en
im e
Ġt it
Ġch ild
Ġs qu
Ġju ly
iss ion
Ġ %
Ġcap t
iv ing
pe ct
Ġnov ember
ur ch
Ġtr ack
Ġde ath
Ġrev iew
Ġd el
as h
Ġm uch
Ġev ent
ra ft
Ġis land
Ġy ork
Ġar r
Ġap ril
u ro
Ġf ur
Ġd am
Ġto p
c he
u ary
Ġlar ge
l ish
Ġacc ord
Ġver s
Ġp ower
Ġs oc
Ġev en
Ġbatt le
Ġle ft
Ġto wn
Ġde ce
ur al
Ġc ast
Ġc he
ction s
ion al
Ġv ide
Ġall ow
iv ely
Ġinter n
Ġdif fer
Ġmon th
Ġg un
i ent
Ġ3 0
Ġst ory
id ge
Ġst ar
b o
il t
Ġp at
Ġk ill
Ġapp ro
Ġv is
a im
Ġfam ily
Ġb ased
m s
ag ue
Ġpl ace
Ġc ur
Ġadd ition
Ġn ow
m ber
v en
m in
al es
Ġv ict
Ġinc re
Ġc al
Ġpar k
Ġex pl
Ġbl ack
Ġan t
Ġr ight
if ied
Ġl aw
Ġcomp any
Ġarm y
ro te
em pt
Ġdece mber
Ġhist ory
av y
en g
Ġcl ub
Ġplay ed
Ġ2 5
Ġm or
Ġaccord ing
l ing
. .
b y
p s
Ġp ost
Ġinclud ed
Ġn ame
Ġst orm
Ġr iver
Ġl os
Ġw ater
at s
Ġre d
Ġl ed
Ġ19 2
Ġjan uary
r ist
og rap
om et
Ġh and
ber t
ag ed
Ġ ir
on y
Ġw ind
b all
Ġw om
in c
Ġw rote
Ġi i
Ġw on
ap an
Ġh um
er g
ent ly
Ġtim es
Ġan g
Ġres p
ag es
Ġor gan
Ġo pp
Ġst ru
Ġv al
Ġ. ..
i ence
Ġj apan
Ġprev ious
Ġre qu
it al
Ġpos ition
Ġappe ar
Ġwith in
p ort
od y
Ġm ake
Ġdescrib ed
m ed
Ġin it
Ġr ad
Ġe uro
Ġth ose
Ġde b
Ġst ill
Ġf ore
Ġvide o
Ġb ill
Ġch amp
Ġf ar
ot t
Ġst and
id es
Ġne xt
Ġm emb
Ġn amed
om in
Ġl ate
ne y
Ġbel ie
Ġb us
Ġorigin al
Ġrele ase
Ġam ong
Ġeff ect
Ġatt empt
p or
iv en
Ġl ist
Ġfur ther
Ġre pl
st er
Ġle ague
il ar
Ġver y
Ġd est
Ġ x
Ġf oot
Ġte le
is ter
Ġfor ce
c y
Ġis s
Ġv iew
Ġpos s
m er
Ġb as
i od
Ġre al
Ġ rom
ent ion
b ru
a ff
re t
Ġro ute
Ġ1 00
Ġc y
Ġprodu ction
Ġcomm un
Ġspec ies
Ġex per
Ġ Â
n ess
pt ion
i or
er v
iv al
ren ch
ac hed
Ġmemb ers
Ġs ound
Ġconst ru
Ġpol it
pe nd
Ġwh ite
Ġch rist
Ġform er
Ġmil it
Ġto ur
Ġc oun
Ġf le
Ġfe bru
Ġfebru ary
Ġsim ilar
Ġinf l
Ġt ak
ar ch
an ces
Ġ er
ri end
b r
Ġs old
Ġper iod
Ġn ort
Ġp a
Ġday s
Ġdiv ision
Ġpl an
Ġbu ilt
en ces
Ġmat ch
Ġn at
Ġro y
c hed
Ġs ide
ver s
Ġsu per
Ġpro p
Ġt em
Ġhe ld
Ġeuro pe
Ġy oun
Ġro ck
p le
Ġgo od
Ġunivers ity
Ġpo int
Ġl ight
Ġc le
Ġf rench
ri ed
Ġpres ident
he n
h or
Ġs ay
Ġserv ice
Ġ201 0
Ġloc al
Ġest ab
Ġro le
Ġdes p
Ġm o
au gh
Ġpres ent
ut ed
ward s
Ġe qu
tend ed
Ġor der
Ġf re
Ġ2 1
e c
Ġd et
Ġc ame
Ġever y
Ġto t
h y
Ġs ol
Ġne ver
Ġc aus
Ġbe h
Ġh aving
rop ical
Ġwill iam
s elf
h am
Ġwee k
oc i
Ġe as
Ġc ross
Ġres ult
f ord
en se
Ġs um
Ġsu g
Ġfe w
Ġj e
ul ation
Ġt est
Ġt ro
Ġch art
Ġass oci
Ġpro f
Ġplay er
s h
Ġse e
ap p
Ġt ake
a x
ic es
Ġ200 8
Ġof ten
Ġcomm on
Ġst at
ard s
Ġh ur
Ġhal f
Ġ200 9
Ġcare er
Ġ2 4
Ġge or
m e
Ġte ch
Ġw at
l er
Ġcontin ued
ot s
Ġl ow
Ġp ri
Ġcl aim
Ġf ire
Ġst y
c raft
r ing
Ġhist or
Ġ201 1
Ġle vel
Ġs ent
Ġdiffer ent
at or
Ġm ich
Ġwith out
Ġf un
Ġp ress
Ġele ct
b s
es tern
Ġdesp ite
at ic
Ġeng land
Ġ &
Ġco ver
es e
gr am
Ġl ess
Ġpart y
olog y
Ġt en
re ad
Ġcour t
a f
Ġconsid ered
Ġcont r
Ġm er
Ġ2 2
Ġe c
g ress
Ġd av
op s
as ter
Ġdevelop ment
le t
Ġ200 7
Ġrep res
p ar
Ġar ch
Ġch urch
Ġl y
Ġt re
v es
Ġcount ry
Ġn ight
Ġcount y
Ġcom b
Ġinfl u
Ġchamp ions
Ġf ield
Ġsong s
Ġf riend
Ġroy al
Ġvers ion
Ġeng lish
Ġh y
Ġh ig
Ġmov ed
Ġmilit ary
Ġwrit ten
Ġhigh way
Ġtr ad
Ġd on
Ġw ant
ro du
Ġstr ong
v ision
c o
Ġpro gram
Ġcon v
on es
Ġv ol
Ġdef e
Ġbec ome
Ġ201 2
Ġpro te
Ġan im
Ġl im
Ġlit tle
Ġm i
al k
Ġf act
Ġch ang
ert ain
Ġpro ject
Ġfor ces
Ġl ost
s ide
c hes
Ġl ond
l ine
iz e
Ġintern ational
Ġbuild ing
Ġg iven
Ġ2 3
ur s
Ġs on
Ġcontro l
Ġlond on
Ġm iss
Ġtot al
Ġaut hor
Ġaf f
Ġsug gest
Ġt ropical
Ġinv ol
el t
Ġre fer
Ġor d
Ġh it
ut es
is on
Ġ19 0
Ġv ir
Ġb ur
Ġann oun
he l
b e
Ġph il
g ed
Ġl et
Ġl ab
at ter
Ġre ad
Ġh our
al d
Ġimp ort
Ġstre et
Ġf ree
en ed
iet y
Ġde cl
im ent
Ġg et
Ġcan ad
er y
Ġh o
Ġe ight
ro y
a i
Ġr ail
se qu
Ġv e
Ġv i
Ġperform ance
Ġg old
Ġs al
qu e
Ġst ation
il le
Ġs it
Ġg ave
Ġear l
Ġw ent
er ing
Ġfin d
Ġrepres ent
ren t
Ġc ir
a e
Ġreturn ed
Ġs omet
ail ed
Ġus ing
Ġf ather
Ġj ack
Ġne ed
Ġbro ad
Ġpubl ished
Ġhe n
Ġco ast
Ġprodu ced
Ġw estern
Ġar g
Ġcomp et
Ġnew s
Ġob s
Ġreport ed
e ad
x im
Ġpop ular
Ġm ass
Ġh un
Ġchild ren
Ġrecord ed
Ġpartic ular
ab ly
Ġtele vision
a pe
Ġind e
or ies
Ġ200 6
Ġst ated
Ġd u
Ġair craft
a ign
Ġspec ial
Ġc ult
Ġinter est
am a
ition s
Ġcamp aign
Ġg round
Ġship s
Ġsh ould
Ġl ove
Ġinclud e
Ġl ive
Ġ ide
Ġm aking
Ġde v
d ay
Ġd ou
Ġcrit ic
us ed
om b
Ġa ge
ie f
Ġwom en
Ġv o
m it
Ġhur ric
Ġfr ont
Ġc op
Ġcol l
are n
um ent
Ġcent ral
Ġ2 7
Ġthrough out
y l
in ts
Ġup on
Ġpr im
Ġ5 0
Ġ2 8
Ġyoun g
Ġon ce
in ess
ra w
pl oy
on om
Ġh om
Ġsu ff
Ġhim self
os p
Ġoffic ial
Ġ201 3
Ġaustral ia
Ġtech n
Ġchampions hip
Ġa ud
y ing
Ġdest roy
Ġm ot
Ġf ac
Ġdep art
Ġcharac ters
Ġw all
Ġn on
c er
n ed
Ġs en
Ġr ich
Ġsou ther
Ġv ill
Ġb all
Ġtr av
ens ive
Ġ4 0
pl ay
re w
Ġrel ations
Ġplay ers
re st
Ġf av
Ġc as
Ġh or
Ġse a
al th
it ive
Ġp ra
Ġ2 6
Ġc am
Ġcir c
Ġf t
Ġinst ead
Ġsqu ad
Ġf all
it her
Ġcomm it
Ġsouther n
Ġtit le
Ġt ur
ed er
Ġse ven
Ġj ames
Ġwrit ing
ak es
l o
Ġb ase
Ġa way
Ġ18 9
Ġc ost
Ġm ad
g es
Ġbe gin
Ġf em
ac y
Ġint rodu
Ġac ross
c om
Ġd ied
Ġrem ained
Ġmonth s
Ġgr and
Ġcent er
Ġdevelop ed
Ġsign ific
Ġc e
Ġprom ot
d om
Ġf ull
Ġh all
Ġfor t
Ġpolit ical
Ġlo ok
Ġvar ious
Ġman ag
ri es
Ġf if
Ġm ount
Ġmod ern
Ġhurric ane
u ck
Ġr ace
Ġm c
r ation
Ġw ood
Ġto o
Ġp ut
Ġa ver
en cy
f ic
Ġn et
Ġh ol
Ġ ill
Ġh am
Ġh ill
Ġc at
Ġcon d
Ġh on
Ġf ight
Ġoff ice
her n
Ġb ig
ist ed
Ġp al
in ted
Ġb ow
Ġh ard
a el
m ost
e f
Ġs il
Ġf elt
Ġwor ks
Ġare as
Ġnot ed
k ed
Ġind ust
Ġevent ually
ort s
Ġameric a
er c
Ġsty le
Ġr uss
Ġp it
Ġannoun ced
Ġcre ated
Ġbro ther
Ġcolle ge
Ġre ached
Ġmil es
Ġd i
Ġdisc over
Ġh ot
Ġc ro
Ġeng ine
Ġconstru ction
m ing
Ġst ri
Ġsu n
Ġh old
Ġsuccess ful
Ġs an
Ġnort hern
Ġ200 5
Ġjapan ese
Ġb ody
Ġm al
Ġse en
Ġse le
is ing
Ġp ain
Ġstru ct
c ast
ĠâĢ Ļ
Ġc ut
get her
Ġto gether
Ġhe avy
Ġfollow ed
Ġsy m
Ġag re
Ġr ange
Ġpro t
Ġpro cess
Ġme et
f ield
Ġperform ed
Ġbro wn
Ġ2 9
it ing
Ġm em
Ġhel p
Ġc iv
Ġser ved
iz ation
Ġ201 4
Ġm ember
Ġact iv
w ork
al ity
Ġkn ow
Ġgeor ge
Ġbr idge
Ġm ix
Ġfoot ball
Ġes c
Ġt or
Ġg od
an a
id ence
Ġsignific ant
Ġprof ess
Ġkill ed
Ġm ur
ol ution
Ġtak en
Ġab le
c ent
Ġestab l
Ġs aw
id s
at ure
Ġ ident
Ġm m
Ġimp ro
ell ing
z e
Ġs at
ric t
Ġbec om
Ġqu e
Ġa ction
Ġpo ints
Ġro und
Ġhum an
Ġb orn
Ġdo es
Ġthough t
Ġestabl ished
Ġme an
Ġorigin ally
Ġth om
Ġinv est
b or
Ġg ar
os s
d s
Ġg row
i us
Ġen c
Ġsub sequ
ent h
ir l
Ġother s
Ġb ri
am ent
av al
Ġst age
en ced
Ġent ire
Ġappe ared
ar a
Ġaustral ian
Ġdav id
Ġs n
ress ion
c il
Ġdirect or
Ġre du
et t
Ġ !
Ġfeat ures
r ay
Ġd en
Ġloc ated
Ġv oc
Ġsur v
ct or
o x
Ġcre w
g round
Ġbus iness
i ers
Ġplay ing
Ġcomm ission
Ġm other
Ġstart ed
ric k
Ġp ot
l ess
Ġaf ric
b ur
o on
Ġcaus ed
Ġdec ided
od es
Ġcrit ics
av es
ough t
y n
ress ed
Ġ ur
Ġking dom
ri pt
Ġciv il
Ġfe et
Ġr ather
Ġr ank
at ors
Ġfour th
Ġm ater
Ġf ell
Ġre se
s hip
Ġp en
Ġin form
Ġre b
Ġec onom
d en
Ġbeh ind
Ġinde pend
og n
Ġmag az
Ġs ite
Ġform ed
Ġadd ed
Ġfle et
Ġb i
Ã ¡
Ġimport ant
Ġc ase
Ġso on
Ġ18 8
Ġp red
g g
amp le
m a
iv id
Ġcom ment
ate g
ree k
Ġj ud
Ġm art
w ood
rough t
Ġeas tern
Ġ3 1
Ġed uc
Ġgre en
c ing
Ġdam age
Ġit al
Ġcomple ted
Ġs am
Ġse x
Ġm ult
ad es
Ġpop ulation
Ġne g
Ġal most
he ad
d le
Ġr u
ac es
Ġpe ak
Ġgun s
Ġc up
Ġex ec
Ġcl ose
Ġinter v
Ġl ang
Ġto m
Ġj our
in ation
em y
Ġaward s
at a
Ġinit ially
Ġind ian
Ġt reat
l in
one y
Ġlos s
Ġreg ion
Ġin j
Ġ200 4
Ġocc ur
way s
Ġsoc ial
Ġopen ed
Ġc reat
it ar
Ġl ack
Ġh ost
Ġpr act
Ġmich ael
ap s
g o
Ġpro ble
Ġg irl
Ġrelations hip
Ġsc re
Ġ18 6
Ġind ivid
Ġp ur
ce ed
Ġf a
Ġf und
Ġre n
Ġl ou
t o
Ġs us
em ents
Ġlead ing
Ġty p
Ġu l
Ġwee ks
h ic
Ġtrad ition
c her
Ġb ay
Ġrad io
Ġwork ing
Ġse par
Ġ201 5
in o
Ġwork ed
Ġcl os
Ġfr ance
Ġrecord ing
Ġpre m
Ġdif fic
Ġcur rent
Ġdiffic ult
Ġsec ret
Ġs our
Ġn ar
Ġa le
Ġro om
Ġacc om
ul a
Ġcon n
Ġto wards
Ġapp o
med i
Ġb omb
Ġb al
k i
Ġm el
Ġm ac
Ġcoun cil
Ġun ion
Ġla un
um b
ris on
Ġsc ene
ist ic
Ġgo al
im es
Ġr ain
Ġw id
Ġr ap
ic a
Ġhen ry
Ġres pect
as ing
Ġrep ubl
Ġres ul
Ġn orm
ign ed
an ch
Ġqu ick
Ġre ve
Ġro bert
k y
Ġmater ial
Ġbre ak
Ġrecord s
et h
Ġac cept
Ġv ot
Ġsc ored
Ġwas hing
Ġtr aining
pe c
Ġm ust
Ġprov ided
Ġn avy
Ġ200 0
Ġle ast
Ġre ach
Ġwant ed
Ġf ig
Ġe y
Ġaver age
Ġb rought
Ġd ut
he st
bo ard
Ġsp ace
Ġrec ogn
Ġbr ig
Ġear th
ow s
id ing
Ġfeat ured
os ition
olog ical
Ġtro ops
Ġc ru
Ġ5 00
Ġe ither
Ġn omin
Ġpro per
Ġqu ar
Ġf oc
Ġ18 7
Ġallow ed
Ġcol on
Ġro b
ect ed
Ġf ut
Ġp ast
Ġang el
Ġt ar
Ġw ife
Ġest im
Ġvict ory
am s
Ġgener ally
Ġf eder
Ġstud io
Ġwashing ton
Ġav ail
Ġin n
Ġpl aced
he re
Ġpr iv
Ġch o
Ġa ch
ic o
Ġr ul
Ġph ys
if f
Ġrun s
Ġex ample
Ġd ark
Ġev ents
a ut
Ġcy cl
Ġmagaz ine
a ur
Ġch ief
m p
Ġl eng
Ġsum mer
Ġrepubl ic
Ġbo ard
Ġd er
ant ic
Ġins p
v ille
Ġbatt al
Ġc red
Ġpa ul
Ġw il
Ġst aff
Ġ200 3
Ġpartic ip
ent ial
Ġun c
Ġd ro
Ġgr ad
Ġjo ined
Ġdesign ed
Ġsur f
u el
Ġreg ular
Ġhour s
Ġqu est
i ke
Ġsquad ron
Ġmid dle
Ġp ie
Ġem ploy
Ġd an
Ġspe ed
Ġn ine
Ġcon du
Ġsp an
ell s
Ġsh ot
Ġmed ia
Ġth reat
v ing
Ġopen ing
k a
Ġoper ation
Ġbelie ved
ud e
Ġsc ore
Ġrel ig
Ġreg ard
Ġ3 5
m en
Ġc ou
Ġcom e
Ġm ary
Ġb ir
an ks
Ġwind s
t im
ap er
Ġfl ight
Ġo x
h an
u gh
Ġtrans port
Ġrepl aced
Ġm ph
Ġpri or
ict ion
Ġsc en
Ġp ay
Ġst one
Ġb er
Ġb en
Ġcapt ain
or ing
Ġde ter
im in
Ġse qu
Ġem p
Ġeurope an
Ġst op
Ġpol ice
Ġlang u
Ġmin utes
Ġinvol ved
er ous
ific ation
Ġearl ier
f all
w est
Ġinf ant
Ġfin ished
Ġrese arch
Ġsoc iety
al ed
Ġh op
h a
as ion
ut ive
Ġleng th
Ġcont rib
o ff
Ġposs ible
Ġsay ing
Ġrom an
Ġind ic
ag o
l ic
Ġim medi
Ġcomm erc
Ġch ange
Ġp il
Ġassoci ation
Ġke ep
Ġt rib
Ġat l
re g
Ġad min
Ġparticular ly
Ġhig hest
Ġbo y
Ġfilm s
Ġlar gest
Ġf ly
Ġrem ov
Ġn y
Ġl ower
Ġbegin ning
Ġex ist
Ġsc ott
Ġb ad
Ġke y
Ġad m
Ġavail able
ish ing
Ġvir gin
Ġper cent
pe cted
Ġfor ced
Ġresp ons
Ġass ist
Ġ200 1
Ġpl at
Ġbet ter
Ġse ction
Ġu k
Ġach ie
w er
Ġdis p
Ġde al
h ib
Ġwe ak
Ġt aking
Ġant i
Ġle ar
Ġout side
ann ed
Ġme as
Ġcommit te
Ġhe art
Ġnov el
Ġchar les
ar ing
Ġgr ant
ograp hy
Ġthom as
m ar
Ġmain t
ĠÂ °
Ġincre ased
Ġturn ed
Ġend ed
Ġre ason
o f
id a
Ġfe el
Ġcal if
Ġreview s
s el
as es
Ġun its
Ġcommun ity
em s
ok e
Ġfut ure
Ġn in
Ġcalif orn
Ġpass ed
Ġac ad
Ġpra ised
op h
Ġmov e
Ġh ous
Ġgo ing
Ġp an
he ast
ip p
Ġaddition al
Ġte x
Ġbe at
Ġ200 2
Ġab ove
i ation
Ġappear ance
Ġph ot
Ġb ird
ke y
Ġth us
Ġm cc
Ġgu itar
Ġp s
i os
f or
Ġcanad a
Ġty pe
act ion
s u
Ġcast le
it or
Ġli k
st r
Ġen ough
ers hip
Ġlit er
ad ed
Ġsm ith
Ġl ake
Ġd augh
Ġpl ot
Ġord ered
Ġp un
Ġprevious ly
Ġl at
t r
Ġperson al
Ġmus ical
e y
n al
Ġsign ed
oc r
Ġmin or
Ġinfant ry
t t
Ġd oc
Ġter rit
st on
Ġrich ard
Ġale x
Ġele ments
Ġinst it
Ġmark et
Ġright s
Ġd ig
Ġcaliforn ia
ar ily
Ġab s
Ġvi ol
ag on
Ġpos itive
pp ed
Ġthe at
us h
Ġp ac
m y
Ġcrit ical
Ġpro b
Ġpart s
Ġl ord
Ġf ood
Ġh a
Ġacc ess
fer ence
Ġde ad
Ġg ive
ers on
Ġfem ale
g en
Ġback ground
Ġtrav el
Ġm oney
Ġp ow
pp er
Ġl ines
Ġb at
s en
Ġsp ent
Ġbe g
Ġto ld
Ġpr inc
Ġover all
it z
ct s
Ġsub ject
i que
cl us
il ities
Ġm ic
Ġt ax
Ġbl ue
b ack
Ġcommitte e
u ter
Ġdire cted
Ġfl ood
Ġf ailed
Ġinterv iew
u ation
Ġde ep
Ġch ap
Ġ199 0
ell ed
Ġvict or
Ġ6 0
Ġc orn
Ġd omin
Ġpo or
Ġsqu are
n el
Ġrequ ired
m on
Ġdeb ut
Ġp et
Ġgroup s
ren g
Ġ4 5
Ġ Ã
Ġm ach
Ġbroad cast
Ġh app
Ġsc ient
s c
Ġob ject
Ġter m
b ers
Ġcle ar
n es
Ġpe ter
Ġk il
Ġconst it
Ġgerman y
en ing
Ġro ll
Ġan al
um e
Ġen v
Ġind ia
g a
Ġex c
Ġhe alth
Ġits elf
Ġdist rict
Ġev idence
Ġchrist ian
Ġsomet imes
Ġw al
Ġste p
is l
Ġfr ank
ib ility
Ġpr ison
Ġrece ption
Ġb ank
Ġcontr act
Ġ18 5
Ġele ction
ber g
Ġst ars
Ġocc up
Ġcommerc ial
Ġas ked
Ġbattal ion
Ġ ?
ĠÂ £
Ġex cept
Ġpar l
Ġinvest ig
Ġl u
st and
er ved
Ġtrans fer
i i
read y
Ġdef end
Ġl iving
ab ility
Ġo ur
Ġs ov
Ġst reng
Ġadmin ist
ed y
Ġz e
Ġwh ose
ap t
ak er
ay s
Ġstud y
g ar
on se
Ġme x
Ġnat ural
air s
Ġcomple te
Ġclaim ed
Ġal ready
Ġch ic
Ġappro xim
Ġgovern or
Ġcl im
Ġbe y
on na
Ġsov iet
re am
Ġintrodu ced
Ġfl or
Ġwh om
Ġfre qu
Ġmin ister
Ġus ually
Ġfore st
Ġth ink
Ġstud ents
Ġwom an
Ġb urn
ig an
Ġeduc ation
Ġam b
Ġw ild
Ġide a
b c
Ġb ud
ac ted
Ġquick ly
w or
Ġmus e
Ġlim ited
en ue
Ġfr anc
ul ly
Ġm ight
Ġeffect s
Ġgu ard
Ġan c
Ġconc ern
Ġr h
Ġmov ement
Ġ3 2
Ġresp onse
Ġl ib
Ġiss ue
Ġc ertain
Ġprev ent
Ġque en
Ġg ro
Ġsy n
at ory
Ġcent re
Ġsurf ace
Ġcommand er
Ġsl ow
Ġy our
ain t
Ġpol ic
Ġpl ant
Ġl ay
Ġt un
Ġs elf
Ġfif th
Ġ197 0
Ġes pec
Ġdepart ment
b our
Ġs and
Ġarr ived
Ġ198 0
Ġespec ially
p r
Ġh osp
Ġserv ices
erg y
Ġbrit ain
Ġdec ision
Ġparl iam
se c
Ġf ace
Ġvo ice
Ġf er
Ġvill age
Ġbo x
Ġteam s
Ġshow s
um p
Ġr ac
Ġcon gress
Ġl ie
Ġstruct ure
Ġg ard
and ed
t ies
Ġr an
Ġindust ry
Ġoper ations
Ġlar ger
Ġf est
Ġw alk
Ġsc ience
Ġmuse um
Ġwrit er
b a
Ġly ric
Ġbecom ing
Ġepis odes
Ġrem aining
Ġparliam ent
Ġrem ain
Ġl atter
Ġ -
is es
Ġestim ated
Ġhe av
Ġg ot
f l
Ġcar ried
Ġmult ip
Ġdefe ated
Ġd raw
Ġnet work
ar ies
Ġdisc uss
w h
Ġpress ure
Ġul tim
p re
Ġbl ood
Ġfl ag
Ġ199 9
o or
Ġpro gress
ir on
Ġc m
Ġsur round
Ġconsid er
it es
Ġo l
Ġscen es
Ġb ul
Ġbri ef
Ġle aving
Ġvirgin ia
d e
Ġc and
Ġchang es
Ġrun ning
Ġac qu
ul f
ess ion
Ġcomple t
Ġ3 6
Ġje w
Ġm as
Ġsuggest ed
r or
v al
Ġent ered
por ary
Ġnear ly
Ġd om
ou th
in ing
Ġ8 0
Ġquar ter
Ġwin ning
Ġappo inted
Ġinflu ence
Ġf ail
Ġn aval
if t
Ġd ate
Ġtw ent
or ial
Ġapproxim ately
Ġdep ression
Ġch all
Ġs ize
Ġro s
Ġlead er
Ġcap ital
Ġlangu age
Ġf ant
er ve
Ġshort ly
Ġmet h
Ġestab lish
Ġisland s
an ia
Ġjack son
Ġfav or
Ġequ ip
Ġcour se
Ġemp ire
Ġth r
Ġsc ript
Ġto day
Ġb ra
t a
Ġfin ally
Ġscre en
Ġem b
Ġfeder al
and er
Ġtrack s
Ġun l
Ġo ly
Ġm ission
ch ange
Ġreg iment
Ġu pper
Ġlou is
Ġprop osed
Ġcan n
Ġw ide
Ġdaugh ter
ul ated
Ġw ing
Ġp urch
Ġprodu cer
Ġhig her
Ġoly mp
Ġmanag er
Ġdestroy ed
ab or
Ġarr ang
k ing
Ġnat ure
Ġv an
Ġdist rib
Ġl ad
Ġexper ience
Ġc er
Ġcor ps
Ġenv iron
bur g
Ġhor se
Ġprinc ip
Ġspan ish
Ġ7 5
Ġprov ide
Ġrail way
Ġbre ed
i res
Ġsubsequ ently
Ġal tern
Ġprofess ional
mit ted
id ents
Ġcomp ared
ens ion
Ġbrig ade
Ġcon cept
Ġp aren
o id
Ġhe ro
is er
Ġmar ried
Ġbatt les
Ġdis s
Ġem erg
Ġimmedi ately
Ġin tended
Ġsa f
Ġ18 4
Ġa w
Ġpriv ate
Ġdem ocr
Ġjour nal
Ġcomple x
Ġ196 0
Ġf ans
Ġce le
Ġtem per
Ġp ict
Ġ3 00
Ġsupport ed
ines e
n s
Ġsp ir
Ġst ay
Ã Ń
Ġent ertain
Ġagre ed
Ġmod el
Ġd one
Ġsh oot
Ġed ward
all ed
Ġg i
Ġli ber
Ġm r
Ġfeat ure
Ġinit ial
Ġaward ed
Ġcomp an
Ġchic ago
Ġb ord
g y
Ġincre asing
ri a
Ġarch it
Ġdis play
Ġwhe ther
Ġwe ap
Ġb or
Ġhel ped
Ġrel ated
Ġint ens
Ġc ard
Ġbook s
Ġleg isl
Ġarchit ect
Ġpl anned
Ġim m
ch ing
ap h
Ġ199 8
Ġch inese
Ġoffic er
d own
Ġm om
Ã ¶
Ġcre ate
Ġbr ing
Ġf air
Ġtr ade
Ġart ic
Ġmon t
he m
Ġlong er
u k
Ġsold iers
Ġw it
Ġhe re
Ġatt r
ore s
at ively
Ġc ause
Ġg al
Ġval ley
Ġcons erv
Ġp le
th ing
om m
Ġy et
Ġpl ans
Ġbuild ings
te en
b an
Ġcapt ured
n y
Ġcol or
in ct
Ġchang ed
Ġwin ter
as y
Ġfor ward
Ġp enn
Ġ q
Ġun it
Ġbl ock
Ġcon clud
Ġfriend s
Ġd ance
che ster
Ġsub st
Ġsomet hing
Ġinst r
Ġassoci ated
i en
Ġco ach
Ġoffic ers
Ġsp ring
Ġwith d
Ġsing les
sel ves
Ġrem ains
Ġbill board
Ġjohn son
Ġmost ly
Ġ3 3
Ġstand ard
ab it
Ġthem selves
Ġk ore
Ġse v
Ġr at
Ġpac ific
ron ic
om s
Ġcount ries
Ġ7 0
Ġtar get
Ġlyric s
Ġmix ed
ri age
h l
Ġex am
Ġir on
Ġre ally
Ġprob ably
Ġex tended
Ġp u
Ġmeth od
Ġr ay
k en
w ell
Ġmov ing
Ġnum erous
Ġfin anc
Ġat tend
Ã ¼
Ġinform ation
en a
Ġcop ies
Ġport ray
Ġsc ot
Ġgo als
le g
Ġcont em
Ġal ways
Ġn ation
Ġf it
Ġvis it
Ġr id
Ġbir th
Ġloc ation
Ġrequ est
Ġs ales
Ġo ce
is ions
Ġindivid ual
Ġc a
Ġc it
Ġfoc us
Ġen ergy
Ġ199 7
Ġiss ued
Ġm ess
Ġatl antic
r ated
ol ic
Ġle ave
Ġinclud es
Ġcoun ter
Ġstat us
Ġart ist
r d
Ġm ale
Ġsing er
il i
and on
Ġcon ference
Ġv ia
Ġ3 7
Ġadm ir
Ġsuff ered
c an
Ġtr aff
Ġj im
Ġt as
Ġmart in
Ġflor ida
Ġt al
Ġhosp ital
and s
Ġalbum s
Ġimp act
Ġed ition
h ood
Ġb ene
Ġproble ms
Ġmeet ing
Ġma xim
Ġdou ble
Ġg all
Ġlik ely
Ġter min
Ġincre ase
Ġindepend ent
Ġcar ry
Ġass emb
Ġd og
b ury
Ġcele br
Ġmov ie
Ġappro ach
Ġch ina
Ġremov ed
Ġtex as
p an
Ġrev olution
b ed
Ġinsp ired
Ġb ond
Ġfore ign
at ives
Ġm aster
ch an
Ġr ang
Ġref le
o le
Ġcomp os
Ġter ms
Ġprim ary
Ġmajor ity
Ġs ir
Ġk ind
Ġd v
Ġa st
land s
Ġ ice
Ġw a
Ġoff ered
Ġtak es
Ġc reek
v in
ograp h
Ġcons ist
Ġve hic
ve y
Ġqu al
Ġmin ute
Ġst ad
Ġinter se
Ġt ons
ous ly
ail y
Ġen s
is c
Ġdr um
it er
Ġentertain ment
Ġad op
Ġm akes
ar i
Ġattack s
Ġu t
oun ted
Ġf ox
Ġconf ir
Ġ ign
Ġwor d
Ġcomp osed
ound s
Ġ18 3
Ġra ised
Ġenviron ment
Ġo il
Ġcanad ian
Ġdam aged
Ġcomb at
et ic
Ġrank ed
Ã ³
Ġpre c
Ġl og
Ġcar ol
Ġafric a
he t
Ġlet ter
ac hes
Ġconc ert
Ġd aily
ic ted
Ġappe ars
Ġreve aled
Ġcycl one
Ġc ateg
Ġsh ar
Ġu nd
Ġsele cted
l ight
Ġsim p
Ġtr ain
Ġdiscover ed
Ġmet al
uc le
Ġdeter m
Ġmount ain
Ġfight ing
o o
Ġact ive
Ġw rest
Ġs ar
if y
Ġde g
Ġruss ian
Ġtwent y
Ġ9 0
Ġcond itions
Ġins ide
Ġk ent
Ġdem on
Ġmor ning
ur ies
Ġsch ol
Ġgre ater
Ġer a
ail s
Ġun able
Ġsp orts
er a
Ġlaun ched
un g
Ġrespect ively
Ġv en
Ġw r
um ed
al and
Ġt v
e e
Ġwho le
Ġsc hed
Ġ199 5
Ġs ister
Ġiss ues
Ġnum bers
st e
Ġneed ed
Ġinc or
Ġangel es
Ġy ard
Ġsmall er
Ġconn ect
Ġl ived
ut h
Ġth ir
Ġo s
Ġcont ains
ad o
Ġ3 4
Ġtradition al
Ġto uch
Ġbel ow
Ġb ed
Ġadv ance
ri ption
l or
Ġsh own
Ġattempt ed
Ġnews p
z z
Ġsl ight
Ġcult ure
Ġoccur red
Ġy ards
Ġattack ed
Ġrelig ious
Ġc art
Ġp ick
Ġst ra
u als
Ġii i
Ġsil ver
um ents
us e
a j
Ġn ick
ag ing
Ġc ab
ort un
j oy
i est
Ġ3 8
Ġto urn
Ġre in
Ġact or
Ġr are
Ġrec over
Ġlar g
Ġfest ival
Ġr ing
Ġele cted
Ġann ual
Ġdefe at
an ced
e ch
Ġ201 6
Ġ iv
Ġ199 6
Ġre form
augh t
Ġrefer red
Ġ195 0
Ġpe ace
Ġconst ant
ne w
Ġne igh
iz ing
Ġfranc is
Ġm ind
Ġb ab
ct ing
u ing
Ġd ra
ri al
ver t
Ġb on
ol k
Ġthem e
Ġs av
am b
Ġps y
Ġaud ience
Ġschool s
Ġmag n
Ġlarg ely
Ġr is
Ġpr ince
Ġresul ted
Ġd un
ur ity
Ġj ose
ri an
Ġd ar
Ġass igned
Ġl ink
Ġcover ed
en ant
Ġoce an
Ġat h
Ġexp ress
as c
Ġlist ed
Ġvar iety
Ġcolle ction
Ġital ian
Ġf ast
Ġpur p
Ġgl ob
u ated
Ġb an
Ġgu est
Ġcompet ition
Ġ199 4
Ġc ath
h old
y a
m i
Ġas h
Ġear ned
Ġstad ium
Ġex pected
Ġcontro vers
Ġcomment ed
Ġn ames
Ġh aw
it ude
l s
ã ĥ
Ġstart ing
Ġn ucle
Ġcl osed
ter ed
Ġatt ention
Ġdoc ument
Ġquest ion
Ġperform ances
Ġrap id
Ġent er
Ġs out
ent al
Ġair port
qu ar
Ġacc ount
Ġg iving
Ġleg al
Ġk ar
Ġf igh
Ġext re
Ġref used
Ġeconom ic
Ġv iet
Ġc ust
Ġre pe
Ġch am
Ġim per
Ġcomp l
Ġgreat est
Ġc row
Ġm ir
oun ts
i j
Ġen joy
Ġwat ers
Ġset t
Ġelect ric
Ġmich igan
ap ed
Ġst ories
ut ions
Ġto wer
pl es
Ġab ility
nd ing
Ġnot es
Ġser ious
Ġdire ction
Ġd ie
Ġst an
Ġm un
Ġr ate
Ġme ant
Ġh und
Ġdecl ared
Ġ194 0
Ġw ales
Ġprom in
br idge
Ġvoc als
Ġo d
Ġn ative
Ġmat ches
Ġth ings
Ġp oll
Ġsp l
Ġ4 9
is her
b re
pt ed
Ġhund red
Ġm ention
Ġh us
Ġ18 0
Ġlevel s
Ġs we
Ġwor ds
u ff
u f
Ġab andon
Ġk h
g l
Ġmar riage
Ġnear by
Ġch ann
im s
Ġprodu ce
Ġte xt
Ġc ry
k er
Ġpract ice
Ġconstit ution
on a
Ġne cess
Ġf ill
Ġpre p
Ġconstru cted
Ġdef ense
Ġsour ce
Ġfant asy
Ġl ot
od ies
Ġdo ctor
w in
ol s
Ġcand id
i ences
ic ient
Ġ199 2
p ass
w ide
Ġ4 1
Ġdv d
g s
Ġvoc al
Ġm att
ro ad
Ġem per
Ġsepar ate
Ġlab or
Ġhigh ly
Ġme ans
ic ated
Ġfar m
Ġwrit ers
Ġe th
Ġ ess
et te
Ġsp ot
it ation
Ġexec utive
Ġmed ical
Ġro w
r am
Ġcontro ll
um n
ell ow
Ġdirect ly
Ġobs erv
g ing
Ġd a
Ġs le
Ġex hib
Ġpresent ed
Ġwe ather
Ġp urs
ish op
Ġultim ately
Ġcontin ue
Ġredu ced
Ġnorth west
p ing
Ġc ub
Ġze aland
k in
Ġposition s
Ġeff ort
Ġafric an
m as
Ġmultip le
Ġj er
Ġche m
Ġadmir al
w rit
Ġb ound
Ġmex ico
Ġfl ow
Ġeff orts
Ġ4 00
ib ly
Ġanim als
Ġbr ad
Ġme chan
Ġch ris
Ġform ation
Ġdis m
Ġlie ut
Å į
b and
Ġ193 0
Ġhous es
r ical
og ue
d ing
Ġtri ed
Ġat tended
Ġl in
Ġg as
Ġset tle
Ġstr ateg
Ġaccept ed
Ġstud ies
Ġd yn
k n
Ġw ear
Ġb atter
Ġ5 5
Ġt alk
Ġfinanc ial
Ġst ating
Ġru le
d on
Ġpar al
ac her
Ġlib r
Ġspec ific
Ġde pend
Ġsym b
Ġmem orial
Ġadv ent
v ement
Ġmad onna
Ġ199 3
Ġse em
Ġo h
Ġp air
Ġbo b
l a
ri e
Ġ199 1
tr ack
Ġs aint
Ġcer em
Ġincor por
Ġhon or
ri er
Ġbeg ins
Ġrec omm
Ġpil ot
is ation
Ä ĩ
Ġend ing
Ġscot land
Ġtr ue
Ġth ick
Ġcas es
Ġr am
Ġin ch
Ġ17 9
Ġl if
Ġj ones
an es
ru ction
Ġorgan ization
Ġtraff ic
Ġtheat re
Ġen emy
n ers
h ouse
re y
Ġro ugh
Ġb ell
Ġp ack
Ġs ides
Ġdr ive
op er
Ġar rest
Ġl uc
Ġfly ing
Ġm ob
Ġman aged
Ġar ab
Ġg reek
Ġconf l
Ġmean ing
Ġp ath
ill ery
Ġ +
Ġk enn
Ġform s
Ġrespons ible
Ġus es
Ġke pt
Ġ3 9
Ġresult ing
Ġtourn ament
Ġey e
Ġsound track
Ġw ound
Ġdro pped
Ġacad emy
Ġshow ed
Ġlieut enant
Ġro se
Ġprot est
Ġauthor ity
Ġm os
Ġl es
Ġpr ime
Ġpolic y
Ġ18 2
Ġqu ality
Ġb ost
Ġw ick
Ġf at
Ġed ge
un e
Ġ4 8
Ġstru gg
Ġh ors
Ġexp ed
Ġap art
Ġd ru
cl aim
u it
Ġ4 2
ceed ed
Ġsecret ary
Ġfound ed
Ġspir it
Ġact ing
Ġd ed
Ġe ll
Ġcomb ined
Ġadminist ration
Ġbo at
Ġmark ed
Ġproper ty
Ġcontin ues
Ġtri al
ad a
ip s
Ġsystem s
Ġart illery
Ġwilliam s
Ġprop os
Ġemper or
Ġb it
Ġinc hes
Ġsubsequ ent
Ġart ists
Ġ18 1
Ġenc oun
n am
Ġpar is
Ġattempt s
e x
Ġterrit ory
Ġcontem porary
Ġse arch
gy pt
Ġd raft
i ated
Ġext r
u ge
t hel
Ġview ers
Ġper f
Ġpot ential
Ġmar sh
Ġstud ios
an i
Ġplan et
Ġste am
Ġth ous
Ġcompan ies
Ġre ar
Ġnort heast
ic ip
ul ations
Ġallow ing
Ġpres ence
Ġsix th
Ġsc ale
Ġrec ent
Ġbeh av
Ġpre par
Ġcondu cted
Ġofficial s
Ġco al
Ġe gypt
Ġsupp l
j e
th ur
Ġpie ce
Ġob t
Ġdig ital
o e
Ġjo b
Ġresp ond
Ġm u
Ġse g
Ġ194 2
Ġfilm ing
Ġam ount
Ġcoll abor
Ġle e
k et
Ġhy d
stand ing
Ġsc oring
Ġcontr ast
Ġmach ine
ol f
Ġy ellow
Ġparen ts
Ġmet res
Ġopp ortun
ing u
Ġ ic
Ġcor por
Ġlat in
Ġtransfer red
Ġmaxim um
Ġdis e
Ġsen ior
Ġhead quar
Ġstep hen
r ain
Ġdef ence
Ġfig ure
Ġcom ing
Ġs ac
Ġfeat uring
in em
Ġgeor g
c le
Ġthe ory
Ġtem ple
en ge
Ġthere fore
Ġ4 7
Ġox ford
Ġprim arily
Ġall ied
Ġstud ent
Ġown ed
Ġpeak ed
Ġ6 5
Ġrel atively
Ġtor ped
Ġele v
Ġbecom es
Ġtit led
Ġcol d
ag a
Ġrecomm end
Ġact ually
Ġtorped o
Ġdist ance
ian ce
Ġjose ph
er o
Ġcit iz
Ġbe aut
ers ey
Ġport ion
Ġconclud ed
Ġc ert
Ġm ort
Ġst ock
Ġprem i
Ġcon ver
Ġbost on
Ġwrit e
Ġm ut
Ġman chester
Ġt on
Ġhar rison
Ġbattles hip
Ġch air
Ġje ff
Ġpsy ch
Ġtrans l
Ġsit uation
or ter
Ġb ass
Ġfun ction
Ġsh are
Ġobs erved
Ġs elling
Ġstreng th
Ġsw ed
Ġphys ical
os h
Ġinv asion
Ġbro ke
Ġt ree
Ġl iver
Ġcommun ic
aren t
Ġresul ts
Ġplay s
Ġdist inct
Ġalong side
ent ed
Ġd oll
c a
Ġ5 2
Ġconc ent
Ġpa id
in i
Ġr ating
ist ics
Ġcall ing
Ġdiv ided
Ġsour ces
Ġsecond s
Ġ4 6
Ġres ist
Ġc ities
it a
Ġ194 4
Ġf red
Ġcol umb
Ġsec urity
Ġperson nel
Ġreturn ing
Ġpower ful
Ġcont est
ste in
Ġslight ly
Ġo tt
Ġmanag ement
Ġin h
Ġre ject
Ġbord er
Ġhistor ian
Ġshe ll
Ġhistor ical
Ġar ts
Ġh an
Ġbird s
Ġ6 4
Ġmin im
Ġnot hing
Ġad j
Ġa ctions
Ġk g
Ġ4 3
Ġon to
Ġm ile
am ing
Ġbe ach
Ġsu st
Ġel se
Ġf ear
id er
Ġtr ust
Ġcan c
Ġplat form
Ġinflu enced
Ġv ess
Ġfre ed
Ġo w
ast ic
Ġactiv ity
Ġinn ings
ct ive
Ġ4 4
un t
Ġimper ial
il s
Ġf an
Ġsu c
Ġb bc
Ġcult ural
Ġath let
Ġcom edy
Ġnomin ated
Ġro d
Ġres idents
Ġpromot ed
Ġi re
Ġres c
Ġcro wn
os aur
Ġdesign ated
Ġcro at
for ce
Ġpass ing
p o
Ġproble m
Ġm is
st one
Ġl ov
Ġor che
Ġcomplet ely
ph y
ell ig
Ġl ane
Ġsub s
Ġconfl ict
Ġwe ight
Ġsex ual
Ġhe ight
Ġmain ly
Ġchart s
ic ed
Ġarm s
ist ry
Ġp aper
Ġenc our
Ġtr ail
Ġro t
Ġav enue
Ġpo et
Ġs ought
Ġcont ent
Ġwe bs
Ġstru ck
Ġ192 0
a ult
Ġ194 5
Ġrepl ac
Ġhand s
Ġs ense
Ġseason s
nd s
le ment
Ġfe ed
Ġvar i
m ond
Ġdou b
z a
Ġp ul
Ġf ish
Ġanc ient
Ġchar ge
Ġcon sec
Ġ194 1
Ġwar s
Ġreach ing
Ġ15 0
Ġspe ct
z y
Ġfell ow
ill s
Ġinstr ument
Ġc ell
y er
ian o
wh ile
Ġital y
Ġim age
Ġm it
Ġd ang
Ġweap ons
Ġchann el
Ġmed al
Ġs r
ol ved
Ġwid ely
Ġg il
ac ts
Ġfav our
Ġr y
Ġameric ans
Ġappear ances
Ġh abit
Ġem ot
qu es
Ġj ersey
Ġal one
ur a
Ġbase ball
Ġconfir med
i ber
Ġg ained
Ġk r
yl v
Ġf res
Ġf iction
Ġint ellig
Ġshe l
Ġbey ond
ad el
Ġc rick
Ġbrother s
Ġg ra
Ġjo in
Ġcho ice
Ġold er
Ġire land
Ġb ru
ot a
Ġele ment
Ġvers ions
r ative
Ġpro ved
Ġcar l
Ġanal ys
ro ll
ul ed
Ġlibr ary
om an
Ġexpl ained
c ers
m ans
Ġre ign
Ġoff er
al ing
Ġmur der
Ġste el
Ġexp ans
Ġa head
or ation
Ġsay s
Ġs ens
u le
Ġd w
Ġneg ot
Ġheadquar ters
Ġ198 9
Ġal t
Ġser ve
kn own
Ġfl oor
Ġo pt
Ġcom es
Ġcaus ing
b on
Ġspe ech
ic an
Ġhot el
Ġrain fall
Ġ194 3
Ġs ant
Ġrequ ire
d y
Ġsu it
Ġcath olic
Ġf al
Ġvictor ia
Ġhors es
Ġrec on
Ġwork ers
Ġexp ressed
t own
et y
Ġ5 1
Ġchar l
Ġspl it
Ġequip ment
Ġartic le
a res
e es
Ġapp arent
Ġgrow th
Ġreport s
Ġroad s
Ġbow l
Ġocc asion
Ġexper iment
anc y
Ġg ross
Ġdr ama
Ġadv anced
Ġpromin ent
Ġoff ensive
Ġp ap
Ġbr anch
Ġhus band
Ġoffic ially
Ġcapt ure
Ġident ified
Ġworld wide
Ġcateg ory
Ġso ft
Ġset ting
us ion
uf act
g u
Ġarm ed
Ġsur re
Ġt ells
Ġsp ort
Ġcomp uter
Ġjust ice
igh th
Ġcrick et
ou red
Ġman ufact
i Äĩ
Ġpat tern
Ġmat ter
Ġesc ape
Ġext ra
Ġb ott
Ġheav ily
Ġtre es
Ġres erve
Ġsp read
Ġrepresent ed
Ġsn ow
Ġactiv ities
m ark
ir ing
Ġtreat ment
Ġun f
Ġad apt
Ġle aves
b it
Ġpl aces
Ġpie ces
Ġact ress
Ġsen ate
Ġlead ers
Ġmean while
Ġav oid
Ġt ay
Ġj ul
Ġfig ures
Ġwh y
Ġbelie ve
Ġdu ke
Ġf ired
b i
Ġagre ement
Ġinj ury
ab eth
Ġexped ition
Ġdut ch
ub e
ylv ania
Ġd ata
Ġpr in
Ġl ives
Ġal bert
Ġto ward
Ġill ust
Ġel iz
Ġsupp ly
Ġun known
Ġdo ing
w here
Ġan th
Ġunl ike
Ġcou ple
Ġed itor
Ġla id
Ġdeb uted
Ġkil omet
h ire
Ġd in
ess ions
ac ity
p ool
Ġp in
Ġcons isted
Ġr i
our s
Ġcas ual
Ġm ig
Ġwall s
Ġa ired
Ġstri ke
Ġ id
Ġarg ued
Ġst ations
Ġop in
Ġb art
Ġwat ch
Ġtyp ically
Ġsp in
Ġim ag
Ġopp osition
Ġhom er
m ore
Ġst ore
os en
Ġsever e
Ġrefer ence
Ġmom ent
Ġpol ish
Ġd ream
Ġtw ice
us hed
Ġaff ected
Ġclaim s
Ġm ounted
Ġdesc ription
Ġanim al
ot y
il es
Ġas pect
Ġc ra
b n
Ġn ations
Ġpow ers
in son
Ġact ors
Ġindust rial
l ines
ad s
Ġsk y
Ġtechn ology
Ġj on
Ġs her
Ġnot able
Ġ6 00
Ġsu pre
el le
Ġf aced
Ġmaint ained
Ġacc ident
Ġval ue
Ġem ph
Ġtr ying
Ġt able
Ġkn ight
Ġvis ited
if ying
Ġdan iel
Ġcon vers
Ġord ers
Ġprote ction
Ġcritic ized
Ġcon ne
Ġmot or
g ers
Ġf uel
Ġdel ay
Ġfl u
Ġcarol ina
Ġhol ly
wor th
Ġland ing
Ġb a
Ġbro ken
Ġgrow ing
Ġf ully
Ġs om
oc key
Ġres ident
h ar
em ic
Ġmot ion
Ġch osen
Ġm ul
Ġtw el
Ġe t
Ġinstit ute
en ger
ru it
Ġscott ish
g ian
Ġs ail
Ġ5 3
Ġco oper
Ġ198 7
Ġlab el
Ġh at
Ġd ur
Ġprodu cers
Ġcritic ism
Ġtwel ve
Ġdemon str
Ġcomp ar
Ġsol o
Ġ198 8
Ġfrequ ently
oc ks
Ġyou th
Ġphil os
Ġb ol
Ġur ban
Ġsev enth
Ġent r
Ġn est
Ġcond ition
clus ion
Ġjo int
Ġt a
Ġland s
Ġm d
Ġpenn s
Ġ8 5
Ġbene f
Ġin te
Ġaccom pan
ag n
Ġtr a
Ġgold en
Ġnewsp aper
ay er
Ġlook ing
Ġch or
Ġnucle ar
Ġv ice
Ġopp os
Ġindepend ence
Ġle w
Ġbill ion
Ġdeg ree
Ġcomp osition
al a
Ġbud get
Ġcom ic
Ġsurround ing
Ġreg ister
Ġwound ed
ra el
ol a
ord in
Ġmo on
Ġassemb ly
Ġperf ect
Ġbar b
iz es
Ġrepublic an
Ġh ip
Ġoper ated
Ġcre ation
Ġserv ing
Ġgre w
Ġsimp ly
Ġd ry
u ous
Ġexpans ion
Ġfollow s
Ġchamp ion
Ġvot e
Ġco ol
Ġris k
an o
Ġr ival
Ġfam ous
Ġcont ained
i as
Ġinc ident
Ġher self
Ġag ric
Ġnew ly
Ġlos ing
Ġweek ly
Ġcont act
Ġsout heast
u nder
w ise
Ġkill ing
Ġand rew
Ġopp on
Ġindivid uals
Ġb c
y le
Ġc aval
Ġend s
m ission
Ġpass es
w all
Ġnorm al
Ġc inem
Ġpro s
Ġapp lic
Ġchrist mas
Ġj ac
ur b
iv ity
Ġs in
Ã ¨
Ġg h
he w
Ġ5 4
c ul
Ġhe ard
Ġatt rib
Ġwil son
Ġb ac
Ġch ronic
ot e
r id
Ġconsec utive
Ġt am
Ġey es
is ters
Ġorche st
Ġhom es
Ġa er
Ġn av
Ġwebs ite
Ġemph as
Ġmeas ure
Ġtay lor
Ġcann ot
uck y
pt on
Ġeliz abeth
Ġth ing
Ġ198 6
Ġsupport ing
Ġopp osed
Ġch ose
Ġper man
Ġnar row
il ly
Ġvol ume
ograp her
Ġalex ander
Ġcon sequ
ul ts
Ġpo ly
Ġcross ing
Ġjo e
ful ly
Ġagric ult
Ġnot e
Ġ9 5
Ġsk in
Ġv on
Ġsequ ence
Ġw ave
Ġ5 6
Ġd ub
Ġlead ership
w ater
Ġthem es
Ġ9 7
Ġparticip ated
Ġr ise
j o
y r
Ġadop ted
Ġdise ase
ce nd
Ġe ld
ã Ĥ
Ġcap acity
Ġh air
Ġhistor ic
pr ise
Ġex tend
est ic
Ġstand ing
Ġdef in
Ġcolon el
anc ing
Ġfres h
Ã ¤
Ġma x
Ġpl ants
Ġtr y
Ġfam il
Ġvis ual
Ġfilm ed
Ġadv ant
Ġabandon ed
Ġneg ative
l am
im ens
Ġev ac
Ġbas is
Ġpenns ylvania
Ġdemocr atic
Ġe gg
ut ing
Ġstra ight
Ġl ic
g reg
Ġt all
Ġp ier
il ed
Ġfail ure
Ġd rop
Ġmi ke
Ġr and
Ġapp l
Ġgame play
Ġcreat ing
k ins
Ġregard ed
Ġchall eng
Ġ17 7
Ġsu nd
Ġposs ibly
Ġl ap
us es
Ġar c
Ġcl in
k o
Ġtreat y
Ġir ish
ter y
Ġde ploy
Ġgirl s
Ġb odies
e v
Ġpal ace
is ers
Ġtri p
Ġhar ry
Ġcan al
Ġfound ation
Ġdist ingu
Ġse at
Ġlad y
u x
Ġle ge
Ġc ore
Ġad ult
r ane
Ġte nd
Ġk id
Ġk ick
Ġmer ch
Ġe ag
Ġide as
Ġsp ain
Ġre act
Ġinter change
Ġad vert
Ġl ind
Ġdism iss
Ġparal le
on c
Ġs el
Ġret ired
Ġz one
am m
Ġm ist
Ġt ank
Ġw el
Ġp ed
Ġsurre nder
t v
az z
g al
Ġt ell
Ġh ockey
Ġext ensive
Ġ17 8
Ġdel iver
ro l
Ġyoun ger
Ġ7 6
Ġde ck
Ġno b
Ġschol ars
Ġd ial
Ġa id
ru ct
Ġro les
Ġho pe
Ġgard en
Ġat m
at o
Ġexpl os
Ġanalys is
Ġfr anch
Ġoper a
led ge
Ġ193 9
Ġwor th
Ġrail road
Ġg ate
Ġb ishop
Ġg a
Ġr idge
and a
Ġachie ved
Ġimpro ved
Ġrepe ated
Ġd rew
ic ks
Ġl em
Ġa im
Ġsou l
ul s
Ġeconom y
Ġeffect ive
Ġclass ic
Ġbas ket
Ġp iano
Ġb om
Ġb anks
m es
Ġth or
Ġbrief ly
Ġw ed
Ġcham ber
or ters
Ġgl ass
Ġh ay
ian a
Ġd ip
Ġis rael
Ġsc he
i enced
Ġhouse hold
Ġt rou
r ich
Ġsouth west
h ol
Ġun su
Ġgrant ed
Ġvehic les
Ġcurrent ly
Ġpurp ose
Ġcitiz ens
Ġnecess ary
Ġreject ed
Ġf ame
Ġsu d
Ġreg ional
Ġ6 1
Ġar thur
Ġdef ensive
ark ed
Ġ196 8
Ġro of
Ġ198 5
Ġc aught
Ġrec ently
Ġturn s
Ġtyp es
Ġ6 6
Ġorgan ized
Ġrece ive
res p
Ġcor re
Ġs ell
Ġexp anded
Ġgen us
Ġatm osp
Ġspe ak
Ġsecond ary
Ġauthor ities
Ġprov ince
Ġcommission ed
Ġflood ing
Ġdid n
Ġon line
Ġkilomet res
j a
st ation
Ġk ir
Ġj es
Ġbra z
Ġb le
Ġf ro
Ġr hy
Ġcaval ry
Ġoh io
on ic
Ġlet ters
im ents
l ers
Ġo ri
Ġfamil ies
Ġperform ing
Ġtrans form
Ġdiv ers
Ġsuccessful ly
Ġliter ature
Ġwe b
Ġfreed om
Ġmar ine
Ġwh it
Ġdeterm ined
Ġal le
Ġdescrib es
ut ation
Ġtown s
Ġsaf ety
Å ¡
Ġassist ant
adel ph
Ġt ail
Ġag ent
id ay
Ġdr am
u ate
Ġf ought
Ġcust om
Ġpict ure
Ġhyd ro
Ġgo es
Ġun us
Ġpre fer
Ġsing ing
Ġ198 4
Ġphil adelph
Ġacqu ired
Ġtit les
Ġh orn
um ber
i ate
Ġcommon ly
Ġ8 00
Ġup gr
st ream
ol n
Ġfree way
Ġg ives
Ġsuggest s
s et
al ty
Ġcent uries
Ġmic ro
ri f
Ġsupre me
Ġv ac
Ġdistrib ution
ad ing
Ġplan ning
Ġgeorg ia
ot ed
ill a
Ġtr ains
in n
Ġmention ed
ific ations
Ġconv ention
Ġcl ou
Ġcam bridge
Ġr on
o pe
Ġmy th
av en
Ġrev ol
Ġcont ain
Ġaltern ative
Ġsched uled
Ġ5 7
Ġphiladelph ia
Ġset s
Ġcontroll ed
Ġk el
Ġ12 0
Ġco ok
Ġcl ar
Ġsim ple
att le
Ġprote ct
is f
Ġch ance
Ġshoot ing
Ġk a
Ġun ique
Ġgr aph
h aps
Ġwithd raw
Ġregard ing
Ġs s
Ġs ie
Ġprincip al
Ġper haps
Ġvir t
Ġf ix
Ġdec re
h i
Ġfind s
Ġ196 7
Ġs ave
Ġruss ia
Ġk it
Ġmod er
Ġread ing
um es
e en
Ġest ate
Ġscient ific
Ġre action
Ġcr ime
Ġfac ilities
Ġwit ness
am in
2 0
Ġ Î
Ġrul es
Ġwrest ling
Ġmed ic
Ġdem and
Ġs ession
Ġl is
Ġa z
Ġsc out
Ġarr ival
Ġg ain
Ġsub mar
Ġex change
Ġpublic ation
Ġcont aining
Ġte ach
Ġcerem ony
Ġliver pool
Ġt ag
t ic
ou l
Ġaccompan ied
Ġr ated
Ġpr ice
Ġbel ong
Ġnin tend
m outh
Ġfigh ter
Ġbro ok
Ġun s
Ġloc ations
Ġan ne
Ġr ub
Ġqu ite
Ġfin ish
Ġt act
p a
Ġsele ction
Ġbr id
Ġnintend o
Ġm ap
Ġm and
Ġl inc
Ġtouch down
Ġh its
Ġm outh
Ġcolumb ia
d a
Ġentire ly
Ġeven ing
un k
Ġg ri
Ġconc er
ing ton
sh ire
Ġfir m
Ġexist ing
Ġp y
Ġas ia
ru pt
Ġsing ap
Ġded icated
Ġje an
Ġc d
Ġf ash
o ch
Ġgre y
Ġleg acy
Ġbr and
Ġcontrib uted
Ġr um
Ġkore an
Ġk ings
Ġprov ides
Ġcrow d
om a
Ġrem ix
Ġp age
Ġk en
Ġbo ats
Ġpurch ased
Ġbraz il
Ġwind ows
et ts
ris ing
Ġ198 3
Ġo k
ing er
Ġres emb
Ġcamp us
Ġ5 8
Ġa x
Ġ7 4
Ġth row
ab les
Ġad ap
Ġjew ish
Ġbatter y
se y
ro om
ag an
Ġintens ity
Ġprodu ct
in ity
Ġfrancis co
Ġadvant age
Ġresist ance
Ġsingap ore
Ġsit es
resp ond
Ġlinc oln
Ġcor respond
k es
Ġoccup ied
Ġbo ys
Ġc ode
Ġ196 4
Ġe ighth
Ġcasual ties
Ġ196 9
Ġhold ing
os es
Ġbr ight
Ġpromot ion
Ġmill er
Ġcare y
Ġg ay
Ġb es
Ġg ulf
Ġel imin
Ġprote cted
Ġdra wn
Ġmer c
Ġres our
Ġreg ions
Ġg ill
Ġstruct ures
Ġplay station
Ġâ Ī
e ction
Ġmar c
Ġdis ney
f ort
Ġcon qu
Ġlaw s
Ġn ap
Ġ191 4
Ġcoast al
Ġclos ely
Ġcar s
Ġrece iving
Ġbasket ball
Ġsp r
c ript
Ġ191 8
Ġopportun ity
it led
Ġh ms
Ġlew is
g n
Ġg ib
Ġ198 2
Ġjud ge
r ons
Ġturn ing
Ġcall s
Ġgener ation
Ġ197 1
Ġste ve
Ġcons ists
Ġhead s
Ġby z
Ġgr ade
Ġ196 6
in y
ig er
bur gh
Ġand erson
w are
Ġ197 2
Ġact s
Ġrough ly
Ġcorn er
Ġbri an
Ġ197 9
Ġdef ined
Ġj r
Ġ5 9
w ick
Ġsymb ol
Ġres erv
Ġolymp ic
Ġneigh bor
Ġextre m
Ġstreng t
Ġfash ion
ver se
Ġhy p
Ġexper ienced
Ġroll ing
Ġbyz ant
Ġt enn
Ġany thing
Ġhe at
ot ic
bo x
Ġloss es
oc ated
Ġband s
gar ian
Ġret ire
Ġsur vey
e k
Ġh ind
Ġ196 5
Ġass ault
aw a
Ġview ed
Ġ #
man n
Ġeng aged
Ġn hl
Ġprov iding
Ġpolit ics
Ġfoc used
Ġtas k
r ate
Ġfl at
Ġ9 9
Ġ197 5
Ġrelig ion
eng ers
Ġdevelop ing
Ġse mi
Ġrel ief
Ġunc le
Ġappe al
u a
r ant
Ġm ales
Ġdom estic
Ã ¸
Ġw ond
Ġsh ared
Ġsh all
Ġo ak
Ġh ired
Ġdis app
Ġbott om
Ġto w
Ġgu y
Ġintellig ence
Ġhigh light
Ġph ase
Ġger mans
Ġcred its
Ġtemper ature
Ġholly wood
Ġen l
Ġgr am
Ġsol id
Ġrapid ly
Ġan s
Ġwal ter
Ġmy ster
Ġfa ith
Ġinvestig ation
Ġevery thing
Ġrecogn ized
Ġlaun ch
Ġ197 4
Ġmiss ing
Ġdav is
cl es
Ġjun ior
Ġintrodu ction
Ã¡ n
if ically
Ġbelie f
Ġ6 2
Ġappo int
he im
Ġh art
Ġ197 3
Ġjour ney
b ound
op her
Ġhe ll
Ġpain ting
Ġget ting
act ive
Ġf olk
Ġv ent
i at
Ġg ord
Ġser b
Ġsubst ant
Ġis ol
Ġ6 3
Ġprep ared
Ġt ick
Ġ7 7
Ġmount ains
Ġfranch ise
ess ed
Ġfall s
il ton
Ġsh ape
Ġ7 3
Ġopin ion
Ġk new
Ġglob al
Ġam end
Ġth in
Ġl b
Ġc ens
Ġsignificant ly
Ġ197 6
Ġs ort
Ġex act
Ġappro ved
en c
Ġaut h
Ġrom e
Ġproject s
Ġcon ve
Ġadd ing
f riend
Ġliter ary
Ġinterse ction
Ġl as
Ġw ings
e per
w art
Ġpen ins
Ġreason s
Ġarch ae
Ġknow ledge
onc Ã©
Ġconf eder
ograp hic
Ġhun g
Ġmus l
Ġplay off
Ġra id
Ġn az
ren ce
is hes
Ġunsu ccess
Ġchall enge
if ul
olog ist
Ġs ab
Ġcab in
Ġwhe el
Ġv ic
ul ate
Ġsy d
t ar
Ġst ages
Ġview s
Ġesc ort
er ted
Ġw ard
Ġev olution
Ġ25 0
v a
Ġsettle ment
Ġex erc
Ġcr is
Ġstory line
Ġequ al
ock ed
Ġty ph
Ġbey oncÃ©
l av
Ġintern al
Ġoper ating
ach us
Ġpo em
bre ak
em an
Ġsh ut
Ġrep utation
Ġ6 7
Ġren amed
Ġex pect
ed s
Ġwat ched
Ġs ed
i ents
Ġsh aped
Ġreb u
Ġbab y
ir a
Ġpro ceed
Ġhum ans
un te
Ġpopular ity
Ġfem ales
Ġnever thel
Ġlim it
Ġneverthel ess
Ġf ine
ast y
Ġaut om
Ġemploy ed
Ġthir ty
Ġall ies
it an
Ġsh ore
Ġgu ide
Ġb ull
Ġprofess or
Ġne ut
Ġinj ured
Ġc ape
em e
Ġvol unte
Ġc ited
Ġincreasing ly
hen s
Ġb ern
ad or
a ver
Ġmod els
Ġbl ues
Ġkent ucky
Ġwe alth
Ġgr av
Ġtri ple
Ġ194 6
Ġhead ed
Ġpain t
z en
Ġfind ing
Ġne ither
Ġ198 1
ap pe
se e
Ġj am
ist an
Ġcolle cted
Ġdecl ined
Ġra f
Ġconn ected
ar m
Ġhill s
Ġviol ence
Ġd iam
Ġdet ails
Ġsc ul
ĠâĪ Ĵ
ant ly
Ġlab our
Ġexist ence
Ġ9 6
Ġdep th
Ġenjoy ed
Ġent ry
in um
ony m
Ġt orn
Ġconver ted
m od
Ġnor way
Ġcons um
Ġ6 8
Ġlear ned
Ġbr on
Ġcontrovers y
Ġsust ained
Ġvol can
Ġim pl
Ġ7 2
Ġo uter
Ġa ri
Ġ191 7
Ġolymp ics
Ġchampionship s
Ġappl ied
Ġs ad
re c
ell a
ce ived
Ġmass achus
b l
ak a
if orm
Ġallow s
ist ol
h r
Ġc ells
Ġcr imin
Ġte acher
Ġcam era
Ġmassachus etts
Ġsw im
Ġinter p
n ic
Ġcl ark
Ġp ear
Ġsyn t
Ġ8 7
Ġv el
av a
Ġway s
Ġprem ier
Ġocc as
Ġar sen
Ġtest s
Ġdec ade
Ġappro ached
Ġaw are
Ġeas ily
Ġentr ance
Ġg ang
os is
ap es
Ġg ree
Ġ16 0
at ures
rop ri
Ġdesign s
Ġdown lo
Ġf oss
Ġdut y
Ġcarry ing
Ġgr ay
Ġtechn ical
Ġrespond ed
Ġdiscover y
re l
Ġm ine
Ġconf ron
Ġn ic
om y
Ġchair man
Ġt s
Ġsa x
Ġl oy
Ġ194 8
ps ons
Ġpit ch
Ġin du
Ġbreed ing
Ġbur ied
er al
Ġext ension
Ġgrad ually
Ġsuc ceeded
Ġ7 00
Ġprogram s
Ġh ang
Ġn as
Ġconv oy
Ġspec ifically
Ġh ug
Ġm ode
Ġpri ze
Ġj ay
Ġac res
at i
un a
ain e
Ġast ron
Ä ģ
Ġs ons
Ġshow ing
Ġdo or
Ġle v
Ġmay or
im a
Ġit ems
t ical
Ġbus h
Ġmun icip
ign ment
Ġsim psons
Å Ĥ
Ġinst all
Ġse ctions
Ġprison ers
Ġstre t
Ġgen re
Ġex clus
Ġarrang ed
Ġcred ited
Ġg one
Ġh ull
i ro
Ġlege nd
Ġr aw
Ġadd ress
Ġn one
Ġ6 9
Ġte en
Ġ197 8
Ġstat ement
Ġc ad
w a
Ġsimilar ly
Ġcry st
Ġprodu cing
Ġwin ner
Ġros s
it ors
Ġpart ies
Ġse ems
Ġimpro ve
Ġsh op
Ġaddition ally
Ġu til
Ġviet nam
Ġ9 1
Ġpresident ial
Ġearl iest
c ome
p ut
Ġ7 8
Ġweak ened
Ġthreat ened
Ġland fall
Ġwar ning
Ġr ural
Ġcandid ate
Ġott oman
s s
Ġro utes
Ġsound s
og en
Ġbe ar
Ġpl ac
Ġfield s
Ġengine er
Ġad am
Ġ191 5
ent ions
Ġin ner
Ġmo ore
Ġdiv isions
Ġpol and
Ġcomb ination
Ġret ained
Ġsp ok
Ġbr ain
Ġsyd ney
Ġ197 7
Ġprodu cts
Ġmary land
Ġlast ed
i pe
Ġm tv
n ow
Ġk im
Ġd ress
Ġhe ar
Ġ9 4
ink ing
Ġchem ical
Ġsh a
Ġev il
Ġon es
ct ors
Ġinst ru
Ġanim ated
Ġrepl ace
on ia
Ġo t
Ġinte gr
m et
Ġbas ic
ath an
iv ered
Ġinter ior
Ġadap ted
Ġinsp ir
el ess
iss ance
Ġmag ic
Ġground s
Ġsuppl ies
Ġfr ag
Ġeng ines
Ġ196 3
Ġc ul
Ġafter wards
Ġspe aking
Ġpenins ula
Ġmess age
Ġ8 1
Ġfill ed
Ġmaint ain
m ath
Ġdel ivered
Ġcal c
Ġequ ival
Ġag ency
Ġc ow
Ġ9 8
Ġsupp orters
Ġcr ash
ol i
Ġk ur
Ġent itled
re ts
Ġcle an
Ġaff airs
Ġperman ent
Ġindic ated
Ġclim ate
al y
Ġdown town
Ġstop ped
Ġengine ering
Ġextrem ely
Ġsurv iv
Ġ191 6
Ġsus p
Ġaff ect
Ġarchitect ure
Ġal ien
Ġcaus es
Ġdiam ond
al i
Ġso le
m un
Ġb ath
Ġw ides
iz ations
Ġdeath s
Ġpropos al
Ġgre g
Ġdru g
Ġmul der
Ġf ruit
Ġrest aur
Ġmar s
Ġimport ance
Ġbu ff
us hing
Ġsec ure
s p
ap ped
Ġ7 1
le e
t ime
Ġsp ons
Ġreturn s
Ġgord on
ot hes
Ġrat ings
Ġc hes
Ġde leg
Ġt el
Ġcompos er
Ġphil ip
Ġrh odes
Ġp ig
Ġb os
Ġac id
Ġk o
Ġhar v
Ġ191 9
it t
Ġimp lement
c ks
bo ok
Ġkn ots
em ies
Ġ196 2
Ġj ur
Ġman s
le ton
Ġcons c
Ġ8 9
Ġclass ical
Ġb ure
Ġsw it
pect ive
Ġk at
Ġsurv ived
Ġgi ant
os a
Ġstre ets
Ġrefer ences
Ġcomp on
Ġma h
Ġafter math
Ġdescrib ing
Ġcol our
bour ne
Ġf ict
Ġho ly
Ġwrit es
Ġclass ification
rop ol
cher s
ino is
Ġsong writ
Ġconv in
Ġal f
Ġtyp ical
Ġ eric
Ġmed ie
ol es
ivers ary
Ġpr int
Ġb ought
Ġ8 2
Ġa ck
Ġl l
Ġsome one
Ġ193 8
Ġv ul
Ġconcern s
Ġenvironment al
Ġm es
Ġim ages
Ġn a
Ġrem ember
Ġ8 8
Ġg y
Ġfl o
Ġent ering
Ġr ivers
Ġstud ied
ant e
Ġrul ed
Ġunivers e
Ġportray ed
ent ially
Ġarrest ed
Ġsc ar
Ġcru iser
Ġpre ced
Ġvot ed
Ġt anks
m us
Ġs ale
Ġredu ce
Ġdecl ine
Ġrec alled
Ġele ven
Ġag o
Ġret reat
Ġj ane
Ġr ab
Ġsh r
Ġir a
Ġsie ge
Ġmedie val
Ġarm or
Ġpurch ase
Ġcorpor ation
c op
ak i
z er
Ġact ual
Ġown er
Ġqu ant
Ġfeel ing
Ġobject s
Ġall iance
ans as
Ġtyph oon
Ġcap able
Ġliber al
Ġp av
Ġb ang
Ġchap ter
Ġnomin ation
Ġs essions
Ġn el
ad ow
Ġphil ipp
Ġal an
Ġob l
Ġt ony
Ġrecogn ition
Ġmar g
Ġacad emic
el a
Ġsuff icient
Ġident ity
Ġthous ands
Ġcam er
Ġhun ting
Ġfund s
Ġdr iving
Ġ195 6
Ġoff ers
Ġconne ction
Ġme ters
Ġ13 0
Ġconcern ed
Ġprin cess
Ġb ry
Ġ17 5
Ġnot ing
Ġequip ped
Ġk ong
Ġpass age
Ġscul pt
h us
Ġann iversary
Ġad mitted
Ġdeb ate
Ġcolon ial
Ġfin als
Ġdec ades
Ġhistor ians
in al
Ġrecommend ed
Ġk er
Ġinterest ed
Ġ7 9
Ġpl ate
Ġdet ect
Ġinv ited
Ġconsist ing
Ġs ight
Ġj ord
Ġad ams
Ġarsen al
Ġh ou
ell er
r ight
Ġprogram me
Ġth under
Ġunivers al
Ġdip l
Ġdou gl
Ġe at
Ġinst alled
Ġcross ed
u ct
Ġbre aking
Ġmar ia
w ich
ak ed
Ġwar m
Ġ193 6
Ġconsider able
Ġcol ony
Ġg am
Ġunder t
Ġsequ el
Ġcour ts
o ir
Ġsim on
Ġstart s
Ġham ilton
i ques
Ġestablish ment
Ġd ates
Ġchar ged
Ġen emies
Ġimpro v
Ġb ou
ack s
Ġve ter
Ġdut ies
Ġremain der
or a
u an
Ġman ner
rane an
Ġa k
Ġtr uth
Ġdec or
Ġparalle l
Ġj ump
Ġsty les
Ġp ure
ok ed
Ġread y
Ġshar p
Ġnegot i
he as
Ġut c
Ġsal t
Ġsh ield
p read
Ġcommun ist
Ġal leg
Ġconserv ative
Ġwides pread
el and
Ġpromot e
Ġpict ures
Ġnet her
Ġp ound
Ġ196 1
osaur us
il ation
Ġmo le
Ġb id
Ġde an
Ġ8 4
Ġbehav ior
Ġth ro
Ġd iet
Ġhe rit
Ġp ad
Ġoccasion ally
ing ly
Ġclass es
Ġdepart ure
ig ation
Ġaspect s
Ġc os
Ġslow ly
Ġind ones
Ġanim ation
Ġcontin uing
Ġn ba
Ġelect ronic
Ġarg ent
Ġtrans ition
Ġ195 3
Ġkenn edy
e b
Ġbeaut iful
Ġresour ces
Ġrom antic
Ġorchest ra
Ġwear ing
Ġhapp y
Ġmon ument
Ġac claim
Ġrhy th
Ġl am
Ġdest ruction
Ġemerg ency
ak ers
Ġdisapp o
il ing
Ġ9 3
Ġsund ay
Ġswe et
Ġr ide
Ġassist ance
Ġhow ard
Ġpost ed
Ġindian a
ion e
Ġle on
Ġnor we
Ġsen ator
Ġform al
Ġocc urs
Ġtransport ation
Ġsc ully
Ġtre as
Ġcar bon
het ic
Ġr ug
as hed
Ġacc ur
at ch
Ġcert ified
Ġb ot
ak en
Ġpop ulations
Ġcred it
Ġhit ler
Ġvess els
Ġsuper ior
Ġmem ory
Ġinc ome
Ġd ated
out s
Ġ194 7
Ġproper ties
Ġatt ached
Ġconserv ation
Ġchor us
be y
Ġmat hem
Ġ195 8
Ġport ug
Ġdem ol
Ġequival ent
Ġpass engers
op hy
Ġanc est
Ġadvent ure
Ġsh ots
af ter
Ġw we
Ġpri est
Ġinvol ving
Ġc ant
Ġcirc um
Ġtur k
Ġchap el
Ġ8 6
o ard
ic ide
Ġherit age
Ġ195 7
Ġ191 0
aw are
Ġexp and
Ġtun nel
n o
Ġold est
Ġack now
vel and
Ġsett led
Ġry an
Ġsle ep
Ġ11 0
Ġp ink
Ġcat ch
Ġtermin us
Ġf isher
Ġ193 7
Ġr ig
Ġpo pe
Ġobt ained
Ġresc ue
Ġbomb ard
Ġauth ors
Ġwin s
Ġwor st
Ġder ived
ic it
Ġnin th
Ġcirc uit
Ġacc used
ag ues
Ġfin ishing
Ġe u
reg on
Ġincorpor ated
Ġcle veland
iv als
Ġreview ers
r us
Ġo regon
Ġfavor ite
Ġill inois
Ġdougl as
Ġcol umn
Ġpred e
ly ing
Ġpre y
Ġchar ges
Ġcris is
Ġmov es
Ġjun ction
Ġsw ord
he red
et ime
Ġreplac ement
Ġdyn asty
heas tern
Ġbring ing
Ġvehic le
Ġ <
Ġmiss ions
Ġhost ed
Ġgr ass
Ġbel t
Ġcommit ted
Ġand y
Ġseg ment
are t
Ġaud io
Ġl enn
Ġass umed
Ġsupp osed
w estern
in ary
b ar
Ġden ied
Ġstan ley
Ġjord an
w an
Ġ195 9
p ir
Ġroom s
ĠâĢ Ŀ
Ġinterp ret
o es
Ġrec re
Ġmed iter
Ġclub s
Ġun p
Ġcirc ulation
Ġreb ell
Ġwee ke
Ġrepresent atives
Ġfict ional
Ġmusic ians
Ġunus ual
Ġd ens
agon ist
Ġinter cept
Ġshe ar
Ġro ger
Ġbeat les
Ġmediter ranean
Ġout standing
Ġdep ut
Ġthe ater
Ġsee ing
Ġstrong ly
Ġbru ce
Ġke vin
el ine
Ġmex ican
Ġcommand ed
Ġreal ity
Ġnorwe gian
Ġmon arch
Ġ195 4
Ġcomplet ion
Ġwick ets
Ġ195 5
Ġsol ar
Ġbeg un
Ġbr istol
Ġcat hed
Ġm ol
Ġcon te
Ġcost s
Ġcharacter istics
Ġmaterial s
Ġpers u
ĠâĢ ľ
r an
Ġde em
Ġl anc
ic ian
Ġexcept ion
Ġw et
Ġmethod s
o oth
Ġg ust
j i
Ġalle ged
Ġt ied
Ġposs ibility
Ġis bn
Ġh az
Ġsurv iving
Ġdes cend
Ġpass enger
Ġs ailed
Ġevery one
Ġpra ise
Ġb ah
Ġcan cer
Ġv ision
Ġrespons ibility
Ġatt or
Ġrecon st
le ts
am i
Ġoppos ite
Ġfor d
Ġatmosp here
ag er
Ġdr iven
Ġdiffer ences
Ġer u
Ġlis a
bor ne
wor ks
Ġcar rier
Ġhabit at
st ate
Ġag gress
Ġmiss ed
Ġint ention
Ġthere after
ĠÃ Ĺ
u v
Ġv oy
Ġbu y
Ġrepresent ative
Ġsche me
Ġr if
Ġother wise
Ġdes ire
ch ar
c on
ont o
Ġv ary
Ġor ange
Ġdr agon
Ġwr ong
b urn
Ġplat inum
Ġn ich
Ġfund ing
Ġkore a
or gan
Ġrecover ed
Ġmass ive
it able
ar ian
Ġph ill
uc ks
Ġthr one
Ġstrateg y
Ġattrib uted
erg ed
Ġs ke
Ġretire ment
Ġeffect ively
Ġstay ed
Ġcommun ities
Ġdis appe
Ġsh if
Ġwar ri
Ġserv es
Ġrein force
Ġmor ris
Ġemerg ed
Ġin se
Ġ8 3
Ġ195 2
Ġmin istry
Ġweap on
Ġ ille
Ġad ults
we ight
Ġout break
Ġpun k
Ġtw in
Ġab oard
Ġmor gan
al f
Ġnorm an
Ġaccom mod
Ġrob inson
Ġclass ified
Ġto ll
Ġregular ly
Ġdocument ary
Ġnel son
Ġpart n
Ġmob ile
b ell
Ġacc ounts
Ġele ctions
Ġtown ship
e z
els h
Ġple as
Ġpremi ere
Ġ9 2
Ġhaw ai
Ġwond er
Ġunder ground
re ll
Ġ193 3
Ġstrengt hen
Ġste ad
Ġinspir ation
os lav
Ġp ir
ism s
Ġ17 6
Ġcross es
Ġfall ing
Ġdiss ip
Ġattr acted
Ġl un
Ġc rop
Ġne ck
Ġform ing
Ġcirc le
Ġl ies
ri ers
Ġst ood
Ġfact or
Ġsat isf
Ġl ith
Ġch a
Ġpre t
Ġtri als
az a
Ġsubmar ine
Ġpar ks
Ġbatt ing
ret t
Ġly n
Ġcrimin al
Ġr aces
Ġd or
Ġrac ing
Ġmov ements
Ġp ull
an th
Ġre new
Ġinj uries
ens es
Ġneed s
pp ing
Ġs id
Ġra ise
Ġvot es
Ġswed en
Ġj enn
Ġimm ig
Ġm ck
Ġ193 5
so le
Ġan ton
Ġsepar ated
ok ing
Ġcondu ct
Ġsh ark
Ġw y
ab led
Ġadv is
Ġch ain
Ġcomm em
Ġc eme
Ġrel ative
Ġcl a
Ġall en
Ġpubl isher
Ġgar rison
Ġphot ograph
Ġprede cess
a ug
Ġsud den
Ġpat rick
Ġbattleship s
ut s
Ġear n
Ġ195 1
Ġsym ph
id den
Ġ194 9
Ġn om
Ġtem porary
Ġrec ru
Ġdistingu ished
Ġp ale
Ġtor onto
Ġw elsh
Ġhe m
Ġb ag
Ġstand ards
Ġdifficult y
Ġe ch
Ġs oph
Ġpl ane
Ġpart ner
Ġor b
Ġque ens
b ing
Ġdes ert
Ġport s
Ġbyzant ine
Ġfac ility
Ġsurround ed
Ġseem ed
Ġdelay ed
Ġat om
Ã³ n
Ġdep ict
Ġg ets
te enth
og y
Ġegg s
Ġo m
Ġsc r
Ġhar m
com ing
Ġhop ed
Ġrem n
Ġeld er
Ġrest ored
Ġbar r
im ate
Ġsh ir
Ġchild hood
Ġrequest ed
Ġang le
Ġcur t
Ġpen alty
Ġfl ank
Ġnether lands
r ad
Ġh in
Ġus s
Ġmet ropol
Ġclaim ing
Ġmatt hew
Ġintern et
Ġal i
Ġam az
Ġt u
oy d
or al
Ġtemper atures
Ġbrid ges
Ġse nd
Ġag es
Ġreview er
Ġelse where
ab il
Ġw olf
Ġgreat ly
Ġpubl ishing
Ġconvin ced
Ġr ud
Ġmoder ate
Ġcathed ral
Ġmur d
Ġdang erous
Ġstand s
Ġj azz
Ġfr ame
Ġcy cle
Ġjac ob
Ġjew s
Ġme ets
Ġexam ples
Ġk iss
r ations
Ġconve ction
Ġapp ropri
Ġpain ted
Ġt ub
Ġadapt ation
Ġaccom pl
Ġr it
Ġdr ag
Ġal co
Ġsp oke
Ġy e
Ġattr act
Ġrecord ings
Ġlear n
Ġwr ight
Ġeas y
Ġhundred s
Ġira q
o z
Ġinvol vement
Ġar n
Ġ ere
p son
y ard
Ġa h
Ġ19 00
ert o
Ġimmedi ate
ile y
Ġfl ed
Ġle af
Ġpar ish
Ġloc k
Ġco in
Ġexc ell
Ġany one
Ġtri es
Ġtechn iques
Ġstri p
Ġche ck
Ġsum m
om ot
Ġsat ell
b ro
w ar
Ġbure au
Ġsal v
Ġencour aged
Ġappear ing
Ġlear ning
ut her
ber ts
wh at
Ġsome what
Ġsaf e
Ġarm en
re ck
im et
Ġ ip
Ġpro hib
Ġwood en
Ġr ick
Ġp el
Ġsuff ering
Ġlegisl ation
Ġch ur
Ġruss ell
Ġgraph ics
Ġthom pson
se x
Ġdis pl
Ġcroat ian
Ġsynt hes
Ġdeterm ine
Ġfl ash
Ġhor ror
Ġve get
Ġjournal ist
Ġdismiss ed
ag ement
Ġbe ars
Ġis lam
Ġp ak
Ġh ub
Ġpat ri
Ġins ur
Ġmeas ures
Ġg or
iv a
Ġmar gin
Ġens ure
Ġass ass
Ġinterest s
Ġabs or
Ġkel ly
Ġt an
Ġd ating
Ġup d
form ula
Ġwhere as
Ġnick n
Ġbu ck
Ġfigh ters
b ra
Ġh ud
Ġcar ter
go ing
Ġattempt ing
Ġk l
Ġus a
Ġfac ing
Ġ0 6
Ġn fl
ag re
Ġtro phy
Ġpu erto
Ġhold s
ig g
Ġthous and
Ġhe nd
Ġd od
Ġpoet ry
Ġquest ions
Ġg ent
Ġb ats
Ġdep os
Ġsc rap
Ġspe ars
Ġby pass
Ġformer ly
b ody
el d
Ġbig gest
Ġextre me
Ġfit ted
i ant
Ġvis ible
Ġcon clusion
Ġt ip
Ġn iel
igh ter
Ġstar red
Ġattack ing
itz er
Ġinflu ences
Ġclos er
Ġabs ence
Ġprodu ctions
app ing
Ġbat man
f e
Ġcommon we
enc ies
Ã ±
Ġhun garian
Ġw es
re al
Ġmod ified
Ġl ion
Ġmet e
Ġrep rodu
Ġinstr uments
Ġpremi ered
Ġcl oth
Ġhon our
Ġdeem ed
Ġ191 3
Ġbron ze
Ġcommonwe alth
it o
Ġsc and
Ġnov els
á »
Ġlabor atory
Ġpro sec
Ġpark er
Ġapparent ly
Ġnar rative
Ġf u
Ġcontrovers ial
Ġdipl om
Ġland sc
Ġmur ray
n ight
Ġloc omot
Ġhar ris
Ġdistrib uted
Ġd re
Ġover se
Ġlong est
Ġterrit ories
Ġg ather
Ġfil es
Ġlead s
Ġ192 6
al o
Ġhar bor
Ġunder stand
Ġal ph
re te
Ġoper ate
Ġland ed
Ġjo y
Ġla ure
Ġ192 7
ame ter
Ġgall ery
Ġcreat ive
Ġdisc ip
Ġrest oration
Ġarrang ement
Ġacknow led
Ġm amm
Ġtr ained
Ġ192 1
Ġrhyth m
ch ang
Ġmain stream
Ġvict ims
Ġvisit ors
Ġ193 4
ow a
Ġrele ases
Ġd na
Ġun iform
Ġst or
Ġco ins
Ġrepresent ing
Ġunsuccess ful
v is
Ġdyn am
Ġse es
Ġli qu
Ġsubst it
Ġweeke nd
Ġres olution
Ġref uge
han na
Ġex cess
Ġâ Ĥ
Ġown ers
Ġbelie ves
Ġclou d
Ġinflu ential
Ġhou ston
ix on
Ġlook ed
ap ers
d d
iv an
Ġy an
Ġdep icted
Ġfin n
Ġber lin
ag u
Ġ0 8
Ġconc ur
Ä į
Ġvide os
ic i
Ġbas in
Ġattor ney
Ġs or
Ġw ag
Ġcom ics
che n
Ġy ug
Ġsec ured
Ġ9 00
ent ional
Ġinform ed
Ġk w
Ġdomin ated
Ġchur ches
t z
Ġw ol
el er
Ġ191 2
Ġnot ably
Ġexp os
ro it
Ġcast ing
Ġre un
Ġex it
Ġgi ants
ill ing
aw s
Ġleg s
Ġsant a
Ġwat ching
Ġl od
Ġdr iver
us ing
Ġswed ish
p any
Ġro berts
Ġsimp son
Ġh ut
Ġrese ar
Ġlangu ages
Ġrelationship s
Ġguard ian
at ically
ost er
Ġneigh bour
Ġbehav i
ay a
Ġ193 2
Ġind ians
ult ane
t ure
Ġsim ultane
Ġoffic es
Ġt one
Ġter ror
Ġdev ice
as ka
Ġcabin et
Ġimp oss
Ġhous ing
Ġt ie
Ġsk ills
Ġd ies
ac ent
Ġtest ing
ill ed
Ġc ov
ic ation
Ġdi agn
e enth
Ġd ick
Ġc ock
Ġpre gn
Ġra af
Ġachie ve
Ġoppon ents
Ġk ne
Ġab d
Ġceme tery
Ġl iz
Ġhe aring
Ġfred er
Ġemot ional
Ġfact ors
l i
Ġwar ner
Ġdeploy ed
Ġs ang
ap se
Ġj ason
Ġint ense
Ġinc om
Ġmete or
Ġdial ogue
Ġb apt
Ġimp ressed
Ġyug oslav
r ig
Ġn bc
Ġ0 9
Ġoper ational
Ġgener ated
Ġreported ly
Ġdownlo ad
Ġa u
Ġform at
Ġdet ail
Ġdrum s
Ġag ents
Ġre nder
ious ly
Ġhapp ened
Ġanth ony
ruct ure
Ġwind ow
Ġmain ten
Ġagricult ural
Ġfoot age
Ġexper iences
Ġtre k
Ġemploy ees
Ġmainten ance
tern al
Ġsom ers
Ġb h
Ġg aga
f are
Ġab bey
Ġsat ur
art s
Ġsuccess or
ol ph
Ġm ud
Ġscient ists
ud es
c i
Ġl ose
Ġr ising
Ġfir ing
Ġcroat ia
Ġh u
Ġcl ay
Ġcommem or
ac he
Ġdet roit
Ġb un
oty pe
Ġc u
Ġz ero
Ġnegoti ations
m ate
Ġlow est
ic ial
Ġar k
Ġf ishing
Ġ192 9
Ġsu re
Ġc od
Ġf ried
Ġperson ality
Ġdefend ed
Ġrevolution ary
Ġgil bert
ct ic
Ġbel g
Ġ191 1
Ġte eth
Ġcolle ct
f ire
Ġmed ium
Ġdiscuss ed
Ġtre ated
Ġrec ur
Ġexec uted
Ġa y
Ġnorm ally
ain ts
Ġst em
Ġs ic
Ġse as
Ġk u
ann y
Ġsym pt
t w
Ġfe ud
Ġ14 0
Ġste wart
Ġas ian
Ġres ign
Ġ193 1
Ġ192 2
Ġt enth
Ġrad ar
Ġdraw ing
Ġd j
Ġcar ib
Ġtrib ute
Ġjes us
3 0
ont in
Ġc her
Ġent ers
Ġtorn ado
Ġb reat
Ġinter state
ig en
Ġres igned
ach ment
Ġadv oc
Ġmel bourne
Ġdiffer ence
Ġfle w
Ġdet ailed
Ġev ans
Ġaccom pany
Ġniel sen
Ġorigin s
Ġgood s
Ġport ra
Ġbo il
Ġlo b
Ġclin ton
Ġpartn ership
i h
n oon
Ġbud d
ili ar
Ġresident ial
Ġform ally
Ġpo inted
Ġeth nic
Ġag ed
Ġsy nd
Ġvess el
Ġx box
Ġafter noon
Ġprefer red
Ġgl ac
o is
Ġstorm s
Ġinh abit
Ġlo op
Ġmilit ia
Ġreve als
Ġinn ov
o en
Ġh uge
Ġra j
Ġinstit ution
v ens
Ġannoun ce
Ġkeep ing
Ġprevent ed
Ġst able
Ġdirect ors
Ġatl ant
Ġneighbor hood
or ous
Ġfor b
Ġtem por
ar f
Ġapp rec
n i
s k
Ġp ushed
Ġarr iving
Ġmusl im
Ġsubstant ial
Ġfor ty
Ġ0 5
Ġs isters
Ġtechn ique
Ġmarsh all
Ġisol ated
il a
Ġhand ed
Ġorgan izations
Ġmom ents
Ġmet ro
Ġfound er
Ġdist urb
Ġsam uel
Ġexp osed
Ġsev ent
l ie
Ġp hen
Ġpart ly
Ġlink ed
Ġent hus
Ġturk ish
Ġh ans
m ad
ver e
Ġfact ory
Ġsar ah
Ġher ald
Ġanal y
p et
Ġdesign er
Ġcontin ental
Ġox y
Ġb enn
Ġimp rison
Ġdepart ed
Ġcorre ct
Ġlenn on
Ġex isted
Ġinstrument al
be an
Ġp ione
ot es
Ġpro ced
Ġcomp lic
Ġme g
Ġwed ding
Ġass ess
Ġperiod s
Ġbal tim
Ġfrequ ent
Ġman h
Ġfif teen
Ġdram atic
Ġrank ing
Ġsus pend
Ġgree ce
Ġm ack
Ġav o
Ġext ent
Ġbaltim ore
re es
Ġ17 0
Ġmor al
Ġsh ock
Ġaust ria
s a
Ġin her
Ġimposs ible
in er
rom e
ro se
Ġparticip ate
Ġsym p
Ġoccup ation
st ic
Ġinst ance
Ġconcer ts
ind er
Ġschol ar
Ġinit i
Ġsee king
Ġcat al
Ġdeput y
Ġal ter
Ġant icip
Ġm ail
le v
Ġgr ace
Ġapp le
Ġt aught
ol is
Ġlo ad
Ġcolor ado
Ġfin ale
Ġspec imens
Ġtr u
Ġpat rol
im b
Ġcru isers
ust ed
Ġarm ament
Ġtur b
m at
Ġsee k
Ġg ates
Ġman us
Ġgh ost
mus ic
Ġ ern
Ġhun t
Ġimp ress
Ġf ab
Ġver se
Ġcreat or
Ġnewsp apers
Ġrare ly
Ġamend ment
f r
ar n
Ġmal ays
Ġspe nding
ull ivan
Ġa qu
Ġrep air
Ġsm ooth
g ate
Ġd ave
Ġd ir
Ġfriend ly
Ġdoes n
olog ists
m al
Ġgen e
co pe
Ġmetropol itan
Ġabs ol
Ġse m
Ġch ase
Ġlist en
ly n
Ġare na
Ġhel ic
Ġprec ip
Ġ192 8
Ġn ag
Ġal ab
Ġdiv or
Ġdi ameter
Ġunc ertain
Ġmathem at
Ġp ip
r as
Ġp ounds
Ġst ro
ill er
Ġrel ie
iam i
Ġobs er
Ġtim ber
Ġfreder ick
Ġpo ison
b oy
ob i
Ġwithd rew
Ġexhib ition
um in
Ġle ct
ic ians
Ġper mission
Ġpick ed
Ġch anc
Ġjo ining
Ġsomers et
Ġr ates
Ġupgr aded
Ġchang ing
Ġencoun tered
Ġpolic ies
Ġc ous
Ġin aug
Ġ192 5
Ġdifficult ies
Ġco vers
Ġmar io
Ġg ab
Ġan na
Ġpl us
Ġcons ult
Ġref ere
Ġin qu
Ġrest rict
Ġcoll aps
id ae
bor ough
Ġmult i
ĠÃ ¦
Ġsched ule
d ie
se a
Ġlegisl ature
Ġsu icide
Ġover s
an ium
s ki
che ll
Ġang lo
Ġadv ice
Ġm iami
ar ia
Ġmerch ant
Ġpart ially
Ġfr an
Ġ189 0
Ġs ank
Ġse attle
Ġfeder ation
Ġpil ots
Ġan ch
Ġdis aster
Ġbomb ers
Ġadj acent
Ġathlet ic
Ġb oss
Ġrest ric
Ġtur rets
Ġ192 4
Ġr ic
Ġd al
Ġcom ments
Ġtravel ed
Ġbenef it
Ġg ap
ol as
Ġse ed
Ġsk ull
Ġphilos ophy
Ġref ers
Ġgard ens
Ġw aves
Ġmin es
Ġexpl o
Ġag ree
Ġlo an
Ġaff air
Ġse ats
Ġsign s
c ol
Ġk al
Ġmar ry
ames e
Ġpro port
Ġme at
Ã© e
Ġse ctor
Ġwor ship
Ġsh akes
Ġeag le
Ġi owa
Ġcritic ised
Ġ ian
Ġsold ier
Ġrebell ion
Ġpl ain
Ġpre f
Ġph r
t i
Ġso il
Ġmin t
Ġ0 7
Ġminim um
Ġp c
Ġco ordin
st ers
Ġrem ove
Ġsw ift
Ġcompet e
Ġmunicip al
Ġrep r
ger y
Ġmiss ou
Ġalab ama
Ġ ion
Ġstrugg le
Ġprom pted
Ġmiss iss
Ġindic ate
Ġover l
us al
Ġbas es
Ġcarib bean
Ġs i
Ġwh il
Ġpit ched
in ction
Ġd anc
Ġhal o
Ġdestroy ers
Ġmedic ine
Ġmanus cript
Ġr av
Ġsur prise
att an
Ġcommunic ation
Ġnap ole
Ġneut ral
i ot
Ġspirit ual
Ġlaw rence
Ġstr ing
Ġcoll apse
Ġgro wn
p ower
Ġparen t
Ġenter prise
p ie
en h
Ġu m
Ġcop y
Ġteach ing
is d
es is
Ġ192 3
Ġpow ered
Ġcollabor ation
Ġyan ke
Ġbro s
g i
Ġg at
ust er
Ġinde ed
Ġwalk er
Ġcharl ie
Ġrestaur ant
Ġwhil st
Ġbl ow
Ġprot agonist
Ġmarket ing
Ġmin nes
Ġc iting
Ġdesign ation
Ġstre am
atter ed
Ġfor cing
Ġelect ron
Ġfif ty
Ġcap it
Ġval ues
Ġpaint ings
n ings
Ġappoint ment
Ġk han
Ġy or
Ġbr anc
Ġposs ession
g as
Ġsatell ite
Ġhelic op
Ġw reck
Ġappro val
Ġprov inc
Ġdescrib e
Ġarm ored
m ont
Ġj en
Ġform ula
Ġcover ing
Ġsurviv ors
Ġpret ty
Ġcandid ates
Ġdepend ing
ik a
m ates
r um
Ġround s
Ġab b
Ġman e
Ġunder standing
Ġhar bour
Ġencoun ter
Ġdisp ute
Ġchar ter
Ġfort ress
Ġor bit
Ġbr ill
Ġbal ance
Ġcy l
Ġbow ling
Ġben j
Ġhung ary
Ġoxy gen
Ġd im
Ġvill ages
Ġartic les
Ġnaz i
Ġsit uated
Ġtrav elled
Ġdoll ars
m o
Ġp ic
Ġp ine
Ġdisplay ed
Ġlist ing
Ġh amp
ic ate
Ġprom pt
l an
cept ion
Ġvict ories
asc ar
Ġm all
Ġminim al
Ġsurv ive
Ġviol ent
Ġw ake
Ġfem in
Ġd ock
Ġf el
Ġpo le
Ġaustral ians
Ġsoft ware
Ġbelg ium
Ġser ial
1 0
Ġplayoff s
Ġo ption
Ġchrist opher
Ġsympt oms
Ġc ot
Ġclos ing
Ġlegisl ative
Ġpro l
Ġrec onna
Ġt elling
Ġdif f
Ġdie go
Ġd ancing
Ġfun eral
Ġearth qu
Ġj ar
Ġass isted
Ġamong st
Ġshakes pe
Ġforest s
Ġhelp ing
Ġal ive
Ġinter pre
Ġpublic ations
Ġsug ar
Ġrid ers
Ġn am
Ġact ed
Ġsk i
Ġbr un
Ġcar go
Ġelimin ated
es h
Ġmar ks
Ġmon ster
ã ģ
Ġ *
Ġn ad
Ġas ks
Ġgu il
Ġdeg rees
Ġpo ems
Ġbattal ions
n ie
od ore
Ġrug by
ore n
Ġdr ivers
Ġreconna issance
ph one
Ġmic hel
Ġpurp oses
an na
Ġcolon ies
vel t
Ġalf red
Ġm ys
Ġdis l
Ġ190 5
Ġ190 8
ime ter
Ġ190 9
Ġtom b
Ġadminist rative
Ġpr on
Ġfat al
Ġcircum st
Ġm ason
Ġro ose
Ġbenj amin
Ġoccas ions
Ġcomp ilation
Ġrep airs
Ġsim pl
Ã §
Ġtrou ble
Ġstat ue
Ġj ok
Ġviet n
Ġbl ind
Ġalco hol
ort ed
Ġvietn amese
Ġcr us
Ġinter act
Ġro ut
Ġl ists
Ġconc rete
Ġattend ance
Ġminnes ota
Ġin land
at us
Ġvo iced
Ġm ental
in als
Ġab ilities
Ġpres erved
Ġcann on
Ġgram my
Ġan ime
Ġpublic ly
Ġp ant
Ġcon sole
Ġs ick
ru pted
Ġmanh attan
Ġt ang
Ġill ness
Ġfrank lin
ograph ical
Ġprepar ation
Ġdefe ating
Ġarg ument
Ġwid er
Ġcommunic ations
e ing
um an
Ġorgan isation
Ġbusiness es
f ted
Ġhor iz
Ġ10 5
Ġsign al
for ced
j an
Ġh ong
Ġto uring
Ġr amp
Ġj et
Ġ12 5
Ġroose velt
ag en
Ġel abor
Ġ0 4
ud a
Ġpo ol
Ġco le
Ġres idence
Ġhighway s
Ġ190 7
Ġco ff
Ġv s
n g
Ġsur ge
Ġdoll ar
iv ated
Ġam mun
Ġpre l
Ġback ing
Ġfall en
op es
Ġres umed
ather ine
Ġal ignment
Ġs as
ac le
Ġthink ing
Ġk ansas
Ġ16 4
Ġarch b
Ġflight s
Ġcompet ed
Ġmississ ipp
Ġbelie ving
Ġoppon ent
Ġunder st
Ġin g
ish ment
Ġn ash
Ġcount ies
Ġsign ing
Ġcrew s
i able
oun ced
Ġintens ified
Ġammun ition
Ġdoc uments
Ġsubject s
Ġr ib
Ġass ists
Ġam ate
Ġgen etic
Ġport land
Ġaltern ate
Ġwill ing
Ġbi ographer
d in
Ġfriend ship
Ġwalk ing
Ġinterest ing
Ġus ual
Ġaud iences
Ġexc av
Ġcerem on
Ġatom ic
Ġus d
Ġno ble
Ġstrateg ic
Ġdel iber
Ġs ib
Ġn it
Ġdoub t
Ġsuit able
Ġfeel ings
Ġab ol
Ġengine ers
Ġr ush
Ġsp ar
Ġsatur day
Ġprovinc ial
or ph
Ġrad ical
ens ions
Ġpe ters
Ġch and
Ġair borne
Ġwood s
Ġst u
à ¤
Ġtrib es
Ġgu ards
Ġcomple ting
Ġown ership
Ġpercent age
Ġ16 5
Ġfun ctions
Ġwar ren
Ġsub mitted
Ġwa iting
Ġ188 0
don ald
Ġaut obi
Ġexplos ion
Ġas king
Ġd c
Ġco b
Ġunder w
Ġloy al
Ġalex and
Ġp or
Ġt ast
Ġdis ord
Ġchar ity
it ated
iven ess
Ġbeh alf
Ġart istic
Ġho ok
Ġadop t
Ġst ick
Ġshakespe are
Ġt ab
Ġv inc
Ġtenn es
ut or
Ġpol ar
Ġle x
Ġhin du
Ġret ail
Ġchronic le
Ġev olved
Ġcamp bell
Ġqu ad
Ġche st
Ġcinem a
Ġr ip
if er
Ġste ven
Ġrev enue
Ġt ed
Ġfr ust
onym ous
Ġw ire
Ġregister ed
Ġr ice
Ġfal se
c ular
Ġbirth day
ad er
od s
Ġg oth
Ġcart oon
Ġs ullivan
Ġob v
Ġtarget s
d ale
Ġrem ark
Ġho le
Ġastron om
Ġluc as
Ġsuspend ed
Ä ĥ
Ġd imens
ig e
pec ies
Ġp ok
s es
Ġbor ough
Ġrel uct
Ġmov ies
Ġ0 1
Ġpoor ly
Ġfavor able
f ather
Ġne p
Ġp up
Ġegypt ian
Ġmississipp i
Ġh ob
Ġrec ip
Ġhead ing
Ġc ass
Ġfor th
Ġgu er
Ġcom fort
Ġp ace
ic ts
Ġste vens
Ġcivil ian
Ġmus h
Ġguil ty
Ġqu iet
Ġfr ig
Ġide al
Ġmeas ured
Ġreplac ing
Ġk in
Ġcl iff
Ġmarg aret
Ġli ked
Ġsol ution
Ġbound ary
Ġoff ering
Ġmissou ri
Ġtennes see
Ġj osh
Ġl akes
ot o
s ky
Ġret rie
Ġaim ed
Ë Ī
Ġarm ies
Ġlouis iana
Ġexp ensive
Ġprov ision
Ġ190 6
l ah
Ġacc eler
Ġmont real
Ġpros pect
p es
in ations
est on
ine a
Ġj os
Ġpal est
Ġeng agement
Ġ36 0
Ġshell s
Ġsimultane ously
Ġro cks
Ġclear ly
Ġ190 4
Ġbehavi our
Ġtempor arily
Ġgal ax
Ġfil ed
Ġship ping
Ġrecogn ised
Ġsequ ences
u able
Ġc raw
Ġb illy
Ġg ear
Ġmon aster
Ġ187 0
Ġw ore
Ġav iation
Ġphilipp ines
c el
Ġto x
Ġes p
Ġrepres ents
Ġvul ner
Ġread ers
Ġsav ed
Ġagricult ure
Ġb rick
ze ch
c rib
Ġcover age
Ġmit chell
Ġw ants
Ġsub t
Ġstor age
Ġf ra
Ġgr an
Ġbut ter
Ġconte xt
Ġess ential
Ġremn ants
Ġsk et
i ac
o h
Ġst ores
Ġpar s
Ġph oen
Ġtal ent
Ġco inc
wn ed
Ġer r
Ġcanc elled
Ġpattern s
Ġmin ing
Ġph one
Ġprop ag
Ġcompar ison
Ġbl ocks
ri x
Ġkir k
Ġsur gery
Ġt ight
Ġspot ted
Ġ il
Ġf aster
Ġpers pective
Ġmat ters
Ġinstit utions
Ġgra ham
Ġas ide
Ġarm our
Ġcontin u
Ġc zech
Ġprote in
Ġrefle cted
Ġ0 3
Ġdog s
yl an
Ġpract ices
Ġfam iliar
Ġsuggest ing
Ġf urn
Ġwas n
iss ions
Ġcontrib utions
m n
Ġthe r
Ġc oc
Ġcar n
l ife
Ġless er
Ġmane u
Ġb are
Ġnot ice
Ġfast est
Ġoverse as
Ġthir teen
Ġglob e
Ġhun ter
Ġbeaut y
Ġapplic ation
Ġro ots
Ġari z
Ġsubs pecies
Ġrebu ilt
Ġr anks
Ġver tical
Ġdestroy er
Ġpul led
r ator
Ġpred omin
Ġdru gs
Ġcryst al
Ġfurther more
Ġsh adow
Ġjo bs
Ġcub a
r ants
Ġfor g
Ġarchb ishop
r im
un es
Ġex clud
Ġesc aped
Ġs ult
Ġst rict
Ġam ounts
Ġdec ides
Ġflag ship
Ġsl aves
Ġint elle
Ġwick et
i y
st orm
Ġem pt
Ġol iv
Ġc ave
Ġo sc
th a
Ġall music
Ġtri ang
Ġsum mit
Ġintelle ct
n et
c ar
Ġpan el
Ġlack ed
vere ign
Ġsp ider
Ġso vereign
Ġdro ve
Ġquarter back
os ing
Ġbom bs
Ġconfeder ate
Ġto y
Ġexp ression
Ġun ex
Ġsub ur
Ġtam il
Ġs q
ks hire
Ġcons pir
Ġbad ly
or i
ur ally
Ġto ky
Ġam ph
Ġsever ely
Ġaut umn
Ġcontrol s
Ġarg ues
Ġbi ography
Ġport ions
art ney
Ġdistinct ive
Ġind ies
Ġpr inted
Ġcre st
Ġbul k
Ġstri king
Ġcor on
Ġariz ona
Ġstar ring
Ġgod d
Ġm l
Ġear ning
Ġobserv ations
Ġs ony
Ġf o
Ġpers ian
Ġt ort
Ġt ale
Ġcharacter ized
Ġcond em
Ġrestric ted
ur er
Ġor th
Ġplan ets
Ġliber ty
Ġinhabit ants
Ġt ack
Ġw ish
Ġb ald
Ġd ylan
Ġconstitution al
Ã º
Ġst ern
Ġspe nd
l ings
Ġcl ock
Ġmar ie
Ġmain land
iet ies
Ġguitar ist
Ġbon us
Ġphen om
c ru
y on
Ġn ik
Ġfl ower
Ġvis iting
Ġexcell ent
Ġch ick
Ġrang ing
Ġdefin ition
id ency
Ġrev ival
Ġsit ting
Ġwil hel
Ġfer ry
Ġpl ut
ath y
Ġ11 5
Ġfix ed
Ġpear l
ro g
Ġl t
Ġcur ren
Ġhol iday
Ġwa it
Ġt iss
Ġexpl ain
Ġsquad rons
Ġw ine
Ġm ik
Ġv ib
Ġs ig
Ġj ury
Ġcommand ing
Ġv ast
Ġexpl ains
Ġmeet ings
Ġth rew
f ish
Ġac ou
Ġnomin ations
Ġdomin ant
Ġmultip l
Ġstat istics
og a
Ġparliament ary
Ġultim ate
ol id
Ġr ings
Ġathlet es
Ġok lah
Ġamate ur
Ġmar vel
Ġdang er
e qu
Ġd y
Ġbomb ing
Ġamb ass
Ġt ig
Ġart ific
Ġp ill
Ġmet all
Ġdemonstr ated
Ġille gal
un ction
Ġeduc ational
r act
Ġbroad way
Ġmr s
Ġtick et
Ġb one
Ġarr ive
Ġar ist
Ġco at
Ġma ur
Ġfound ing
Ġ17 4
v o
Ġh idden
Ġy ield
Ġsw itzer
an ian
Ġl en
Ġcar riers
Ġmur phy
Ġro ok
Ġor n
Ġab und
Ġst ere
ow ed
Ġart work
Ġhar vey
Ġwar ship
Ġpred icted
Ġexperiment al
Ġd ust
Ġp m
Ġtalk ing
Ġaer ial
Ġswitzer land
Ġre ver
est one
Ġnorth ward
Ġre aches
est ed
Ġan at
Ġsl ave
Ġam y
h u
Ġbar ry
Ġprep are
Ġcens us
Ġp ush
Ġbe am
th y
Ġgr ave
Ġb erg
Ġover t
Ġpe aking
Ġ190 1
Ġdecl ar
ul ating
Ġfeed ing
Ġconsc ious
d i
em en
Ġab c
Ġche l
Ġvi i
or er
a way
Ġd read
Ġapart ment
Ġacc um
gr ad
Ġn ut
Ġfore cast
Ġconvers ion
Ġhousehold s
Ġliqu id
Ġdis agre
Ġoklah oma
Ġaust rian
Ġcru c
u ations
Ġserious ly
Ġb ach
Ġb aker
Ġste ps
ast s
Ġfe els
b ec
ors hip
Ġaud ition
Ġl anes
Ġjo h
Ġinn oc
Ġm ate
Ġover w
Ġcho ose
Ġsymph ony
Ġdel aware
Ġv a
Ġuse ful
Ġlay er
Ġswim ming
Ġrepeated ly
Ġpredecess or
Ġ190 3
Ġcop per
Ġwell s
Ġpat ron
Ġobt ain
Ġl augh
Ġwest ward
Ġl on
Ġinter f
Ġ15 5
Ġ190 2
Ġg w
Ġthan ks
Ġconsid ering
Ġphys ics
Ġper ry
Ġmin i
Ġmembers hip
Ġb od
Ġfe ather
Ġback ed
Ġnin et
Ġcircumst ances
Ġn i
im en
Ġr ico
ell i
Ġ0 2
Ġatt ained
Ġto dd
Ġpres erv
Ġdeliver y
Ġsh aw
Ġles lie
Ġf asc
um ps
Ġper ceived
Ġmem or
Ġconsequ ently
ic ut
Ġmad ag
Ġlook s
Ġcon greg
Ġev e
Ġmel ody
Ġp ages
Ġball ad
Ġbern ard
c s
Ġv ig
Ġmill enn
Ġre vers
Ġdu o
Ġsubs id
Ġrevol t
Ġb ones
Ġcom ed
Ġst ones
Ġas k
Ġval uable
Ġimprov ements
Ġh av
r ast
r idge
Ä ĳ
Ġsun k
Ġflow ers
Ġcomp ens
Ġrem arked
Ġden mark
Ġair lines
Ġjon athan
Ġtoky o
is p
Ġtow ers
Å «
on ed
Ġb our
id ers
Ġkur t
um a
Ġperson ally
Ġbattle cru
Ġri hanna
Ġatlant a
Ġposs ess
Ġp att
Ġh og
et on
Ġeng age
Ġprom ised
y m
Ġsp art
Ġgu ar
Ġret ain
Ġed wards
Ġmusic ian
Ġtact ics
Ġlandsc ape
Ġk am
Ġk ids
Ġjohn ny
Ġren ov
Ġda wn
Ġn ixon
Ġtheat rical
Ġexec ution
ang el
Ġob st
r ating
Ġman ga
Ġ10 1
Ġsun g
it ter
Ġm ent
onom y
Ġtrav els
Ġstrengthen ed
f a
ming ham
Ġenl isted
v i
Ġdem ands
Ġexpl an
l ow
Ġr al
Ġis a
ap olis
Ġmechan ical
in ian
Ġsix teen
Ġprof ile
Ġqual ified
Ġju an
Ġfun ny
Ġ16 8
Ġarn old
ru ption
Ġra ising
Ġpit ts
Ġred e
Ġcampaign s
ud ed
Ġag greg
Ġair field
Ġsuccess ion
Ġburn s
Ġpap ers
Ġillust rated
Ġdem anded
Ġtur ret
b ard
Ġm s
ar r
Ġcomp ound
Ġinterpret ation
e le
Ġwas te
est yle
Ġsp a
ov a
Ġcomp ounds
Ġelev ation
m ith
row s
b ird
y t
Ġst ress
Ġins isted
Ġcloth ing
Ġelectric ity
as a
Ġke ith
Ġjim my
Ġb ak
Ġrul ing
Ġmir ror
Ġs ak
Ġjud g
Ġphoen ix
Ġbar on
ab s
Ġen roll
Ġme ter
Ġcan ter
Ġg lee
Ġgent le
Ġbe ats
Ġt ales
Ġcar p
Ġd ressed
Ġh ood
Ġr uth
Ġrac hel
n ik
Ġstrugg led
Ġpro st
Ġfew er
Ġly ing
Ġsett lers
gh an
u ki
est y
Ġhy br
Ġ Ï
Ġpass ion
Ġtrad ing
Ġinse cts
Ġm ong
Ġpar as
Ġincre ases
Ġconqu est
Ġr iding
Ġen cl
Ġpers ons
Ġcou p
Ġdemol ished
Ġyanke es
Ġf is
Ġsh ift
ult y
Ġdec isions
Ġstrong er
ack ed
Ġwaters hed
Ġsuc ceed
Ġ16 6
Ġcut ting
Ġv ik
od ox
ens is
Ġsur pass
Ġfour teen
Ġdaugh ters
ut t
Ġbir mingham
Ġcompl iment
n at
Ġtr acy
Ġremov al
Ġh ugh
je ction
Ġmill s
Ġdevelop ers
Ġadvert ising
ac re
Ġob ama
Ġexact ly
aver y
Ġcul min
Ġex ternal
Ġbl u
Ġ10 9
Ġgri ff
om p
Ġbac ter
g ie
x ual
Ġlight s
Ġobject ive
Ġfoss il
Ġm ant
Ġpurs ue
Ġconcent ration
f olk
Ġf ate
l ock
Ġd enn
Ġres ol
Ġkill er
Ġdiscover s
k h
ar o
Ġl ip
Ġsuper st
Ġbudd h
el ed
Ġelect rical
Ġal tered
Ġmagaz ines
Ġdeter ior
er b
Ġv enue
Ġbob by
Ġmerc ury
Ġere cted
Ġoverw hel
Ġcomp rom
Ġwar fare
Ġdef ences
Ġdeb t
Ġrang es
Ġlov ed
Ġhydro gen
Ġsp ur
Ġwealth y
Ġhud son
f ts
Ġg osp
Ġexerc ise
Ġev al
Ġdefend ing
Ġadvent ures
Ġemploy ment
Ġorgan ised
Ġkar l
Ġb og
ct r
ch a
Ġheart s
Ġbur ial
Ġexpos ure
Ġd all
Ġsh ak
Ġapproach ing
Ġf old
se ason
Ġway ne
Ġinvest ment
Ġjur isd
Ġmadag ascar
Ġprof it
Ġestablish ing
Ġconnect icut
Ġc ed
Ġm ood
ris es
Ġhen ce
Ġlim its
Ġgod s
Ġv anc
Ġsele ct
Ġconnect ing
m und
Ġmcc artney
Ġmor rison
Ġt ong
Ġon tar
Ġj up
Ġep ic
Ġqual ifying
zz le
Ġpart ial
Ġcent ers
id en
Ġout d
Ġmat ure
Ġl iv
Ġtr ick
Ġcomment ary
Ġontar io
Ġl or
Ġfr iday
Ġra ids
Ġaggress ive
Ġis ot
Ġpro ve
Ġex ter
Ġdeter min
Ġdw arf
Ġcanter bury
r ams
Ġtravel ing
Ġarchitect ural
Ġsl ip
Ġrad iation
Ġmark ets
Ġannounce ment
Ġsh orter
Ġarrang ements
Ġthe ore
ou ver
Ġimpro vement
Ġun less
Ġed ited
au x
Ġleon ard
Ġsult an
p y
Ġon going
Ġpr uss
Ġpar ach
Ġpred ict
Ġindic ating
Ġt ube
Ġvol umes
Ġwithdraw al
Ġacou stic
Ġd ict
Ġh oney
Ġper mitted
ens ively
Ġsl avery
Ġsurv ival
Ġcelebr ated
Ġg ren
Ġcl er
Ġarm oured
Ġn urs
Ġsc iences
Ġappropri ate
Ġacknowled ged
if ies
Ġprecip itation
Ġbom ber
Ġre nd
Ġsil ent
ro us
ef a
Ġgrad uated
Ġdiscuss ion
Ġprepar ations
Ġnapole on
Ġstation ed
Ġput ting
Ġextr at
Ġrecover y
b ow
Ġc ort
ang er
Ġkill s
Ġdub bed
Ġdissip ated
l ain
ip h
Ġinit iated
Ġreal ized
Ġdisappo int
ad i
Ġevac uated
Ġvo ices
Ġphotograph s
Ġw is
Ġu efa
Ġhost s
Ġtransl ation
Ġgrad uate
Ġextrat ropical
Ġhard y
Ġhyp othes
Ġfle ming
Ġplac ing
o ons
Ġter r
Ġpar am
ues e
it is
ul ous
sh ore
Ġindust ries
Ġvoy age
Ġvanc ouver
Ġg ary
Ġrequ ires
Ġre he
Ġk on
Ġatt itude
Ġtr uck
Ġ15 2
Ġhar mon
Ġv amp
Ġorigin ated
Ġmc m
Ġrep orter
Ġyoun gest
Ġburn ing
it udes
ament al
as er
Ġst ol
ca a
Ġed in
Ġconfron t
Ġjup iter
h ard
Ġaff ili
Ġpot ter
hip s
Ġexclus ive
Ã© t
Ġstrong est
Ġspec imen
Ġconv entional
Ġrefer ring
Ġtub es
Ġr p
Ġtrans it
Ã ¦
Ġtour s
pl ed
Ġech o
Ġpak istan
Ġsupp lement
Ġcolle agues
Ġend ors
Ġdon ated
Ġestim ates
Ġminor ity
ov en
Ġexper t
Ġdev ast
it ively
Ġr us
Ġex ha
Ġpar ody
Ġmon te
Ġt na
Ġkn ock
Ġ17 3
Ġpromot ional
aut ical
ĠÃ¦ thel
ing ham
Ġindic ates
Ġdec ide
Ġclos est
Ġbrad man
Ġw ool
Ġk ap
Ġax is
Ġportug uese
Ġl ac
Ġdr inking
Ġman or
Ġt rough
Ġe ug
Ġvis its
c r
Ġbe aring
Ġrec all
Ġlu ke
Ġearthqu ake
h ous
Ġout f
Ġ10 4
Ġheav en
re p
Ġc ord
Ġus ers
Ġal ice
Ġgu inea
Ġattend ing
Ġsout heastern
Ġgat hered
Ġsign ature
Ġdens ity
à ¸
iv ation
Ġc raft
Ġsc attered
Ġmor ph
Ġterrit orial
p ers
Ġleg it
Ġlaw yer
in ces
Ġprogram ming
Ġsuppl ied
Ġdw ight
Ġchalleng ed
Ġartific ial
c ase
Ġb eng
Ġ186 0
Ġtradition ally
Ġhan na
Ġcous in
Ġp am
Ġbar n
Ġmer ely
Ġ189 3
Ġident ify
Ġcru ise
Ġachie vement
Ġdev il
Ġemphas is
Ġo v
Ġconcent rated
m ers
ur ation
Ġscreen play
Ġcollaps ed
ad ier
Ġcot ton
Ġc ash
Ġprincip les
Ġdemocr ats
Ġover lo
Ġgovern ments
ell o
Ġann ually
Ġ189 6
Ġst al
Ġhe y
Ġphot ography
so ft
Ġalph a
gr aph
Ġelect ro
Ġun com
Ġpred ators
Ġpr ices
Ġhamp shire
Ġedin burgh
b al
n ia
Ġn caa
Ġopt im
Ġc elt
ul ted
Ġoff ense
claim ed
Ġapplic ations
Ġdo ctr
Ġprov inces
Ġsac rif
Ġf ed
Ġbo om
Ġol iver
ot te
Ġprison er
Ġlaw su
Ġse ized
Ġchem istry
Ġcoal ition
Ġcompet ing
Ġdeclar ation
Ġur anium
Ġfail ing
Ġaccompany ing
Ġd ale
Ġre verse
and y
Ġp ond
Ġaf ghan
Ġportray al
Ġ ig
Ġmos c
Ġto pped
Ġind igen
Ġgl en
Ġst uff
Ġse nding
Ġrang ers
f eld
ag ger
Ġsm art
Ġportra it
Ġunivers ities
Ġ189 8
Ġinvestig ate
Ġvel oc
Ġch ord
Ġten ure
Ġtal ks
Ġout put
Ġ17 2
Ġbroadcast ing
Ġter rain
Ġcho ir
Ġreinforce ments
Ġc ros
im p
Ġrev enge
Ġhe ir
Ġt ai
Ġreg ime
Ġexper iments
Ġcertain ly
Ġgodd ess
Ġson ic
Ġk an
Ġ35 0
Ġbene ath
Ġshar ks
Ġsp y
b u
Ġprofess ion
Ġgu id
Ã¼ r
Ġtrou b
imet res
Ġrecur ring
Ġd ual
Ġhit ting
ak s
Ġcons olid
Ġlord s
Ġral ph
Ġindigen ous
Ġt ap
Ġi bn
Ġap oll
Ġju ven
Ġflood ed
Ġvot ing
Ġvictor ian
Ġtermin al
Ġargent ina
Ġreconst ruction
Ġy am
Ġsp aces
iet h
Ġ11 1
Ġsus pect
Ġpen et
Ġbranc hes
Ã °
it ch
Ġn u
Ġl av
Ġj ama
Ġred es
Ġmas ters
Ġvolunte ers
Ġhy per
Ġquestion ed
Ġyor kshire
it i
Ġn erv
ell ation
Ġge nder
Ġhistor ically
Ġce ased
Ġhe s
Ġ12 7
Ġobs c
ows ki
Ġd ors
id al
Ġtex ts
Ġdec ay
Ġstr ange
Ġvir us
Ġcontrib ution
Ġc able
Ġjer ry
Ġr io
Ġsm oke
Ġassemb led
Ġcra ig
Ġsongwrit er
Ġh ast
Ġcon ce
Ġchristian ity
Ġimp ression
Ġrev ised
Ġtrib e
Ġcompon ents
crib ed
Ġel ig
Ġcomment ing
Ġst ops
Ġmay a
Ã© s
Ġimag ery
Ġg az
Ġredu ction
Ġdrum mer
p in
Ġdev ices
ov iÄĩ
Ġinf rast
Ġturn er
Ġn ice
Ġre organ
Ġredu cing
Ġuncle ar
i ary
ir m
Ġrefle ct
Ġmillenn ium
Ġser ge
Ġme nd
Ġunderw ent
Ġre ward
Ġst amp
Ġrepl ied
ham mad
Ġdestroy ing
Ġdur ation
on ian
Ġen force
Ġ189 9
Ġcompon ent
r h
Ġmultipl ayer
Ġand re
Ġturn p
Ġcoll ins
Ġtri um
Ġconsist ent
Ġf ulf
pl er
Ġsur ve
at ra
Ġmar ge
Ġhow e
ay an
olog ies
Ġpat ients
Ġident ical
Ġgar n
un c
Ġfin land
Ġappro aches
Ġpropos als
Ġg aming
Ġsam ples
g le
Ġre na
Ġreve al
Ġrul er
Ġpart is
Ġrequire ments
Ġtrad ed
Ġll oyd
Ġcor rid
Ġches s
Ġs ings
man ia
Ġ10 8
Ġhum or
Ġfrequ ency
Ġarr ives
Ġlif etime
Ġbuff alo
Ġsurrender ed
Ġqueens land
Ġf ier
Ġm ond
Ġre ed
ate ver
Ġwin ners
Ġspok en
it ary
ra wn
ens ed
Ġinterv ention
Ġb ub
ot ing
Ġresear chers
Ġd ak
Ġw ii
Ġwh atever
Ġrom ance
Ġun w
Ġnor folk
Ġplatform s
Ġcon ceived
Ġ16 9
Ġrob in
Ġtur key
Ġclim b
r ates
Ġas c
Ġconf lic
Ġbur ton
Ġrepresent ation
Ġhawai i
Ġre jo
Ġdist ant
c ott
Ġben ch
Ġwarri ors
Ġbel gian
Ġch ore
Ġpract ical
Ġnich olas
g om
Ġb anned
ur as
Ġconne ctions
Ġexclus ively
pl ace
Ġcelebr ation
Ġbenn ett
Ġsudden ly
Ġcommand ers
Ġt ape
Ġfin ance
Ġdav ies
Ġspr ings
Ġfac es
Ġsub m
Ġ185 0
ill es
Ġcr imes
Ġambass ador
Ġcontin uous
Ġcolle ctions
Ġreb els
r un
Ġres ur
Ġvar ied
Ġpra ising
Ġvinc ent
Ġmar ines
Ġfl ames
ric ts
Ġcompet itive
Ġprogress ive
Ġb ast
ib ilities
Ġsty l
Ġman if
Ġinv ent
Ġburn ed
Ġthor ough
Ġmans ion
Ġc atherine
ist a
Ġlight ing
Ġshould er
Ġlu x
Ġab use
Ġpri x
n ell
Ġs ample
Ġp od
Ġpre st
Ġspe aker
Ġconf idence
Ġreview ed
Ġsignific ance
nd a
Ġlaure n
Ġp on
ic y
Ġpl aza
Ġtax es
g am
Ġwor n
Ġcamp s
Ġdar win
Ġtransl ated
Ġhug hes
Ġgu ild
Ġadv ised
Ġconsid ers
ug u
Ġdon ald
d les
ph al
Ġreact ions
Ġwe igh
Ġ16 3
o ly
Ġpres idency
Ġdisp ers
et hel
Ġdist ricts
itar ian
Ġgirl friend
Ġwit ch
ici ency
Ġboil ers
b orn
Ġf ern
Ġsh ares
Ġdis char
Ġtr ig
Ġshe p
Ġsail ing
Ġvulner able
h s
Ġcomp r
Ġmed als
Ġ189 7
ff ield
Ġele ph
w ing
Ġpro ceeded
Ġhand led
Ġjud ges
Ġscore s
Ġopportun ities
d ed
ac les
ter ly
Ġunderst ood
Ġp all
Ġpresent ation
Ġharv ard
ell or
Ġfilm m
Ġmin isters
Ġos lo
Ġp as
Ġp airs
Ġd s
Ġcompan ion
Ġinterse cts
Ġsax on
Ġge off
Ġb ind
po int
Ġphr ase
Ġrac ial
Ġcrop s
Ġenthus i
z h
Ġf oster
Ġg if
Ġk ate
Ġfl ows
Ġsw iss
Ġfair ly
Ġp eng
Ġobserv ation
Ġinfrast ructure
u ating
it ely
Ġn autical
Ġ10 6
Ġbombard ment
ig s
Ġex ceed
Ġdesc ent
Ġcamer on
Ġpro of
Ġrock y
Ġtrad itions
Ġmarsh al
Ġrival ry
Ġc ards
ĠâĢ ¦
Ġass um
Ġmanufact uring
Ġmosc ow
Ġgr ap
Ġpet ition
Ã¶ n
Ġex ile
Ġout l
Ġcle ared
Ġpitts burgh
ro ph
Ġv ital
Ġrespect ive
Ġgross ing
Ġrehe ars
st s
Ġexpl icit
Ġnumber ed
Ġcommission er
Ġprotest s
Ġextend ing
Ġtel es
Ġindones ia
Ġm im
Ġv l
Ġ16 7
Ġh ide
Ġtransport ed
str ong
Ġknight s
Ġfe e
Ġunl ik
Ġrein forced
Ġrand om
Ġinter medi
Ġ15 4
v ant
Ġdr ink
Ġtre nd
en cing
Ġdr ain
Ġcut s
Ġto ured
Ġter ry
Ġel ite
Ġcharacter istic
Ġstruct ural
Ġmyster y
Ġse al
Ġk ane
Ġnon ethel
Ġnonethel ess
Ã «
Ġex ists
Ġparticip ation
Ġt iger
Ġto ler
Ġal aska
Ġn ur
Ġton nes
Ġthe ories
Ġr ivals
Ġcomm enced
Ġrel atives
Ġcycl ones
Ġd il
Ġste ep
Ġanton io
Ġd ri
Ġmaint aining
Ġnav igation
Ġans wer
Ġturnp ike
er ce
Ġd aw
Ġtro op
Ġf ert
Ġg ift
ber ry
Ġcl an
Ġcan yon
h um
Ġrest ore
Ġwall ace
Ġc el
Ġe ating
Ġg est
Ġrel ocated
Ġair line
Ġvict im
Ġtest ed
Ġabs ent
cul es
Ġcos m
Ġcol um
Ġreform s
Ġtox ic
o a
Ġm p
Ġsp ong
Ġsk ill
Ġsen ators
Ġinqu ir
Ġste f
Ġprepar ing
Ġmicro soft
Ġhon ours
Ġb ib
Ġe is
Ġmonth ly
Ġn ord
Ġj tw
ces ter
Ġwithd rawn
Ġjtw c
Ġp se
Ġh ollow
Ġwar nings
Ġdecor ated
ing e
Ġsy ria
min ster
it ious
Ġb in
Ġd um
anc he
Ġempt y
wor ld
her s
or ia
ill o
Ġup set
Ġunex pected
as hes
Ġcl othes
Ġmix ing
Ġrepublic ans
Ġmagn itude
Ġconcer ning
Ġdispl aced
Ġwrit ings
Ġamaz ing
ah a
Ġshe ffield
ar io
Ġman ip
Ġmyth ology
Ġco aches
Ġbl o
Ġinterview s
Ġf itz
Ġb ert
Ġd ying
Ġlar ry
Ġhurric anes
Ġsus an
Ġisrael i
Ġans w
Ġw w
Ġlight ning
Ġid ol
ro oms
Ġmil k
Ġ189 5
Ġjeff erson
Ġvari ations
Ġinter action
Ġtele graph
Ġlear ns
Ġarchae ological
Ġjohn ston
ash i
Ġcommerc ially
old s
Ġadvert is
Ġem my
Ġdisplay s
is ive
Ġj ess
Ġdo ors
Ġinterpre ted
Ġdread n
am an
Ġcour ses
Ġconf usion
Ġarg uing
Ġess entially
Ġclar ke
h al
Ġv it
Ġair ing
Ġfle x
Ġcorpor ate
Ġdall as
Ġpse ud
y an
Ġp ock
Ġdes per
Ġsal ary
Ġcham bers
a ired
Ġdem o
Ġpark way
Ġconstit u
Ġto oth
av ia
Ġaf t
Ġ17 1
Ġvill a
ades h
Ġunc on
Ġblock ed
Ġbry an
Ġg olf
Ġne v
Ġcar ries
Ġlo ver
Ġcy rus
Ġfac ulty
Ġlou d
Ġguer r
Ġvar iation
Ġhero es
Ġdin ner
Ġvolcan ic
Ġrele g
Ġgrand father
Ġmeteor ological
be at
Ġcol ors
Ġed itions
Ġsw ing
Ġseg ments
Ġow en
p ot
Ġd uch
Ġaust in
Ġcost ume
Ġmalays ia
Ġintern ation
Ġcol ours
Ġmy c
Ġu b
Ġshif ted
Ġne il
Ġemot ion
Ġpars ons
Ġac re
Ġcirc ular
Ġaccur ate
h aw
et ed
Ġse ga
Ã ¥
Ġre h
Ġreg iments
Ġspons ored
Ġf bi
Ġcor p
Ġval id
Ġbreak s
Ġsculpt ure
Ġunlik ely
Ã ¢
Ġst all
pr ised
Ġshall ow
Ġsusp ic
od a
Ġang ry
Ġoppos ing
Ġ10 2
Ġdan ish
Ġchel sea
Ġ12 1
Ġbou lev
Ġp ent
le ans
Ġw ished
Ġworld s
Ġlast ing
Ġc attle
ab e
Ġt ies
ic ing
Ġarm strong
Ġque bec
Ġa ber
Ġg on
Ġreb el
Ġbrazil ian
Ġmck in
Ġb ible
ke eper
Ġem br
Ġsur prised
Ġheavy weight
on ium
he ll
ro t
Ġg ru
Ġcomm erce
Ġprincip le
Ġdanc ers
le te
Ġsust ain
Ġx x
Ġsn ake
Ġnew ton
Ġtick ets
Ġw art
Ġmac ar
Ġdivers e
Ġka iser
Ġrecre ation
n an
ag i
Ġdiplom atic
en ess
as ters
Ġeff icient
Ġdeep ly
is ons
Ġnorth western
Ġexam ination
Ġc ott
at ched
Ġh d
Ġg amb
uss ion
Ġham mer
Ġfer r
Ġcra zy
Ġt ension
Ġbi ological
f c
Ġst im
Ġlin er
Ġpros per
Ġc av
Ġin clusion
Ġre vel
Ġf i
Ġn aming
ort ion
Ġop ens
Ġpurs uit
Ġre ich
Ġt ir
Ġtrav elling
Ġconstant in
Ġdra fted
Ġrebu ild
Ġwilhel m
Ġstol en
Ġpl um
Ġshe ep
Ġadv ancing
Ġdi oc
Ġrif le
Ġdisturb ance
Ġin e
Ġwh ale
ars h
Ġca es
Ġdre ams
Ġdivor ce
en on
Ġor leans
Ġhop ing
Ġhapp en
w right
Ġal g
cast le
Ġsport ing
Ġnav ig
Ġori ent
Ġin fer
Ġbe ating
Ġbec k
Ġprocess es
Ġm g
ul es
Ġem er
Ġdire ctions
Ġblack s
Ġrat io
Ġut ah
n or
Ġl ag
ose xual
Ġprom ise
ur i
Ġkil ome
Ġsettle ments
Ġparach ute
ash a
Ġsubstit ute
Ġm ild
ab ilities
Ġhar old
Ġserb ian
Ġinsur ance
Ġmonaster y
Ġ15 8
Ġvill ain
Ġham let
Ġcivil ians
Ġconcur rent
Ġpar ad
Ġloc ally
ik o
Ġquar ters
Ġtast e
Ġrich mond
Ġfif a
Ġchalleng es
Ġy out
Ġchart ed
i qu
l ane
in is
Ġp ump
Ġstre ak
Ġpot entially
Ġfund ed
Ġbeat en
it ate
Ġ186 1
Ġrock et
Ġch ile
Ġbenef its
it ted
Ġre ct
Ġen zy
Ġint r
Ġknow s
Ġ188 9
Ġco x
Ġcan on
Ġsent ence
Ġmu hammad
Ġalt itude
Ġman age
Ġscand al
Ġproport ion
Ġm erged
Ġl ift
Ġke ys
Ġrook ie
m aster
r in
Ġdel ta
Ġd ense
Ġab u
Ġequ ally
b ri
Ġb ore
Ġaf ford
Ġdis b
Ġev ident
Ġparticip ants
Ġcolum ns
Ġr ains
ch i
Ġoff shore
Ġ16 1
Ġext inct
Ġer ror
Ġ189 4
Ġopt ions
re hens
Ġc bs
land ers
Ġcap s
Ġt ill
Ġse min
Ġconstant ine
Ġkid n
Ġexpl aining
Ġscient ology
Ġjurisd iction
Ġper c
Ġrun ner
Ġadmin ister
Ġnov a
Ġ16 2
Ġpersu aded
Ġcon ven
Ġ11 3
Ġl ud
Ġrece pt
Ġty ler
Ġrequ iring
v ised
Ġx ii
Ġmem oir
Ġveter an
Ġboulev ard
Ġver te
Ġfollow ers
Ġyout ube
Ġsimilar ities
Ġ189 1
Ġ100 0
Ġbor row
Ġstu art
re ated
Ġpit cher
Ġeduc ated
Ġfarm ers
Ġapoll o
Ġsocial ist
Ġpregn ant
am pton
Ġjud icial
Ġdiv ine
Ġdev oted
Ġre ef
Ġg aining
Ġcounter p
Ġwitness es
Ġm cl
Ġh i
Ġbrook s
Ġreserv oir
Ġimplement ed
aff e
c ription
Ġoper ates
Ġn ose
Ġwild life
Ġveter ans
Ġaccommod ate
Ġt uck
Ġbl ast
Ġperson a
Ġprote ins
Ġparal y
Ġiniti ative
v et
Ġadd ressed
Ġfore ver
Ġlin ks
Ġkne e
Ġo z
Ġt ent
Ġv in
Ġcateg ories
Ġod d
Ġori ented
Ġdisord er
Ġto ols
Ġmass acre
Ġprot otype
Ġbound aries
ro v
Ġjo an
Ġstat ements
Ġindones ian
Ġb ent
Ġobl ig
Ġa a
Ġcompl ained
Ġfe ared
Ġ15 6
Ġ189 2
pie ce
oc ation
Ġpe as
Ġstri kes
Ġvirt ually
Ġch rom
Ġam id
Ġcard iff
Ġâ ģ
Ġstud ying
Ġnick el
Ġfavour ite
h ill
on ica
at ers
Ġan arch
Ġpan zer
Ġh ipp
bo ards
Ġconspir acy
Ġw isc
Ġso x
ons in
Ġtem po
Ġtact ical
ia h
Ġ13 5
Ġweak ening
Ġa ar
her ic
en os
Ġn an
per t
Ġthreat s
p ine
Ġk yle
os ph
ment ed
Ġ18 00
Ġhost ile
Ġt ide
Ġfl av
Ġdeal ing
Ġmont gom
Ġkn ocked
Ġboy friend
Ġke en
g ow
Ġd anny
Ġhonor ary
Ġm aps
Ġ24 0
Ġrid er
Ġtr apped
Ġz h
Ġhen ri
Ġgalax y
ri fic
iz er
Ġso ap
Ġislam ic
Ġgoth ic
Ġgosp el
Ġk y
Ġstret ch
usal em
g us
n els
Ġemb arked
Ġthro wn
Ġf ires
Ġiv an
Ġmys elf
Ġpres erve
Ġ15 3
osa urs
Ġjoh ann
Ġsch um
Ġty r
Ġext ensively
Ġtun e
Ġhighlight ed
Ġs ized
Ġre y
Ġmar it
Ġmid night
Ġtrib une
Ġâģ Ħ
Ġjust in
Ġsent enced
Ġnight s
Ġo st
as hing
omet ric
Ġjer usalem
back s
Ġcitiz en
ĠâĤ ¹
Ġwisc onsin
r ically
Ġbo eing
Ġteam mate
Ġtig ers
Ġus age
oth y
Ġdocument ed
Ġconflic ts
Ġmacar thur
Ġhon ors
h op
Ġprov isions
au c
Ġtri o
Ġpolit icians
Ġres olved
Ġhybr id
Ġpart ners
Ġab road
Ġsat urn
Ġtas ked
Ġrem ote
Ġbar nes
Ġtour ism
Ġus er
Ġmach in
Ġobv ious
et o
Ġsur p
Ġexpl ore
Ġord inary
Ġlack ing
Ġveloc ity
Ġdisc ontin
ÃŃ n
Ġrenew ed
Ġorth odox
Ġf us
Ġre ass
Ġscholars hip
Ġcol ored
Ġresc ued
Ġbe er
Ġtele phone
ling ton
Ġbelief s
ac o
ist ent
ro id
Ġl amb
Ġro gers
Ġint ent
Ġauthor ized
Ġcompet itions
Ġc ats
Ġd imin
Ġg au
Ġr ushing
Ġguest s
Ġencoun ters
Ġrecru ited
am ents
Ġass ert
Ġno ise
Ġhel ps
Ġbattle field
Ġescort ed
Ġsc ots
Ġrece ives
Ġsepar ation
Ġmontgom ery
f ly
uc hes
Ġ188 8
Ġregard less
j u
Ġin hib
Ġhous ed
Ġconsider ably
Ġis n
Ġbrig adier
Ġdark ness
Ġse an
Ġen abled
Ġch ad
Ġpr ayer
Ġdefend ers
Ġcr ashed
Ġimprison ed
Ġelabor ate
Ġp p
ack down
Ġsp o
Ġste in
Ġhur t
Ġash ore
Ġtrail er
uls ion
Ġsusp ension
Ġgarn ered
Ġthe rap
av ed
Ġpres ents
Ġ188 5
ur st
Ġcon j
Ġbill s
Ġs inking
Ġch op
Ġpurs ued
Ġconf ident
Ġhand le
Ġpier re
f ar
Ġup rising
Ġhuman ity
Ġpu pp
Ġd at
ol ly
Ġj aw
Ġpromot ing
Ġobser ver
ak h
Ġun ve
oc ene
Ġinvol ves
Ġwarship s
Ġspec ulation
Ġchrist ians
Ġbat ted
u ters
z ing
an im
Ġtr unk
Ġhand ling
Ġfront ier
Ġhop es
Ġf ru
am as
Ġk rist
Ġdep icts
Ġbal tic
Ġconfir m
Ġbrill iant
cl iff
Ġtrium ph
Ġreg ulations
Ġback st
Ġevac uation
Ġarc ade
Ġin ning
Ġz oo
Ġsan ct
Ġpir ates
od ed
ov ak
Ġbreed s
Ġmagn etic
Ġmon itor
Ġle op
Ġdevelop ments
Ġgl as
Ġorgan isms
Ġur ged
Ġw are
Ġoccas ional
É Ļ
Ġ11 2
Ġic eland
Ġremember ed
e g
er ts
Ġmar l
s ch
Ġt et
Ġt int
Ġa ce
Ġth ames
Ġevent ual
Ġpal m
Ġbatter ies
Ġinternation ally
Ġfl our
Ġlo ose
Ġcompos itions
Ġl aps
ac ing
Ġmet ric
Ġsus pected
z es
Ġed iting
Ġbarb ara
Ġimpress ive
en berg
Ġat hens
Ġdo zen
Ġ14 5
Ġ186 5
ÃŃ a
oc a
Ġcast les
Ġow ing
Ġlic ense
Ġthunder storm
Ġtiss ue
Ġa est
en burg
ard o
Ġbo oth
Ġcapt uring
Ġrail ways
Ġens emb
Ġmix ture
Ġ97 8
Ġtru ly
Ġre agan
Ġrom ney
Ġcard inals
Ġch ron
Ġrel ation
Ġphot o
Ġsher man
Î ±
Ġd ug
Ġnat o
Ġs ap
Ġc s
Ġthere by
Ġ15 9
Ġw iz
Ġl ions
Ġbe th
Ġpolit ician
Ġly rical
Ġrender ed
Ġbur g
Ġn ancy
Ġassoci ate
Ġchamber lain
Ġchanc ellor
Ġintellect ual
Ġbe e
Ġsh ah
ke e
Ġpy ram
Ġdisappo inted
Ġrestrict ions
Ġhoriz ont
Ġ11 7
Ġconsum ption
Ġupd ated
Ġcoun sel
Ġball s
Ġmechan ism
Ġmut ual
Ġdecre ased
Ġinher ited
Ġbu nd
Ġorgan ic
Å ¾
ag h
Ġun n
Ġcl ip
z ed
Ġpos itively
Ġcustom ers
is ition
are st
ubl in
Ġmark ing
r ang
Ġwar ned
Ġvolunte er
Ġanticip ated
ch t
Ġup coming
Ġtrack ed
Ġinh ab
Ġern est
m el
Ġc um
Ġk os
Ġen h
ren e
Ġapp ly
Ġspok es
Ġmamm als
Ġamph ib
Ġcontr acts
Ġvol t
Ġmcc ar
ud i
Ġant ib
Ġdeleg ates
Ġhelicop ter
and o
oy s
Ġdirect ing
Ġswit ch
r age
Î ¿
un ning
Ġnew castle
Ġgen u
Ġpat ient
Ġdepend ent
Ġaccident ally
Ġportug al
Ġsouth western
Ġdetect ive
Ġ Äĳ
Ġinv aded
Ġconvers ation
Ġh aven
Ġhe b
Ġbre ast
Ġclos ure
Ġ45 0
Ġmach ines
ent er
Ġ11 4
Ġ11 8
Ġinaug ural
Ġconstantin ople
Ġlod ge
Ġassess ment
Ġro ot
end ed
Ġgr id
Ġtit an
Ġmc g
Ġl ighter
Ġaut o
Ġd ud
id ia
Ġdeb ris
g ue
Ġc inc
Ġr ally
Ġread er
Ġcharl otte
Ġfund amental
ner y
Ġm ak
Ã© n
Ġmer ced
Ġbord ers
Ġcorrid or
Ġtr am
Ġvo ters
Ġpet e
ann on
Ġbrad ley
Ġnickn ame
Ġjos Ã©
Ġinf ection
Ġconstru ct
Ġ186 4
Ġfoss ils
ad ers
Ġun re
Ġaccess ible
Ġpsych iat
Ġlawsu it
Ġbes ides
a ire
ov ic
Ġsp it
rib le
Ġant ar
Ġcorn wall
Ġche ster
Ġeas ier
Ġoccur ring
Ġswe ep
Ġnep hew
á º
Ġmem ories
Ġbo ost
ph an
Ġsh aring
ant on
Ġag u
Ġcomplic ated
p at
Ġpe op
Ġpartic les
Ġsher iff
Ġpl ates
Ġsl av
Ġheight s
Ġmole cular
col m
Ġfeather s
Ġx i
Ġles b
Ġsha ft
Ġt ib
Ġp and
Ġsupport s
to ok
Ġflag s
Ġprel imin
ild a
w ald
ne ys
Ġvers us
rest rial
Ġst er
Ġrem ar
Ġmet re
Ġa j
Ġk az
Ġv ick
ugh t
Ġavo ided
ed ia
Ġle ices
Ġarmen ian
Ġp om
Ġthrow ing
Ġprotest ant
Ġmurd ered
Ġautobi ography
Ġosc ar
Ġwart ime
Ġi b
Ġprogress ed
v ar
Ġkenn eth
Ġic on
Ġdoctr ine
Ġins pect
Ġnort heastern
Ġl ung
Ġun t
Ġrec ruit
Ġcur ve
Ġmal colm
v iew
Ġt ier
Ġsy l
Ġshel ter
l u
Ġu pl
Ġmich a
Ġpun ishment
Ġimp osed
Ġwal t
ic on
Ġconsequ ence
Ġped ro
Ġbot an
Ġisa ac
Ġprodu ces
Ġw rap
Ġc ena
Ġm v
ro e
Ġnot iced
Ġbr is
Ġreport ing
Ġintegr ated
get t
Ġtour ist
heim er
Ġdepict ing
Ġthr iller
Ġexhib it
chang ed
Ġun h
Ġres id
iel der
Ġkil og
Ġintermedi ate
Ġview ing
Ġthreat ening
Ġ ãĥ
ell ar
Ġphilos opher
Ġd ublin
Ġexpl oration
Ġclou ds
Ġanne x
Ġmathemat ics
et her
Ġcr ane
z o
Ġs aints
Ġy es
ach t
Ġeast ward
Ġm ounts
Ġline ar
ob a
Ġdu ck
Ġpeop les
Ġs ri
Ġ186 2
h all
in ated
Ġ13 1
Ġconv icted
Ġhol es
Ġattr action
Ġba iley
t ra
Ġse b
Ġpost s
Ġvers es
h t
Ġsh in
Ġshe et
Ġ10 7
Ġvic inity
Ġcre am
Ġmel od
Ġtenn is
Ġd ent
Ġhe ath
Ġcour age
Ġ Ã©
Ġremov ing
Ġjournal ists
Ġdivers ity
Ġdecre ase
Ġgab ri
Ġf ib
en na
Ġrele asing
Ġmon it
Ġent ert
fl ow
en cer
Ġh ier
Ġed die
Ġign ored
b ie
Ġs ulf
Ġbr ut
Ġfr act
h o
Ġcl ergy
Ġbl ame
Ġcinc inn
or f
Ġl an
Ġexec ut
Ġtom my
g Ã©
Ġse ar
Ġundert aken
Ġap olog
Ġcam b
Ġconstant ly
Ġsp ell
Ġexpand ing
ire ct
Ġant hem
Ġfac il
Ġtouchdown s
Ġm k
Ġn s
Ġlu ft
ane ous
Ġreal istic
Ġeight een
Ġserb ia
Ġf are
pe z
Ġtw itter
Ġpredomin antly
g ent
ul k
Ġrem ind
Ġcongress ional
Ġalbert a
cc a
Ġsub d
f ast
Ġwarri or
he ld
ap ing
Ġfocus es
Ġ15 7
Ġmart ial
Ġspring field
Ġ å
Ġfort une
Ġgrow s
Ġcoach ing
Ġc age
Ġd olph
Ġk ru
Ġinc red
Ġ22 0
Ġtwent ieth
Ġn es
Ġcont acted
Ġpark ing
f ound
Ġis le
Ġgener als
Ġcreat ure
Ġpropag anda
Ġb il
Ġbar rier
Ġmeas uring
Ġa ur
Ġa ux
Ġen orm
Ġindepend ently
Ġbul gar
Ġteacher s
Ġdisappe ared
Ġsacrif ice
Ġgib ral
Ġmusl ims
Ġexplan ation
Ġa rose
ol ia
um ped
Ġne pt
Ġen com
Ġcent ered
Ġh ack
Ġdo ctors
Ġcould n
Ġgibral tar
Ġst ability
Ġple ased
Ġsac red
Ġyugoslav ia
Ġmet ac
Ġsent iment
Ġmas k
Ġrelie ved
Ġmarit ime
a is
u z
Ġsh iva
Ġmon sters
Ġspeed s
Ġ184 0
Ġlocomot ives
Ġest ates
Ġmal ta
Ġj ake
Ġass erted
Ġbra h
Ġcollabor ated
Ġcanc eled
Ġfried rich
Ġprelimin ary
en er
Ġwag ner
w s
Ġcomp iled
Ġsit uations
han ced
Ġgrav ity
Ġindu cted
Ġs aving
Ġch uck
Ġwor se
Ġbut t
Ġmain e
Ġscient ist
Ġlay ers
Ġcelebr ate
Ġabsor bed
Ġto l
Ġen hanced
Ġup s
Ġexter ior
it ure
am ine
ul um
Ġpl ains
Ġpay ing
Ġfocus ing
g ans
Ġro ster
Ġox id
Ġbul let
Ġcincinn ati
Ġgen res
ah l
Ġachie v
Ġtai wan
ic us
ect ive
Ġpar ade
Ġnet works
Ġc ale
Ġre iss
av an
oc ol
Ġroad way
Ġvary ing
Ġm aced
Ġcontin ent
Ġbrown s
Ġangel ou
Ġsubt ropical
Ġt um
Ġa ided
Ġs ut
Ġto b
ig a
Ġle o
Ġbet a
Ġbet ray
Ġinc idents
Ġpublic ity
Ġ12 6
Ġ13 2
Ġdiscuss ing
Ġscout ing
el in
Ġir reg
Ġnorm andy
Ġtarget ed
Ġirreg ular
Ġinter c
Ġappe als
Ġrit ual
Ġle eds
ett a
Ġcreat ures
re ls
as m
Ġat op
let t
Ġ188 7
Ġdisl ik
Ġh ir
Ġhe d
Ġte a
Ġreg ist
Ġve gas
Ġfort ifications
Ġresign ation
Ġt ensions
os ion
Ġ11 9
Ġabsol ute
Ġto ugh
rit ic
Ġrem inis
Ġfun gus
Ġmad ison
Ġelev ated
Ġpok Ã©
Ġa ub
Ġd ive
Ġsum mon
Ġconcept s
Ġkit chen
Ġsubmar ines
Ġacclaim ed
Ġtreas ury
Ġafghan istan
Ġte nder
Ã ´
ed a
Ġmar ched
ros cop
Ġconf used
Ġgl ad
Ġposition ed
Ġoliv ia
Ġb ars
id d
Ġed mund
augh ter
Ġswe pt
Ġtrans mission
Ġcrit ically
Ġhel en
Ġ186 3
Ġdro pping
Ġpreced ing
h in
Ġt ren
Ġp i
Ġcar r
Ġle agues
Ġbur ke
Ġ188 6
Ġcomprom ise
Ġb old
Ġsm oking
Ġcor ruption
Ġmechan ics
Ġcapit ol
or ious
Ġarg uments
Ġbond s
Ġcinem at
Ġeag les
n n
Ġme ga
Ġpo ver
z ac
£ o
Ġp ly
ad al
Ġgreg ory
Ġm entions
Ġsp ots
ass y
Ġathlet ics
umber land
Ġanch or
Ġmush room
Ġschum acher
Ġm am
Ġpro xim
ip her
Ġres ort
Ġspace craft
Ġbrig ades
Ġvent ure
Ġmanif est
h art
Ġsuggest ion
Ġbrook lyn
Ġpover ty
Ġst ored
Ġj na
Ġwork er
ron t
Ġmanag ing
Ġgro ve
in stein
Ġse am
Ġir an
Ġfar mer
Ġvi ii
Ġjul ian
st an
Ġhis pan
Ġor ton
Ġmar ath
Ġdev ot
Ã¶ r
im ony
Ġcon ced
Ġtr ap
Ġfl own
Ġmiss ile
Ġorchest ral
Ġh ass
ission ed
Ġcondem ned
Ġprinc eton
Ġcorrespond ing
Ġdenn is
Ġ ËĪ
Ġe man
Ġfl oren
Ġwid ow
le ted
Ġa ria
ac ular
Ġis ab
Ġep it
Ġrot ation
Ġmig ration
Ġsail ors
Ġmckin ley
Ġst air
Ġmo ist
Ġphys ically
Ġwal ks
Ġatmosp heric
Ġin ver
Ġbl amed
Ġc af
Ġpr ide
Ġph yl
Ġtre m
Ġpur ple
Ġml b
ed ing
Ġf ing
Ġh ok
Ġbe au
ab a
Ġdel ight
Ġchalleng ing
in ter
Ġceremon ies
Ġsu e
ug g
Ġdet ected
Ġparticip ating
Ġm ouse
Ġn athan
Ġnas a
al t
Ġlo aded
Ġbar cel
Ġtorpedo es
Ġconscious ness
Ġpreserv ation
Ġdisb anded
Ġsl am
Ġknow ing
Ġf inger
Ġm ock
Ġn ass
Ġfl ot
Ġret reated
Ġachiev ements
Ġm ull
Ġgust s
Ġhub bard
ro gen
Ġbut ton
Ġ188 4
Ġmess ages
Ġcompos ers
Ġflu or
Ġinstru ctions
Ġinh g
Ġassass ination
Ġglas gow
iz z
Ġfl esh
Ġmont ana
Ġstead ily
e ter
Ġhol land
Ġvari able
Ġdark er
Ġemerg ing
aj a
Ġcomp rehens
Ġsoc i
Ġmap le
Ġcalc ulated
Ġcan ucks
Ġdist inction
Ġan ts
ust ers
Ġdis abled
Ġ10 3
Ġsing ers
Ġelect oral
ro d
Ġr ar
Ġm our
Ġcon vey
Ġse eds
Ġad ri
Ġconf ig
Ġconv ince
Ġreb ounds
Ġv est
ag ers
Ġsum mar
Ġbr ings
Ġqu it
Ġqu oted
Ġend ang
Ġpost p
Ġpil gr
Ġopin ions
Ġsongwrit ing
m ill
om on
Ġwh ales
Ġfin est
Ġpost er
Ġven ues
Ġreserv es
Ġmyster ious
Ġveget ation
s is
Ġin tend
Ġne uro
Ġag encies
i ens
Ë Ĳ
Ġtr il
Ġher bert
Ġexam ined
Ġcooper ation
Ġsole ly
Ġphill ies
Ġbel le
Ġnat urally
ett es
Ġwalk ed
Ġprint ing
Ġcommit ment
Ġgrap hic
Ġpock et
Ġg ig
Ġfav ored
Ġcelt ic
Ġthe odore
Ġsm ackdown
o i
Ġs od
Ġb ce
le m
ak u
Ġmod est
Ġtint in
Ġhe in
Ġind irect
Ġrena issance
Ġco pe
Ġcondu cting
Ġelig ible
d am
r ac
Ġrem ake
Ġrad ius
Ġis les
ish ops
Ġwest minster
Ġaust ro
Ġevery body
Ġmot if
Ġprior ity
Ġpo e
ll a
Ġbar k
Ġscre ens
Ġ187 7
on so
Ġg ast
ag g
Ġh arsh
Ġgen esis
Ġ13 8
Ġaut hen
Ġaware ness
Ġa ids
it als
ab ad
Ġli bert
Ġcur ved
Ġtheat ers
Ġtax onomy
Ġmar qu
Ġdep ot
Ġlog o
Ġextra ordin
Ġvolcan o
Ġmerced es
ar us
Ġpr ay
Ġdem ographic
Ġhom osexual
is ations
ard ed
Ġdec isive
Ġtrack ing
Ġden ver
Ġconsider ation
Ġfrag ments
Ġ Ð
Ġpost hum
Ġpen al
Ġ187 6
Ġn em
Ġ12 2
Ġfar ms
Ġround ed
Ġess ay
Ġspect rum
Ġph on
Ġleg ion
Ġman ning
Ġman uel
Ġ23 0
Ġcomp aring
Ġnew found
Ġ11 6
Ġgl ou
Ġelement ary
Ġprompt ing
Ġun off
Ġem ig
Ġthem ed
Ġperform ers
Ġafter ward
Ġalb any
Ġheav ier
i ors
Ġcons ens
Ġver n
Ġtem ples
Ġcontr ad
Ġaccompl ished
ie v
Ġper cy
Ġplay able
Ġang les
Ġfa ult
Ġpriv ile
Ġron ald
g ary
Ġl ut
Ġde er
Ġ12 9
Ġexpect ations
Ġand r
Ġl az
Ġtour ists
Ġconnect s
Ġsearch ing
Ġshop ping
Ġdynam ic
ad d
Ġj in
Ġbul garian
Ġvirt ual
as ia
ro c
Ġ13 4
Ġagre es
Ġuk rain
umber ed
Ġn ok
om ing
Ġcomm ons
Ġnational ist
Ġref uses
Ġpsych ological
Ġconsequ ences
Ġmunicip ality
Ä «
at isf
Ġcon fer
Ġpro claimed
Ġro uting
iz ers
Ġgr aves
Ġsign als
Ġlist ening
Ġposs essed
Ġcomment ators
Ġcub ic
Ġsurp rising
Ġs ans
Ġn ig
Ġcomp rising
Ġdr ake
Ġpat ro
Ġott awa
Ġcarl os
á» ĩ
Ġensemb le
Ġcon g
Ġbut ler
Ġnev ada
ac c
Ġst om
Ġro sen
Ġop ined
Ġbanks ia
Ġrefuge es
Ġencom pass
Ġlike wise
Ġintellig ent
Ġsens itive
Ġharv est
Ġdiscip line
Ġproced ure
Ġserge ant
ol an
Ġj oke
Ġy d
Ġab ra
Ġdesc ript
Ġdisc our
Ġpione er
Ġfrig ate
Ġr ational
enn ial
Ġwid th
Ġmicha els
ĠpokÃ© mon
Ġpl a
Ġmil an
Ġkilome ters
Ġbarcel ona
Ġout come
Ġdep iction
Ġins uff
Ġpay ment
Ġlad ies
Ġs aga
ist ical
Ġph osph
Ġexerc ises
Ġgu it
Ġproper ly
Ġcelebr ity
Ġ183 0
Ġdepos its
ch y
Ġtransform ed
Ġtw e
Ġgr im
Ġchief s
Ġexecut ives
Ġ187 5
Ġemot ions
Ġreluct ant
at ar
Ġen ix
Ġcol in
att y
ank a
Ġstr ings
Ġkey board
Ġadj ust
Ġdeliber ately
Ġch al
Ġland mark
Ġweak ness
Ġdial ect
Ġstead y
Ġrout ine
st ar
ul ates
Ġbarr acks
Ġcompliment ed
Ġgau ge
Ġper mit
Ġform ations
Ġunder water
Ġmet als
Ġfab ric
Ġj ets
Ġchurch ill
Ġce o
Ġbow led
Ġcontrib ute
Ġlat est
Ġextend s
Ġm ast
Ġto ol
Ġe cl
Ġher b
Ġfar ming
Ġprocess ing
Ġin ex
Ġray mond
Ġch ip
Ġvar ies
Ġ188 3
Ġroman ian
Ġun anim
ick ing
Ġcomple ment
Ġtrib ut
Ġphot os
Ġfear s
Ġenl ar
Ġloy alty
am ation
Ġal am
ri ans
Ġmid dles
Ġphilos oph
et ary
Ġsp ite
Ġem ma
Ġestim ate
Ġgather ing
re en
Ġm isc
Ġg em
Ġg ale
ig hed
Ġal umn
um i
Ġpro ud
Ġacc us
Ġcontrib uting
Ġcontem por
Ġguit ars
Ġon wards
Ġst ing
Ġch ains
Ġpol es
Ġmill ions
Ġcolle cting
Ġsil ence
Ġber m
Ġparaly mp
Ġf ile
ch w
Ġan ger
Ġ188 1
Ġroll er
amp a
Ġcompl aints
Ġdise ases
Ġinstrument ation
he rent
or ic
Ġbl air
Ġlem urs
Ġd ome
Ġst aged
l ake
Ġin put
Ġfun k
Ġrichard son
Ġcoff ee
Ġâ Ļ
app a
Ġvocal ist
Ġs ul
Ġreve aling
Ġconsist ently
Ġexpress way
c ot
Ġun aware
Ġbl og
Ġven ice
Ġlocomot ive
Ġp ix
Ġd op
Ġst abil
et a
Ġus her
Ġass ets
Ġren t
Ġlanc ash
Ġphenom enon
Ġche n
Ġjama ica
a un
k ar
Ġcl ause
Ġpow ell
Ġbed s
Ġsymb ols
y ers
Ġperman ently
Ġbelong ing
Ġr ag
Ġr ays
Ġ186 9
Ġsand y
Ġdun can
Ġadvis ory
Ġnerv ous
d an
Ġl amp
ant ed
Ġ15 1
Ġcal gary
Ġcame o
Ġlancash ire
em a
Ġdam aging
Ġimpro ving
Ġfer din
Ġbe ver
act ic
Ġmon k
Ġ12 8
Ġenviron ments
Ġstay ing
Ġp ont
Ġprevent ing
Ġeru ption
ass ic
Ġhend erson
ip er
ater n
Ġrad i
Ġ186 6
Ġdisp uted
Ġjump ing
Ġteles cope
Ġfl oyd
ik i
Ġpolit ically
Ġaccept ance
Ġpow der
Ġhypothes is
i ar
Ġbe nd
Ġch lor
Ġchap ters
Ġhabit ats
Ġperc ussion
Ġmid way
Ġless ons
Ġwant ing
Ġfact ion
Ġrequire ment
Ġsix ty
Ġswit ched
Ġinteract ions
Ġn g
Ġcolle ges
Ġdet achment
Ġwitness ed
Ġeru pt
Ġrefere e
Ġretrie ved
ad ows
ri ages
Ġfr ances
Ġcar ved
Ġcost umes
Ġfant astic
Ġobject ives
Ġblock ade
Ġconsens us
Ġan x
Ġgener a
Ġarg ue
Ġce iling
Ġdisp atched
Ġrod rig
Ġpleas ure
Ġbacter ia
Ġtr inity
Ġres on
Ġang els
Ġencour age
Ġpublisher s
Ġcraw ford
y ll
om ed
Ġwhe at
Ġell en
Ġrede velop
Ġcir cles
Ġder by
Ġ75 0
Ġsynd rome
Ġun rel
Ġact ively
Ġtrad em
Ġlength s
Ġadapt ations
Ġimmig rants
Ġdimens ional
Ġfra ud
b us
c u
he ning
st own
Ġec cles
Ġf art
Ġgr ants
Ġunsuccess fully
Ġleices ter
z ig
al ia
Ġl ing
ri um
Ġren own
bri en
Ġe b
Ġst ir
Ġacc ol
Ġ12 4
Ġdest iny
Ġhom eless
Ġbelong ed
Ġjudg ment
Ġw er
Ġchann els
Ġabund ant
Ġal ly
Ġcon vert
Ġhem isp
Ġre op
Ġan a
Ġver onica
Ġbur ger
Ġsuff er
Ġs ag
ian g
Ġalleg ations
Ġfis cher
Ġtuck er
Ġd ot
Ġn ak
om ys
Ġgl ory
Ġdig it
Ġpalest ine
en ues
Ġm bar
Ġtas ks
Ġdistingu ish
Ġteen age
Ġdud ley
Ġover d
Ġplan es
Ġintrodu ce
Ġnickn amed
Ġparam ount
Ġpatro ls
Ġ188 2
ij ing
Ġeld est
Ġdi ary
Ġexplos ive
Ġadvoc ate
Ġcyl inder
Ġoutd oor
Ġl ava
ist le
ass ed
Ġdes ired
Ġ187 1
Ġ187 3
Ġlov es
Ġunus ually
Ġforg ot
Ġland ings
Ġthough ts
Ġfresh man
Ġn aked
ab l
Ġcontr ary
Ġcruc ial
Ġsubm erged
Ġin cl
Ġbe ast
Ġdist r
bo at
Ġproceed ings
Ġinnoc ent
f in
av ian
Ġsurpass ed
Ġf landers
Ġe g
Ġal d
Ġper pet
Ġke pler
ring ton
Ġbac hel
Ġ186 7
Ġmachin ery
Ġsub ordin
Ġinst ruction
Ġship ped
Ġexp ort
Ġadv ocated
Ġwel come
Ġc ric
Ġtr uman
Ġcl if
Ġad equ
Ġfe ver
Ġarist ocr
Ġv iv
Ġche t
Ġfest ivals
Ġoverwhel ming
Ġdemocr acy
Ġninet eenth
Ã ł
Ġpro c
Ġun ity
Ġrep et
Ġcongreg ation
Ġt rench
Ġm ott
Ġsp ores
Ġreview ing
Ġhorse power
Ġhorn s
Ġnest s
m other
ult ure
Ġsa u
Ġdiv ing
Ġ187 8
e on
in th
Ġ13 7
Ġstory lines
Ġcust oms
Ġet c
Ã¨ re
Ġb iz
Ġh il
Ġad ela
Ġint im
Ġstr at
Ġwat son
Ġmal ay
Ġmanufact ured
w affe
Ġt il
Ġ20 2
Ġfr inge
Ġmos que
Ġtriang le
Ġvamp ire
f s
Ġbe ijing
Ġit unes
Ġexpl ored
Ġhun ters
Ġvari ant
Ġnob el
Ġmac donald
Ġelev enth
Ġendang ered
Ġauthen tic
er m
Ġf ount
Ġi w
Ġbo ot
Ġvl ad
Ġmccar thy
Ġver d
Ġcompr ised
Ġunve iled
z i
in qu
Ġspec ulated
Ġaver aged
Ġgib son
b ach
y stem
Ġd orm
Ġth orn
ol ith
Ġnew man
che l
Ġf erg
Ġl p
Ġun e
Ġz ones
Ġinde x
Ġeconom ics
Ġspect ators
Ġturb ines
Ġk em
Ġqu int
Ġge ography
Ġbig ger
Ġresemb le
Ġwol ver
Ġcurren cy
Ġn h
Ġliter ally
ut ely
Ġr ams
Ġunder took
Ġcrit er
ipp ing
Ġpound er
Ġshir t
Ġd ere
Ġtr ump
Ġgr ain
Ġgu adal
Ġtri ps
head s
Ġplat oon
Ġdiss olved
Ġh oll
Ġl il
op ol
Ġdef enses
Ġfair y
Ġr aven
Ġme yer
Ġhorizont al
Ġs ara
Ġr ah
Ġrel ating
Ġdam ages
Ġcoast line
Ġfight s
Ġlength y
Ġprost it
Ġtrig ger
Ġl one
Ġr ushed
um s
Ġine ff
Ġm ick
Ġen su
Ġinterview ed
Ġcha os
Ġaar on
Ġa ston
Ġstri pped
Ġdiscuss ions
Ġbor ne
Ġath lete
Ġmetac ritic
p it
Ġl uther
st ad
Ġan onymous
Ġsh an
Ġeditor ial
yr ight
Ġenorm ous
Ġan k
Ġor al
Ġman ages
Ġover come
Ġcop yright
Ġinstall ation
Ġbapt ist
Ġguar ant
Ġensu ing
Ġb out
al id
ke ep
Ġwell ington
Ġhon est
oty pes
Ġlem ur
Ġstro ke
on ing
em ploy
Ġout s
Ġadd s
Ġcor al
Ġsw amp
Ġadmiral ty
Ġw ander
Ġch i
Ġla f
Ġext inction
Ġmerch and
Ġmon uments
Ġluft waffe
Ġberm uda
Ġf usion
Ġm ing
ograp hed
Ġsil k
Ġmaneu ver
Ġw ishes
Ġbank rupt
Ġshel ley
Ġint act
Ġrel ied
Ġlyn ch
Ġmon roe
Ġrel ay
Ġsoc cer
Ġdest ination
je ctions
Ġtril ogy
Ã ª
as aki
oc c
Ġbre w
Ġqual ities
Ġagu il
Ġle ather
Ġeng aging
Ġaw a
Ġmist ake
Ġal ert
th rough
Ġad rian
Ġmar x
Ġcult ures
Ġbattlecru isers
c ock
Ġde als
Ġadv ances
Ġ187 2
Ġflu id
ig o
Ġj ail
Ġrev ived
Ġsel ena
Ġot to
Ġg ains
over ed
Ġ186 8
Ġproceed s
Ġaguil era
h and
en z
Ġlif ted
Ġinsuff icient
ov sky
Ġfle e
app y
Ġneg le
Ġphot ographer
Ġnom ine
Ġc ere
ich i
Ġcurt is
Ġcoron ation
Ġwe ighed
mon ton
Ġgross ed
Ġinstru cted
Ġsumm ary
Ġfemin ist
Ġreminis cent
Ġt in
Ġun employ
Ġell is
Ġsuccess ive
Ġsoviet s
Ġa us
im er
ov es
Ġb ishops
gen er
Ġfunction al
Ġrap per
Ġali ens
Ġbats man
Ġincom ple
Ġchand ler
l ia
Ġw ise
Ġam p
Ġdis gu
Ġc res
Ġas p
Ġph ant
Ġgl am
Ġenroll ed
Ġdak ota
Ġde eper
Ġle igh
Ġar ctic
Ġscre ening
Ġinterse ctions
Ġmerch ants
Ġpeng u
Ġd art
Ġunder grad
Ġappe aled
Ġter med
Ġmass es
Ġdeal t
Ġmax well
Ġgram mar
Ġk ay
Ġbre ad
Ġgames pot
Ġdisp utes
Ġrum ors
Ġphill ips
Ġinter ference
Ġsl ower
he nd
Ġh ond
Ġr anch
Ġsu ited
Ġnew port
ub s
or igin
Ġch in
Ġtr ace
ke ley
k as
Ġman n
ne ath
Ġquant ities
Ġw ald
Ġr az
ber y
oc y
Ġbus y
Ġinvestig ations
Ġadela ide
Ġh anc
Ġr iff
Ġar bit
Ġdis rupt
Ġass ign
Ġsym met
Ġpriv ately
Ġgor ge
Ġbare ly
Ġd ad
Ġr iley
Ġsepar ately
Ġanal og
Ġr as
Ġjo ins
Ġpack age
Ġgeoff rey
Ġww f
Ġret ros
Ġ12 3
Ġins ist
Ġcur ves
Ġflo ating
Ġinquir y
Ġferdin and
Ġs ier
Ġb ik
Ġg le
Ġit em
ob ile
Ġpan els
Ġexhib ited
pt ic
Ġpers ec
Ġbl ake
Ġbl ank
Ġsur rey
na e
Ġbar rett
Ġimport ed
ol o
Ġsh oo
Ġcont ing
Ġes sex
Ġreal m
Ġec ology
Ġrul ers
Ġabra ham
re ct
Ġcon form
all ing
Ġco aster
Ġsub sc
Ġdec omp
olog ically
Ġpat ch
g on
Ġun rest
Ġthick ness
Ġmob il
Ġcyl ind
Ġdislik ed
Ġsp encer
Ġdevelop er
Ġdel ays
Ġinvol ve
Ġcas ino
aur us
Ġcust ody
Ġlic ensed
Ġnob ody
in us
Ġexp ense
Ġmag ical
Ġmad rid
Ġdeploy ment
Ġtherap y
Ġply mouth
r s
er ies
Ġsupp orter
Ġref it
Ġrom ans
Ġdun ge
Ġanth rop
Ġredes ign
v ent
Ġrob ot
Ġmole cules
Ġplut onium
Ġwar rant
ec hes
Ġbal let
Ġpu zz
Ġmay be
Ġdet on
Ġtrib al
Ġmathemat ical
Ġproxim ity
od on
Ġwrest le
Ġble nd
b t
Ġu mp
Ġgen ius
iss a
Ġcal iber
writ er
Ġpav il
Ġst ark
Ġk es
Ġk ub
Ġpl astic
Ġad mit
Ġesc al
Ġcard inal
Ġn ico
Ġpl ed
Ġunder neath
Ġoper ator
Ġexper ts
Ġcontest ed
Ġped est
Ġmarc us
l ist
Ġwas hed
Ġal k
Ġcom et
Ġsec ular
Ġpres um
Ġrock ets
Ġdescend ants
p ic
ut ors
Ġr ia
Ġrep aired
Ġcapt ivity
Ġassoci ates
Ġcoll ision
Ġbos nia
Ġlt d
Ġferg us
f ront
u its
ur g
Ġcol oured
Ġmon ks
Ġprote cting
Ġacqu isition
Ġdaniel s
Ġautom atic
Ġmv p
Ġf og
ur d
Ġinter rupted
Ġmy st
Ġproject ed
Ġmot ors
Ġce ase
kin son
Ġflo ors
Ġexcess ive
Ġhanc ock
Ġc ec
Ġf m
Ġcal m
Ġlim estone
Ġflood s
Ġc rom
ir i
Ġbeng al
ĠâĢ ²
Ġo val
ach ing
ops is
Ġfloren ce
Ġall ocated
Ġthr ust
Ġf ul
Ġne o
Ġkeep s
Ġpron ounced
Î ½
ac on
Ġma iden
Ġtot ally
Ġru ins
Ġseem ingly
Ġcompar able
Ġlun ar
Ġn l
Ġnor se
Ġinv ented
Ġtun nels
Ġrestaur ants
Ġdeleg ation
Ġbald win
n ut
Ġed monton
Ġjer emy
Ġsurviv or
Ġ á
Ġp orter
Ġstr ang
Ġimm un
Ġmo or
Ġark ansas
Ġflot illa
at hetic
Ġher gÃ©
Ġvi enna
Ġacqu ire
Ġrefle cting
Ï Ĥ
Ġhe ct
Ġpre ston
gr ade
Ġroman ia
Ġjenn ifer
d ot
x ide
Ġdom ain
Ġdemand ing
in te
ic ity
Ġun st
Ġfatal ities
Ġchick en
Ġle ban
Ġunder go
Ġgar c
Ġarchitect s
Ġevolution ary
Ġextraordin ary
b el
im mer
os ity
ace ous
Ġgen es
Ġsub tle
Ġtrans p
Ġmc donald
Ġclim bing
Ġdisappe ar
Ġlob by
w ig
Ġfor ts
im ir
Ġtw elf
Ġpubl ish
Ġpop ulated
Ġmod ifications
Ġcr ust
Ġtwelf th
Ġs ne
Ġsh ops
ish n
Ġ187 9
Ġimmig ration
id o
Ġby r
Ġy u
Ġpe nd
Ġn un
Ġmus cle
Ġstrugg ling
Ġbit ter
gu ard
Ġneighbour ing
Ġa i
Ġc ree
st ration
Ġy ok
Ġqu art
Ġlif estyle
Ġfier ce
Ġlesb ian
an or
as i
Ġinter active
Ġsub urb
Ġgener ations
Ġsav age
Ġcrown ed
Ġscrap ped
Ġdiscontin ued
Ġsh ank
Ġmin ogue
Ġemb assy
Ġdemon stration
Ġpav ed
Ġlith uan
Ġaccompl ish
Ġmer it
Ġmcc ain
Ġunf ortun
Ġau ction
Ġmin er
Ġdemonstr ate
Ġskin ner
Ġsevent een
Ġeleph ant
Ġh ate
Ġar cher
Ġbow ie
Ġgar age
Ġn ost
Ġre yn
ir ts
ab et
Ġdescend ed
Ġsket ch
Ġenforce ment
ur bed
Ġch an
Ġjan et
Ġhaw k
Ġspeak ers
Ġbes ie
Ġhawai ian
Ġdir ty
Ġv ander
Ġwor ried
Ġper th
Ġreg ained
Ġoper as
Ġhal ted
Ġpier ce
Ġadminister ed
our t
Ġsubur ban
Ġcler k
Ġcomp act
Ġatt achment
Ġdecl aring
Ġsubst ance
Ġupgr ade
Ġre writ
Ġcre ates
Ġ14 1
Ġlanc aster
Ġpregn ancy
Ġmod es
Ġopen ly
Ġban ner
Ġt ables
ant o
Ġart if
Ġcontr acted
Ġmonarch y
Ġnewfound land
Ġb alk
Ġsh ack
Ġscen ario
Ġp agan
Ġwood land
Ġrid ic
Ġelder ly
g ins
Ð °
Ġtr aged
Ġback up
Ġstre ams
Ġtur ks
Ġo pted
el i
Ġbi ology
Ġamb itious
Ġwonder ful
Ġdies el
Ġjok es
ent ric
el ing
Ġk om
Ġanti qu
Ġca ution
Ġgon z
Ġconf ess
Ġl uck
Ġam pl
Ġdr unk
Ġtor ch
Ġerr ors
Ġp ist
Ġm ath
Ġdiv ide
Ġscout s
Ġprohib ited
Ġo g
Ġdec omm
Ġer osion
Ġmotor way
Ġgriff in
Ġcric ke
Ġj g
Ġjun gle
ator ial
Ġho ff
Ġlog an
Ġnecess arily
Ġthro at
Ġpyram id
Ġcale nd
um ar
Ġfind ings
Ġ27 0
Ġaggreg ate
Ġbuddh ist
ens on
Ġspecial ized
Ġnorthwest ward
Ġ14 6
Ġiron cl
nat ural
Ġf ool
Ġch ances
Ġro th
Ġle ase
Ġfil ter
Ġdet ached
Ġmer ger
Ġcarol ine
Ġd io
le w
Ġro de
Ġcont ents
Ġinv itation
Ġsoc ieties
Ġfre ight
Ġident ification
Ġlack s
Ġmemor able
Ġsier ra
Ġc ig
Ġk le
Ġar row
Ġsp here
Ġass a
Ġlou ise
Ġb j
Ġteam mates
Ġche er
Ġpal mer
Ġstrengt hening
5 0
an us
Ġg ut
Ġtro ut
less ly
Ġanat omy
Ġdraw s
Ġnash ville
Ġcomprehens ive
Ġret ro
Ġrun ners
Ġcolle ctor
Ġbachel or
g el
p ro
Ġk ra
Ġk ens
Ġmet ab
Ġhar per
Ġliber ation
Ġs es
Ġtop ic
Ġrecogn ize
Ġlay out
Ġfrag ment
h ow
at em
Ġm old
Ġk as
Ġdec iding
Ġval ent
Ġremark able
Ġw elf
Ġtr an
Ġper m
Ġrun way
ina e
Ġcorn ers
Ġmeasure ments
Ġalleged ly
Ġr ut
Ġar d
ub a
Ġcent res
Ġcompens ation
Ġjuven ile
Ġst uck
Ġj ag
Ġ14 9
Ġintrodu cing
Ġconsum er
Ġsp are
Ġsw an
Ġcal vin
Ġhealth y
Ġri ot
hous es
b ank
Ġem ily
Ġmo z
Ġsurf aces
Ġbass ist
Ġh ab
Ġpl ug
Ġdefe nder
Ġdro wned
Ġstra it
Ġlege nds
Ġdiagn osis
Ġobser vers
c ore
he ro
Ġf en
Ġf ond
Ġm ere
Ġv ow
s l
Ã £o
Ġspe eches
Ġmore over
Ġspecial ist
Ġsubur bs
Ġincomple te
Ġh ann
Ġk ath
Ġmar ble
Ġdev on
Ġsyn th
Ġdoub les
Ġp us
Ġfor get
Ġres erved
orm al
Ġbas ement
Ġprogress ion
t an
Ġh iding
ov ich
Ġed ges
Ġgener ate
Ġlo ading
Ġbus ch
Ġgar field
Ġelimin ate
Ġdiamond s
Ġmaur ice
Ġr na
Ġcons ent
Ġreal izes
Ġperfect ly
Ġdrain age
Ġo re
Ġd ys
Ġe ase
Ġk ot
Ġsp ark
Ġbr ass
Ġc ater
Ġ21 0
Ġsol utions
fic ial
Ġattr active
Ġb red
Ġd h
Ġreg ulation
Ġprov en
Ġun pre
Ġcomp uters
Ġgr ab
Ġsl ot
a o
Ġp ushing
Ġsuper man
Ġ184 8
Ġunp op
Ġcla ire
Ġrevers ed
Ġconj unction
ri pp
Ġsec uring
Ġsuper vis
Ġwelf are
Ġg ir
Ġber ry
hol m
Ġsufficient ly
Ġcamer as
Ġspong eb
Ġn ed
Ġhard ware
Ġb io
Ġf uck
Ġd ian
ay ette
Ġover th
Ġhel m
Ġ187 4
Ġemb arr
Ġton ight
Ġcatal og
Ġc ure
Ġp ian
Ġper imeter
Ġloc ked
Ġpan ama
Ġfranc o
h d
Ġl ingu
Ġcolle ctive
Ġmu zzle
Ġsubd iv
ur ers
Ġair play
Ġcho osing
Ġhosp itals
bird s
Ġdesper ate
Ġhemisp here
ĠÂ µ
o op
p ow
Ġs op
at ri
Ġir ving
Ġfinn ish
Ġhol mes
Ġarab ic
Ġdefin itely
y e
Ġwh ites
Ġde gener
Ġra pe
Ġstar r
Ġbus es
Ġplate au
bro ok
Ġcon tend
Ġsc ales
Ġrif les
Ġa ster
Ġev ol
Ġinf ected
Ġvol unt
Ġhang ing
m m
Ġh od
ul us
Ġtr act
ern ess
Ġbreak through
Ġgrad uating
Ġwinds or
Ġmichel le
Ġi x
Ġass essed
Ġ14 4
Ġeas ter
Ġemphas ized
Ġlind wall
Ġarmen ia
el ines
Ġsp iel
Ġser bs
Ġcr ack
Ġillust rations
Ġjac ques
Ġrand y
Ġdimens ions
Ġk ang
Ġv ect
qu er
ov o
Ġgu atem
Ġany where
Ġcal cul
Ġmiss iles
Ġdou g
osp here
Ġglac ier
Ġd ow
Ġh ale
Ġcompet itors
Ġdiagn osed
Ġnot ion
ach i
Ġinc ons
Ġche ap
Ġsol omon
Ġincorpor ates
Ġdin osaurs
Ġfrust rated
Ġlegit imate
Ġstal in
Ġbur st
Ġkore ans
Ġcounter att
Ġw ounds
Ġor gans
Ġed win
Ġel im
Ġput s
Ġcitizens hip
Ġpup ils
Ġber keley
Ġpan ic
Ġvari ants
Ġmurd ers
on i
Ġm oss
Ġr Ã©
ist ically
Ġship yard
Ġprom ising
Ġstan ford
Ġmond ay
Ġaux ili
Ġ Å¡
ck er
Ġcou pled
Ġt iny
Ġw o
al ous
Ġst unt
ol ine
ag ic
Ġline up
1 2
p erson
Ġger ald
Ġprev al
Ġmer cy
Ġlu is
Ġblood y
p ost
qu al
Ġman ual
Ġbreak down
Ġcontroll ing
Ġtreas ure
Ġdri ft
Ġaccol ades
Ġwould n
Ġpres ley
Ġseason al
Ġphys ician
Ġrang ed
Ġs z
re z
Ġk et
Ġsu nder
Ġinvestig ated
Ġtend ed
Ġseb ast
Ġal c
Ġv ed
Ġmar tha
Ġprev iew
Ġfle t
Ġapprec iated
Ġcomfort able
Ġo ber
Ġconf ined
Ġdel hi
Ġpat ent
Ġread s
Ġcirc us
Ġexc iting
Ġund ers
Ġcub an
Ġske leton
Ġski ing
Ġch im
Ġne arest
Ġnorth bound
Ġdr ives
Ġz el
Ġtest imony
Ġpress ed
Ġsex ually
Ġfro zen
Ġinhab ited
Ġmon key
Ġaugust us
Ġgrand son
Ġpain ter
Ġemploy ee
Ġvac c
Ġd ish
Ġsu ite
Ġev angel
ail ing
Ġass ignment
Ġoccup y
Ġlay ing
Ġharm ony
Ġv es
Ġcar riage
Ġred d
Ġstat ute
Ġtra vers
Ġrhodes ia
Ġunoff icial
Ġen able
Ġgo ver
Ġprof its
Ġqual ify
Ġjenn ings
Ġcarp enter
Ġspongeb ob
Ġelim ination
el ia
Ġbl ond
Ġdesign ers
Ġcare fully
Ġsat ir
Ġreform ed
Ġmaneu vers
Ġexha ust
Ġgenu ine
Ġbulgar ia
Ġc auc
Ġst ance
Ġse iz
Ġab origin
ros se
Ġdu et
mit t
Ġmanag ers
Ġbox ing
m atic
t es
ce nding
qu et
Ġter restrial
ats u
Ġec os
Ġ28 0
Ġtechn ologies
Ġmaint ains
Ġchap man
Ġ185 1
Ġentert aining
y d
is le
Ġsuccess es
Ġtop ics
Ġsumm ers
Ġbl own
Ġenthusi astic
Ġgabri el
ul u
Ġgl enn
Ġfac ts
Ġmist aken
Ġfro st
Ġsleep ing
Ġhaz ard
Ġabsol utely
Ġisot opes
d o
Ġd uches
Ġg av
Ġpro se
ish i
Ġwe ird
Ġbas il
Ã¡ r
Ġb ism
Ġhe ter
Ġwater line
Ġesc apes
Ġproced ures
oca ust
Ġgover ning
Ġt at
Ġwas h
ra id
Ġdefe ats
Ġhon ored
Ġrepe at
Ġhay es
Ġenh ance
ed e
Ġm umb
Ġas hes
Ġsc ope
Ġbl ade
Ġdep r
Ġdisappoint ment
um ble
Ġmin eral
Ġste pped
Ġdisc o
Ġhop kins
Ġfit ting
ac ement
Ġdin osaur
Ġaccur acy
Ġsoph istic
Ġrefere nd
Ġneighbor ing
ne um
Ġins cription
Ġrecon cil
ato es
Ġd ign
Ġed gar
Ġins pe
Ġprote ctive
ĠÎ ¼
Ġeu rop
Ġb ree
om es
Ġbu zz
Ġreg ret
Ġang lic
Ġtra its
Ġprosec ution
Ġnur se
st ock
Ġperform er
Ġ14 8
Ġciv ic
Ġmoment um
l ies
Ġr ises
Ġgu ided
Ġdemocr at
Ġf et
Ġgrad uation
Ġnation ally
Ġincorpor ate
Ġunn amed
Ġspiel berg
Ġflet cher
Ġb icy
Ġsh ale
Ġex ceeded
Ġla ura
Ġred s
Ġrequest s
Ġkenn y
Ġinnov ative
Ġhelicop ters
Ġphyl ogen
Ġc ement
Ġsouth ampton
Ġcivil ization
o ok
Ġp ard
Ġv as
ru p
Ġbr andon
Ġav al
Ġread ily
Ġacad em
Ġre ly
Ġat oms
Ġconv inc
Ġslow ed
Ġshep her
Ġeis enh
Ġtradem ark
ou d
ons c
Ġsub mit
Ġhol ocaust
oph one
Ġven us
Ġstrugg les
Ġbol ton
Ġraid ers
Ġbang l
Ġphilosoph ical
ic ations
Ġl ig
ok es
Ġ13 6
Ġir re
Ġpatt on
Ġtr ails
pl ing
Ġkey boards
rif ied
Ġaffect ing
Ġspa wned
Ġunpop ular
Ġle an
Ġthe ft
op p
Ġass ume
Ġf ake
ib al
Ġthird s
Ġnob ility
Ġimprison ment
Ġreh abil
b age
Ġto ss
od ia
Ġcons umed
Ġrefle cts
Ġpreced ed
Ġst up
Ġr ust
Ġsh out
Ġgo eb
Ġder iv
Ġconclud es
Ġille g
Ġhend rix
Ġtong ue
Ġalumn i
g ro
k el
Ġloc ate
Ġ13 3
cy cl
Ġcomb ine
Ġdemol ition
Ġarr ay
rew s
Ġnegot iated
Ġpredecess ors
Ġdreadn ought
Ġd up
Ġe cc
Ġat hen
Ġcho ices
Ġstom ach
Ġl ia
Ġbar ber
Ġul tr
Ġlimit ations
Ġsynthes is
Ġt us
Ġw als
Ġas yl
Ġrele vant
Ġdist ances
Ġgrand e
Ġgrav el
Ġham mond
Ġeisenh ower
Ġne br
Ġreal ize
Ġrh ode
Ġ37 0
Ġcert ific
Ġargent ine
Ġl ined
Ġcap abilities
Ġlo os
Ġcub s
Ġstef ani
ap a
Ġear s
Ġconv iction
Ġfergus on
Ġecos ystem
e it
k at
Ġdig est
Ġhut ch
Ġb av
cl amation
Ġres pected
Ġpos ed
Ġpit ching
Ġclim ax
can al
Ġincor rect
Ġsexual ity
Ġwars aw
Ġplac ement
Ġy osh
Ġcl uster
og ical
Ġem ble
Ġbad ge
Ġobserv atory
Ġluc y
Ġtrust ees
Ġanth ology
Ġhat ch
Ġcorrespond ence
Ġp ose
Ġcrow ds
ol ics
Ġac ids
Ġinf in
Ġvar ieties
Ġeth an
Ġjeff rey
Ġdoub led
Ġancest ors
Ġu g
Ġbrit ney
Ġsus sex
h urst
Ġde x
ters hire
Ġwill is
Ġext ant
Ġinse ct
Ġb ust
ber ger
Ġsp ike
Ġcast ro
Ġvictor ious
Ġsett ings
Ġeff iciency
Ġprec ise
Ġalt og
Ġspr int
Ġforgot ten
Ġguadal canal
a ul
k ers
Ġc p
Ġv and
Ġam ino
Ġord in
Ġsomet ime
Ġmort on
Ġcolumb us
Ġgif ts
Ġaltog ether
Ġin ade
Ġr iv
Ġha un
Ġalt ar
Ġreyn olds
i ott
u ates
Ġn ie
Ġte ars
Ġkick ed
Ġsem if
Ġfran z
Ġnam ely
Ġinade qu
Ġn c
Ġk or
Ġunder lying
n as
Ġmat urity
Ġ26 0
chang es
Ġtheore tical
j ud
u ania
Ġw u
Ġfe es
ks on
Ġhigh lands
Ġserv ants
Ġviol in
Ġgal v
Ġconclud ing
rim ination
a ic
Ġsecret ly
Ġexc ited
Ġconqu ered
Ġhighlight s
Ġadopt ion
Ġendors ed
Ġrect ang
Ġfount ain
Ġst ap
ess a
Ġtr in
Ġann ie
Ġmun ich
Ġh ort
Ġret aining
Ġter rible
Ġcountry side
Ġruss ians
Ġiv y
Ġsatisf ied
Ġunh appy
Ġk re
Ġy ar
so on
Ġsouth bound
Ġ14 2
Ġgoal keeper
Ġfail s
Ġconfron ted
Ġlith uania
Ġnebr aska
en es
Ġste ering
Ġpa wn
Ġrank ings
Ġachie ving
Ġgree ks
Ġper ception
Ġwill ie
uch i
Ġfort ified
Ġabol ished
Ġor ch
Ġsc hem
Ġapp rent
Ġcr an
Ġhom age
Ġresemb les
Ġrecre ational
Ġsubsid iary
j ar
Å Ħ
Ġpe pper
Ġmus ically
Ġpoint ing
Ġsol ve
Ġcomp rises
Ġdepart ments
Ġactiv ated
Ġlands l
Ġcher ry
ed ed
Ġcl ash
Ġboy d
Ġdraw ings
Ġeat en
Ġpleas ant
i ast
Ġse ize
Ġform ats
Ġacc idents
Ġsub c
Ġbind ing
Ġreferend um
v ae
Ġaccord ance
Ġlithuan ian
is bury
Ġph ases
Ġtransform ation
Ġw an
Ġrel ax
Ġdors al
Ġdioc ese
Ġw oll
Ġb am
it ating
ic ia
Ġann oy
Ġprim itive
Ġrh ys
Ġwrest lers
ĠâĤ ¬
Ġeug ene
o ft
Ġro c
Ġmed ley
Ġdece ased
Ġcath olics
Ġorb ital
Ġfran Ã§
l ined
Ġf ol
Ġgen et
Ġdere k
Ġl au
Ġlo is
Ġball ot
Ã¡ l
Ġsaf ely
p ur
Ġy ang
Ġen acted
Ġconc ord
Ġdisp os
ãĥ ¼
Ġnegot iate
Å Ľ
Ġl ighth
Ġalb eit
Ġste w
Ġfact ions
Ġ185 9
Ġinher it
Ġcalend ar
Ġprec urs
Ġsubstant ially
Ġst am
Ġpar an
Ġstop ping
Ġchronic les
Ġtw ins
Ġco ch
Ġtotal ed
Ġbusiness man
Ġblo om
Ġdecomm issioned
b one
j ord
y th
Ġal pine
io let
Ġcou l
Ġroberts on
Ġsp ont
Ġge ographical
Ġat he
Ġsc orer
Ġavail ability
Ġmemoir s
id el
Ġr uther
Ġge ological
Ġsw all
sh i
Ġarch ives
Ġspar row
Ġbl aine
Ġfr aser
ict ions
Ġmill imetres
Ġ13 9
Ġcare ers
Ġsand stone
Ġconcept ion
Ġpap al
Ġs g
Ġl g
Ġn im
ip el
Ġwe nd
Ġcan ber
Ġ12 00
Ġboard ing
Ġcontroll er
Ġresol ve
Ġsu z
Ġeffect iveness
cript ions
Ġshr ine
Ġjoy ce
Ġlind a
ab ling
Ġcol omb
Ġed itors
Ġwel com
in ely
Ġthe or
Ġo ath
Ġh iv
ru cted
Ġcal iph
Ġmor ale
Ġmot ivated
Ġcondu ctor
Ġ184 5
Ġsunder land
Ġtr ucks
ime ters
Ġmagn ific
d rop
Ġ nd
Ġjo el
Ġcle aring
Ġsal am
Ġimag ination
Ġcompar isons
Ġabol ition
Ġre pt
Ġg ly
Ġst ur
Ġsal isbury
agon ists
Ġpoll ution
Ġmort al
Ġthin ks
Ġancest ry
Ġintercept ed
v ik
Ġp ipe
Ġp neum
Ġd iction
ri et
Ġtr igg
Ġcomm odore
ace ae
Ġrece iver
Ġmed ian
Ġreprodu ction
Ġtyr ann
Ġdescript ions
Ġc ogn
ad ic
Ġbl az
Ġadm ired
Ġbright on
Ġisol ation
Ġf ow
or p
Ġg ott
Ġk un
Ġex pend
Ġlaw yers
Ġprop ulsion
Ġintrodu ces
Ġsle e
Ġst rick
Ġste al
Ġoper ators
Ġcapt ive
Ġinfl icted
Ġtend ency
Ġacceler ated
it ic
Ġm Ã¼
Ġjen na
b ul
Ġac ute
Ġorgan isations
Ġcro c
Ġadm ission
Ġdomin ican
Ġexhib its
Ġrub ber
Ġb ened
Ġand ers
Ġqu inn
Ġreal ised
Ġtimber lake
Ġmanuscript s
Ġfart her
ĠâĢ ĺ
Ġmat ched
Ġcommand s
Ġvis uals
agon al
ij i
Ġcow boy
Ġria a
1 1
ro ke
Ġk aren
Ġv eto
Ġfound ations
Ġbow ler
Ġtor res
Ġpoll s
Ġwhit ney
Ġundergrad uate
g un
Ġw ang
Ġab str
Ġz inc
Ġaust en
Ġins ight
Ġconqu er
Ġp ike
Ġshe d
Ġham burg
Ġden omin
Ġarab ian
Ġorche str
Ġinte g
c at
il ia
Ġk ann
Ġbu enos
Ġnort on
Ġwat ches
Ġconserv atives
Ġell iott
Ġasyl um
Ġrel iable
Ġincorpor ating
Ġports mouth
Ġt ul
is ch
Ġtw ist
Ġ14 7
Ġsuper hero
Ġaccount ing
Ġclin ical
Ġsha wn
Ġ ãĤ
Ġd ull
Ġavo iding
Ġsh apes
Ġday ton
Ġend e
Ġlar vae
Ġaver aging
Ġscot ia
Ġdrop s
Ġker r
Ġ æ
Ġde ar
Ġcomm ended
Ġdomin ance
Ġborrow ed
Ġecc entric
b ane
om orph
Ġleg ally
Ġ... .
Ġremar ks
Ġspe ar
Ġdown ed
Ġfull er
Ġdepend s
Ġforb es
Ġpeters burg
Ġduches s
Ġs aves
Ġh ik
Ġg and
Ġpl ent
Ġly rically
Ġfav oured
Ġhug o
cliff e
Ġfin s
Ġcur ric
Ġscand in
Ġbreat h
Ġbutter fly
m ons
Ġpresent ing
Ġdetermin ation
Ġpartis an
Ġcaes ar
u i
v as
Ġst ake
ch ild
Ġret iring
Ġsing h
Ġdep ress
Ġge ographic
Ã© r
Ġsal mon
Ġaccept ing
Ġkr ish
Ġesp n
Ġferr ari
Ġin ev
ith m
Ġv ene
yl on
Ġhall ow
Ġgard ner
Ġgal ile
Ġdur ham
Ġworth y
Ġsic ily
Ġw ong
Ġnation wide
Ġattrib utes
Ġweb ber
Ġpuzz les
e ctions
Ï ģ
Ġt ired
it ory
Ġe ject
Ġg ills
Ġsm s
Ġamb ig
Ġmagn et
Ġbib l
ot on
Ġro vers
Ġam ber
Ġind ie
Ġhum ph
Ġtest ament
Ġ182 0
Ġom aha
Ġsovereign ty
ro ft
Ġst ab
Ġr ats
Ġcolle ague
ik h
Ġphys ic
Ġpriest s
Ġph arm
Ġactiv ist
Ġrespons es
Ġimm ort
iat us
Ġpoison ing
Ġmonit oring
ar med
est ock
ov an
Ġwhen ever
Ġcommission ers
Ġremix es
Ġimplement ation
Ġmcm ah
Ġs ink
Ġmill imeter
Ġbrit t
Ġstr ain
bor o
Ġhapp ens
ÅĤ aw
Ġther mal
Ġcel est
o an
Ġnum er
Ġgovern ors
ret ion
Ġdiss ent
f old
g ence
Ġt rop
Ġl ance
Ġg ur
Ġspec ified
Ġz omb
Ġhard er
Ġpeace ful
Ġta un
Ġastronom ical
Ġther m
Ġconfig uration
Ġdis k
Ġgovern ed
Ġchart ing
Ġauxili ary
ar u
ro ck
Ġj a
Ġsl opes
Ġcolle g
Ġpat roll
Ġval ued
Ġscript s
Ġt i
Ġw igg
ir med
Ġk end
Ġstri ker
Ġphilipp ine
Ġlun ch
Ġg ore
Ġas pir
Ġex agger
Ġle aked
ke ys
Ġfur ious
Ġimm une
Ġsib lings
Ġmumb ai
Ġc ly
or o
Ġm erg
art e
Ġacc ent
Ġgu ys
Ġshel ters
Ġinstall ment
Ġbah amas
Ġenthus ias
Ġexplicit ly
x ton
Ġb f
or us
Ġover time
Ġvis itor
Ġtalk ed
Ġneighborhood s
Ġmag ist
Ġspir its
Ġreun ited
Ġcontempor aries
Î ¹
Ġp oul
Ġsp or
Ġint entions
Ġcons ort
Ġmon ica
Ġrespons ibilities
Ġcommitte es
Ġtourn aments
Ġaccommod ation
Ġpruss ia
Ġthunderstorm s
Ġcanber ra
Ġb m
Ġy ank
Ġfre estyle
Ġactiv ists
Ġ185 4
r ina
u ana
Ġcomp art
Ġep id
Ġdev ils
Ġangel a
Ġlect ure
so ver
Ġout lets
Ġperform s
Ġexp elled
Ġpers isted
Ġradio active
unc iation
Ġruther ford
Ġ ia
ig ious
Ġr er
Ġlo pez
Ġprim etime
Ġ185 7
Ġpear son
Ġquant um
he y
ac co
Ġhel ium
Ġflor a
Ġresour ce
Ġorb its
Ġaccum ulated
Ġt ailed
Ġn me
Ġsh ocked
Ġsy rian
Ġeng r
Ġshort ened
Ġfro g
l on
ell ers
Ġreg ener
Ġdisc rimination
m ir
il is
om er
Ġsa ff
mar ks
Ġfinanc ially
Ġens ured
Ġcert ifications
Ġtornado es
Ġrebuild ing
Ġa ires
Ġd iana
ad y
Ġover ha
Ġlaun ching
Ġamb ul
Ġrh ine
Ġreun ion
Ġguid ance
Ġd ol
Ġopp en
hy d
Ġinvestig ating
Ġconvoy s
Ġtraged y
a id
Ġ à
Ġint rig
Ġover see
Ġmin ers
Ġrev enues
Ġsound ed
Ġsuper v
Ġben z
Ġunw illing
Ġcriter ia
Ġl ent
oun ce
Ġpit t
Ġsymb olic
Ġic onic
d al
Ġd ining
ou fl
Ġg ag
Ġnew ark
Ġhold en
Ġnit rogen
Ġdisagre ed
Ġregist ration
Ġsome body
Ġval ve
Ġexpress ing
Ġliv estock
Ġenthusias m
Ġt ense
Ġt ampa
Ġf alk
Ġl ich
Ġn Ã©e
em pl
qu in
Ġnew er
Ġport al
Ġol ive
Ġroof s
ovak ia
Ġp ony
Ġher s
Ġbo ards
Ġfr atern
Ġdi á»ĩ
Ġscre ened
Ġjosh ua
Ġrejo ined
Ġw ages
en ary
Ġinter im
Ġdevelop s
Ġpat ric
Ġcas c
Ġlink ing
Ġnortheast ward
Ġjes se
Ġlas er
Ġin ability
Ġl ucky
Ġdo z
Ġdist urbed
Ã© l
Ġsuper natural
Ġlow ered
Ġpromin ence
Ġdiá»ĩ m
Ġm aker
Ġcla ud
Ġcontinu ously
Ġenlar ged
b in
c are
t or
ic les
Ġcom pton
Ġle is
Ġorgan ize
Ġportray s
Ġded ication
Ġconfront ation
Ġreleg ated
Ġwrestle mania
Ġbibl ical
Ġa unt
in os
Ġp orn
Ġreg ain
Ġcap com
Ġgrand mother
Ġnarrow ly
Ġpersu ade
Ġb rom
Ġb ury
Ġwh ip
op l
Ġpl as
Ġtele vised
Ġfre ely
Ġill umin
Ġjud ged
Ġper ipher
Ġpo etic
Ġinv ention
Ġdod gers
Ġprol ong
Ġantar ctic
onsc ious
Ġdex ter
Ġh r
Ġwor s
te nder
Ġam al
Ġknow les
Ġrain bow
Ġpsy ched
Ġcollect ively
Ġfrig ates
Ġhe ating
Ġent ries
Ġeight eenth
Ġnar rator
Ġcru z
Ġstaff ord
Ġpurs uing
Ġseg reg
Ġlect ures
Ġsanct uary
Ġwhe els
Ġcost a
Ġbes ide
Ġwh is
Ġtr im
au er
Ġsmall est
Ġod ds
Ġimag ine
Ġsymp athetic
Ġexclud ed
it ational
Ġen cycl
Ġview er
Ġ32 0
Ġap oc
rop ods
Ġcompan ions
Ġash ley
Ġinterf ace
Ġbub ble
s wick
Ġc unning
Ġm its
if ax
Ġab rupt
Ġship ments
Ġmake up
Ġhot els
Ġrenown ed
Ġf c
ail and
Ġfr ames
Ġbattlecru iser
Ġhanna h
Ġadri atic
Ġeccles iast
Ġbangl adesh
Ġst un
air d
Ġke yn
Ġshort age
Ġcook ing
Ġresur re
Ġm ating
ic ular
Ġg aza
el ic
id ity
Ġcon clus
Ġdecl ining
Ġrow s
Ġt ides
il ian
Ġth ailand
Ġj aws
Ġall an
Ġdo ver
Ġking ston
Ġdivision al
Ġsit com
Ġcam oufl
Ġpred ator
Ġ55 0
Ġrecommend ation
Ġced ar
Ġrp g
Ġconsolid ated
Ġaest hetic
he res
im an
Ġper t
Ġbro ck
Ġhall s
Ġ185 8
Ġh omet
Ġfl ame
Ġcr ater
Ġcas em
Ġquant ity
Ġceremon ial
Ġcl ad
Ġsupp ress
Ġfield ing
Ġcru el
Ġroll s
Ġmort ality
Ġencour aging
Ã¤ n
Ġw and
Ġl ans
el age
Ġbe et
og an
Ġjohn s
Ġcoun ted
Ġdon na
Ġalexand ria
Ġw ade
Ġp ub
Ġhe x
Ġcont acts
Ġmother s
Ġweak en
Ġbed room
Ġbah rain
Ġw ives
at in
Ġm iz
Ġm und
Ġl ots
av el
Ġwheel er
Ġdispl acement
Ġxii i
b en
Ġdis cl
Ġcent imetres
sp ring
Ġcomed ian
Ġmcmah on
Ġprom ises
Ġreason able
Ġsupposed ly
Ġmerchand ise
he art
Ġd ame
ov ina
Ġpo ets
Ġrem aster
Ġmin ne
Ġport able
Ġprop eller
Ġqual ification
Ġthir teenth
Ġnest ing
Ġpostp oned
Ġpavil ion
e an
Ġaf raid
Ġpe ers
Ġz ool
Ġsuper n
Ġcle ver
Ġvir al
Ġnucle us
Ġ181 2
Ġneighbour s
Ġovers aw
Ġdeterior ated
Ġinfer ior
Ð ¾
Ġd ana
Ġbe a
Ġbu ying
Ġrest r
Ġreact or
ĠÂµ m
Ġlighth ouse
Ġwelcom ed
Ġhomet own
w oman
Ġk ol
per ed
Ġpun ch
Ġsubject ed
Ġbac on
Ġaffili ated
Ġb ard
us a
Ġsk ip
Ġmc cl
Ġindian apolis
Ġdan ube
Ġk ab
Ġaccording ly
Ġmanufact urer
Ġtib et
w alk
Ġre id
Ġj agu
Ġlegend ary
Ġtob acco
Ġb ail
Ġf ry
Ġsc roll
Ġav on
Ġrepl ay
oe uv
Ġtroub les
Ġnept une
st ead
Ġrec apt
Ġbet ty
Ġcal ib
Ġfood s
Ġ184 9
z el
ac a
Ġbe ings
Ġver t
Ġ185 6
Ġ33 0
Ġwrest ler
Ġhut ton
Ġtort ure
l ance
Ġc ia
Ġp amp
Ġun ne
Ġpre ference
ang a
Ġpres by
com mun
Ġmeant ime
Ġcanc ellation
Ġfavour able
Ġexha usted
Ġj ak
Ġwin chester
br ates
Ġrecommend ations
Ġjul ia
Ġprovision al
c aster
Ġcap ability
Ġhal t
Ġhal ifax
Ġorder ing
Ġevac uate
Ġgy mn
Ġforb idden
Ġl omb
Ġn iger
st op
ac ious
Ġfl ies
Ġshow c
Ġref usal
Ġmort ar
worth y
Ġstrict ly
w ord
it ative
Ġtim ing
Ġrum ours
Ġpruss ian
Ġpartis ans
olith ic
Ġc c
an u
Ġg ould
ast on
Ġla uded
ai ro
Ġcat ches
Ġri ots
Ġpatri arch
Ġdischar ge
u ka
Ġm are
Ġbr ide
Ġinf ect
Ġemp ress
Ġbreat hing
Ġsuperst ructure
Ġheb rew
ut o
Ġpop ul
Ġconf isc
Ġkingdom s
Ġcelebr ations
Ġpilgr im
Ġsk irm
Ġassoci ations
Ġpupp et
Ġmiddles ex
k an
Ġfr ight
Ġgen eric
Ġadvertis ement
ir t
ow ing
Ġex empl
Ġaver ages
Ġtraff ord
Ġmanufact ure
Ġdram atically
Ġg Ã¶
Ġch ant
Ġexp enses
Ġcommun ists
Ġadm its
Ġdiss atisf
Ġbrad ford
Ġdoz ens
id ium
Ġpass ages
ting ham
Ġrest art
Ġobs erve
Ġinvest ors
Ġconcent rate
Ġjok er
is a
ur ance
Ġk amp
ag ara
Ġher m
Ġconv entions
Ġaw ak
Ġmoder ately
Ġlaf ayette
b les
ic z
Ġbe aches
Ġhe p
Ġsu ed
Ġsc i
ys s
Ġportray ing
Ġkind s
Ġinspect or
Ġsebast ian
Ġm oth
Ġg oss
id ad
op us
Ġoff spring
wn ing
Ġnor wich
Ġgre ene
Ġ14 3
v or
Ġman ned
Ġrel at
Ġarch ipel
Ġplant ed
Ġc aves
Ġv augh
Ġte nds
Ġlo ch
Ġautom atically
Ġportra its
Ġjess ica
Ġh p
Ġse nds
Ġv ince
Ġcl ient
Ġfl aw
Ġrep orters
Ġbro od
Ġer ie
Ġtrigg ered
Ġt ut
Ġcomp ass
Ġmat rix
gest ion
Ġlos es
Ġaff ection
Ġplant ation
Ġpure ly
Ġt ina
Ġth read
Ġr ama
se nd
Ġende av
Ġal arm
Ġro chester
Ġor phan
Ġcomp at
Ġinter ven
Ġlim bs
Ġrot ten
Ġgam er
Ġstew ie
h im
Ġmo h
Ġprem ise
Ġamphib ious
Ġkn ife
Ġair pl
Ġmed i
gr aded
Ġhalf way
Ġobserv ing
Ġrectang ular
k ov
re et
Ġto uc
Ġwe ber
Ġfilmm akers
Ġth urs
Ġover night
Ġwear s
Ġfeed back
Ġcra fts
Ġal der
Ġbo ots
Ġsl ope
Ġdam asc
Ġdon ations
Ġrefle ction
Ġfear ing
Ġshield s
1 9
red ited
end ers
Ġ65 0
bu ild
Ġshoo ter
Ġh ank
op ter
Ġepis cop
Ġsk illed
Ġstat istical
Ġball ads
Ġcinem atic
Ġindu ced
Ġdat ab
Ġencycl op
d ers
Ġst ip
Ġbe es
Ġcle ment
ze g
Ġparalle ls
Ġoutf it
Ġglou cester
Ġpresum ably
m ass
o ids
Ġa in
Ġj ava
Ġper u
Ġinst ances
Ġclass ics
Ġnat al
Ġcome back
Ġbox es
Ġbats men
Ġbrun swick
Ġadequ ate
Ġunne cess
ar re
Ġre per
am ous
art a
land o
Ġmon soon
Ġcanad iens
Ġspect acular
Ġshir ts
Ġaccus ations
r ators
id ian
o qu
r ance
Ġs ack
es ters
Ġro pe
ov ny
Ġcomplex ity
Ġeag er
Ġinstru ctor
Ġsh oes
cl air
ik k
Ġcorn ell
Ġshar on
Ġwy att
Ġpref ect
Ġshak ira
Ġduch ovny
h ist
Ġch ak
Ġint imate
Ġevery day
Ġ185 2
Ġoppen heimer
Ġre x
av o
Ġcl usters
Ġreal ism
Ġtro y
Ġox ide
Ġcateg or
Ġthor pe
Ġencl osed
c ence
f ires
Ġt ens
Ġs ided
Ġdis qual
Ġdef ining
Ġrich ards
Ġsex y
Ġintegr ation
Ġdownload able
Ġsophistic ated
b es
á ¹
Ġc aut
iz able
omet ry
Ġlabel ed
Ġinnov ation
Ġrecip ient
Ġhier arch
Ġverd ict
Ġn erve
Ġhe ming
Ġserv ant
Ġmarch ing
Ġfit ness
Ġspeak s
Ġing red
Ġthurs day
Ġfr on
Ġbas al
Ġinvest ed
Ġobject ed
Ġcolleg iate
l en
at as
om i
Ġfun gi
Ġquar ry
Ġcolon ists
Ġsac r
Ġfaith ful
Ġc ay
Ġfor k
Ġas cend
if ier
Ġje alous
Ġ184 7
Ġiraq i
Ġmetro id
Ġtack le
Ġsurve ys
Ġyank ovic
he a
Ġf als
Ġam ounted
Ġco hen
che v
Ġviol ation
Ġcommunic ate
Ġhind i
Ġremn ant
Ġw ax
ar ms
Ġh iatus
Ġmet ap
Ġcoin age
w ind
Ġs v
Ġl umin
th ood
Ġpartic le
Ġru ined
Ġfund ra
Ġexcept ional
Ġfarm land
Ġst raw
Ġman a
Ġreg ards
Ġhigh land
Ġstr and
Ġref using
Ġcoun ts
Ġmanufact urers
f o
Ġg m
ass ing
Ġfour teenth
Ġmil ton
Ġdead line
Ġlouis ville
il us
Ġse ated
Ġinv as
Ġpet ro
Ġ185 5
Ġwild e
Ġyour self
Ġpsych ology
Ġprin ces
Ġancest or
Ġexclud ing
Ġwiz ard
Ġs its
Ġinst ant
Ġbre ach
Ġmi y
Ġcat aly
Ġdivor ced
u y
ov ed
Ġshe n
Ġma id
Ġstar ter
Ġcomb ining
Ġpeak s
Ġpenal ties
Ġleban on
Ġvene z
Ġf ou
al ine
ard y
Ġbo hem
Ġins criptions
Ġannoun cing
Ġcoll ier
Ġdar ren
Ġconvinc ing
c in
r imin
Ġun ified
Ġle y
Ġco ached
Ġass ured
Ġtest ified
Ġ184 6
Ġmig uel
Ġshut tle
Ġculmin ated
Ġrevel ation
ord ination
Ġwin n
Ġposs essions
Ġjack et
Ġcool er
Ġsket ches
Ġhast ings
Ġh ij
im m
Ġpres umed
Ġcr ist
Ġpay ments
Ġhyd ra
Ġuncertain ty
Ġelectron ics
Ġdamasc us
u ke
Ġg onna
Ġsm ash
Ġappe nd
Ġmuseum s
Ġsed u
Ġrhodes ian
Ġrend ition
Ġterr ace
Ġadvertis ements
Ġorient ation
Ġg el
Ġhe ated
ig on
Ġsa udi
Ġair ways
Ġinf ilt
Ġemb ry
Ã³ w
Ġconced ed
Ġsans k
Ġredd ish
Ġarchipel ago
Ġg n
Ġsp iders
Ġrec k
Ġconst ellation
Ġstat ues
Ġdanc er
d ock
Ġb Ã©
Ġab du
Ġdis rupted
Ġchar m
Ġem i
Ġtre ason
Ġdecl are
ĠÃ ¥
Ġcart e
Ġjul iet
Ġdissip ating
Ġhispan ic
Ġzel da
Ġschem es
r ush
Ġe uras
Ġg ael
Ġse j
Ġem ir
Ġexpl orer
Ġsuper in
Ġru pert
Ġgeorg ian
Ġapprec iation
Ġdimin ished
Ġposthum ously
Ġp t
Ġal onso
th ouse
ra h
Ġser p
Ġav atar
Ġsed iment
Ġcrus ade
Ġplum age
Ġinadequ ate
d p
g irl
Ð ¸
at z
Ġk Ã¶n
Ġz o
Ġcal der
Ġjam ie
Ġgw en
Ġdio xide
Ġa ims
el ong
os ure
Ġtw il
Ġman oeuv
Ġaddition s
Ġterror ist
Ġlex ington
Ġn olan
Ġinter rog
ik es
Ġdev ised
Ġaccept able
Ġdog gett
Ġ183 2
umber ing
Ġaz erb
Ġinspe ction
Ġleis ure
Ġazerb ai
Ġs ene
Ġd ances
Ġr ash
ell es
Ġcov enant
Ġcur se
Ġnat ives
ki en
hold ers
Ġfill ing
u ity
Ġt idal
Ġk i
Ġte ar
Ġsub f
Ġgener ating
Ġopen er
Ġge ology
Ġaut onom
Ġsyn opsis
Ġlegit im
f ax
or an
Ġm ered
ound ed
ator ies
Ġru f
Ġopt ical
Ġjul ie
Ġkilog rams
Ġtwil ight
f ight
n t
Ġro k
Ġgr as
Ġret al
Ġbar o
Ġcour ty
Ġmechan isms
Ġf ont
Ġv ine
Ġar b
Ġev a
Ġthan k
Ġelect or
Ġmel odies
Ġdiss olution
Ġstock holm
Ġastron aut
Ġrelie ve
h aven
Ġf ug
Ġde ity
Ġtr aces
Ġvir uses
Ġsequ els
Ġmans field
Ġlisten ers
Ġsuperin tend
b red
h aus
im on
ap or
Ġdef ine
Ġip h
Ġbuck ingham
Ġconstitu ency
b rit
Ġb ess
Ġl ament
Ġg ul
ain ted
Ġtem pl
fl ies
Ġspir al
ontin ental
Ġminne apolis
en stein
Ġen abling
ib i
Ġpull ing
Ġmered ith
Ġs acked
Ġwor cester
Ġinter l
Ġback drop
Ġsl ate
Ġcharacter ised
Ġdynam ics
Ġbris bane
Ġguarant ee
Ġland own
Ġprof ound
Ġpurch asing
Ġrecru iting
Ġtroub led
Ġ Ø
ely n
Ġbl anc
Ġsome where
ik er
Ġpant hers
Ġcurric ulum
Ġhallow een
Ġ Ì
Ġsp arked
Ġap ost
Ġbar rel
Ġflow ing
Ġexped itions
Ġgaz ette
Ġshepher d
or rh
al us
Ġst iff
Ġgen ev
ah o
Ġhum our
rain ts
Ġthrow s
Ġframe work
Ġuniform s
Ġcommemor ate
Ġdevast ated
Ġsansk rit
er os
Ġl anka
Ġr b
Ġse aled
Ġk iel
Ġad olf
Ġmethod ist
Ġrenov ation
p op
Ġle ip
Ġla ur
Ġtur tle
Ġo de
Ġto ys
Ġcol bert
Ġpre jud
Ġpr ints
ens ing
Ġloc als
Ġexp osition
Ġwat ts
Ġbroad er
Ġagre ements
Ġstore y
Ġprohib ition
Ġpatri ot
b ot
l ay
z on
Ġ ich
Ġbe atty
Ġse ating
Ġdead ly
1 5
v y
Ġad ul
Ġwar wick
Ġent ity
Ġbroad ly
Ġ185 3
Ġrid ges
Ġrein st
Ġpack ed
Ġcryst als
Ġassass in
Ġassum ing
c ies
f ia
ar ck
Ġde leted
Ġv il
Ġind oor
Ġnorth umb
Ġmor oc
Ġphys i
Ġcryst all
Ġboil er
Ġpatron age
Ġenzy me
Ġleop old
Ġshack leton
Ġke eper
Ġstat ic
Ġelect rons
Ġske let
Ġh are
Ġex empt
ry s
led on
Ġprom o
Ġcy n
Ġcontem pl
Ġrecover ing
Ġscr atch
Ġnomine e
h ail
É ª
Ġf oul
ces tershire
Ġrev ision
Ġsl ant
Ġsuggest ions
Ġemb ed
Ġconcent rations
Ġandr Ã©
Ġthe od
Ġu pt
Ġfront al
Ġteen ager
Ġfurn iture
i op
le an
Ġy ale
ge e
Ġcl are
ru ctive
Ġsuper vision
Ġboy cott
Ġgas oline
Ġwed nes
Ġbot tle
Ġlac rosse
Ġabstr act
at ches
Ġg an
Ġse ym
os l
Ġor lando
Ġab n
Ġgr at
aw ak
Ġdeb ated
Ġham pton
Ġcalc ium
Ġsulf ur
l ot
Ġcon ning
Ġv end
Ġsp ans
og ne
Ġsharp ly
Ġmush rooms
Ġkap oor
Ġunpre ced
Ġo c
Ġf rit
Ġr age
Ġj al
if a
ud er
Ġant agonist
Ġnob les
Ġunpreced ented
Ġfor um
Ġj ab
Ġor k
Ġpe gg
Ġeast bound
sh adow
Ġmemorial s
Ġkilomet re
Ġcurren ts
h ot
Ġp ag
Ġar che
Ġmus cles
Ġinc umb
Ġsouth ward
ten ham
Ġpers ians
Ġwest bound
Ġlo vers
Ġworks hop
Ġmic roscop
Ġmotor cy
Ġstret ched
book s
Ġinteg ral
Ġpresby ter
im o
Ġele g
Ġshoot s
Ġpalest inian
Ġvin yl
Ġseym our
Ġe instein
ad os
Ġbe friend
Ġsu cc
Ġsh ane
Ġcl ut
Ġsp ore
Ġlov ing
Ġresemb lance
Ġdisapp ro
Ġdiff ers
Ġthe ology
Ġd ash
Ġor y
Ġtr aced
Ġsou ls
Ġbar ons
Ġgeor get
Ġ184 1
Ġple ase
Ġwes ley
f ace
id i
Ġrem emb
Ġkn ox
Ġinc on
Ġexpl oring
Ġdet ection
Ġmission ary
Ġcompos ing
Ġvik ing
Ġemer ge
Ġhoff man
b ors
st ri
Ġon set
Ġx en
Ġsimilar ity
Ġlyn n
Ġberg en
Ġpe er
Ġsub way
Ġalb ion
Ġgrad ual
Ġclim bed
Ġspread ing
Ġment or
Ġkrish na
Ġse ab
Ġver de
Ġwell es
Ġste als
Ġmater nal
ante ed
Ġtouc hed
3 8
Ġp ile
Ġm t
Ġro uted
Ġinc arn
Ġwhere by
Ġcle m
Ġunc onscious
Ġvalley s
Ġund ef
Ġrow ing
Ġlem on
Ġaqu atic
Ġdolph ins
Ġtren ches
Ġa e
Ġd as
ir us
Ġde uts
Ġrep ly
Ġbel arus
Ġhard ly
Ġpromin ently
Ġguar anteed
Ġd und
Ġjack ie
Ġfac ial
Ġcreat ors
Ġtransport s
Ã± a
Ġhok ies
Ġsupervis or
Ġse als
Ġsp ray
Ġbel grade
Ġche ese
Ġcele brit
Ġabund ance
Ġhect ares
p i
Ġt ac
ou x
am y
am us
ul ent
Ġcar roll
Ġgu ilt
Ã© d
Ġhy mn
Ġhost ing
Ġ184 4
Ġmob ility
Ġpath s
Ġsin atra
Ġoak land
Ġts ar
Ġcros sover
Ġcres cent
n ian
Ġd ixon
ion ed
Ġe ternal
op oly
Ġwin ston
Ġmen u
Ġbill ed
lin ing
Ġgro ves
Ġdism ant
Ġcec il
le nd
act ory
Ġmatch ing
Ġpun ct
Ġneut ron
Ġheming way
m id
Ġb ells
Ġb inary
Ġk yl
Ġch at
Ġli u
Ġant io
Ġhero ic
Ġbarb ar
Ġsoph om
Ġexcav ations
Ġdaw son
Ġsummon ed
Ġphant om
st en
ill on
Ġlo ans
Ġbar row
Ġfact ories
Ġhit ch
Ġscen ic
Ġros a
Ġvac ant
Ġchore ography
Ġvenez uel
Ġcelebrit ies
l ord
an as
Ġh ire
Ġcomp uls
Ġdef icit
Ġdown s
ann i
Ġvill ains
Ġexcept ions
Ġven om
Ġsword s
Ġdrag ons
Ġconsult ant
at um
Ġh ail
Ġgu am
Ġhard ing
Ġdiscover ing
Ġcompl aint
Ġeth ics
Ġkr ust
Ġgri p
Ġdepict ions
Ġorn ith
Ġovert urn
Ġcounterp art
y ch
Ġ. .
ag ne
Ġex changed
Ġjo ey
Ġdef ect
Ġdesign ing
Ġhand ful
Ġpract iced
Ġbroadcast s
Ġlad en
Ġlad der
Ġplanet ary
Ġconvers ely
Ġjoint ly
Ġgamb ling
Ġecclesiast ical
Ġb ip
Ġb raw
Ġqu ot
Ġequ ality
Ġaccept s
Ġaw k
Ġess ays
Ġcens orship
Ġsculpt ures
Ġanch ored
Ġses ame
r ag
in as
Ġal ley
Ġsh y
Ġperiod ic
mar ine
Ġcu is
Ġunemploy ment
Ġpamp h
Ġmetap hor
f le
k ill
ch air
od ied
Ġreg ent
Ġver b
Ġele anor
Ġsl ide
Ġcontin uation
Ġoccup ying
Ġamb ition
Ġ179 0
Ġell ip
Ġutil ized
Ġninet een
Ġmg m
Ġreop ened
m are
Ġcl o
Ġdec oration
Ġjust ified
Ġmy r
Ġeight y
Ġpu zzle
Ġadvis or
ĠâĻ Ń
Ġvalent ine
Ġb ren
Ġe ly
Ġpr adesh
Ġreg ul
ys is
Ġel ong
Ġ183 6
Ġbart on
Ġutil ity
Ġsymp ath
Ġwis den
Ġwednes day
Ġw imb
om o
Ġpl ots
Ġstr anded
Ġprop he
Ġpun t
Ġcla ude
Ġmcl aren
Ġpeas ants
z an
Ð µ
Ñ Ģ
Ġsu pers
Ġday light
Ġresp ir
Ġden y
Ġconcur ren
Ġanglic an
Ġawk ward
Ġc ites
Ġj ed
Ġen er
Ġher zeg
Ġunder m
Ġend emic
Ġste aling
Ġgovern ance
Ġold s
hy l
Ġblock ing
Ġmountain ous
Ġbyzant ines
Ġresid ences
Ġmoist ure
n c
Ġre e
Ġun ions
ab i
Ġbr ack
Ġpers istent
Ġpost ing
Ġir r
Ġpri ory
Ġmel ting
Ġbackground s
Ġauth ored
Ġcatal ogue
Ġunst able
Ġunfortun ately
v an
st a
Ġst oke
ur ai
Ġy o
Ġatt ain
Ġstory t
Ġmc n
Ġur ging
Ġburn t
Ġwild erness
Ġven ge
Ġ177 6
h ara
Ġt ud
Ġf isc
Ġlong time
Ġmod ule
Ġref r
Ġneg ro
Ġintens ification
Ġarab ia
mans hip
Ġfal con
Ġautom obile
Ġastron omy
Ġcott age
Ġcounterp arts
us ive
Ġv ishn
ul ing
op y
cl ass
Ġbre t
Ġdeb ates
Ġha iti
Ġsle nder
Ġmaur it
Ġnut ri
Ġconting ent
ur t
Ġimp acted
Ġblack burn
Ġsound ing
Ġextr act
Ġobt aining
Ġkr ak
Ġcant ata
r ill
Ï Ħ
is en
Ġfe ast
Ġem issions
Ġspec ially
Ġant illes
Ġfeder er
Ġgro ove
Ġdom es
Ġ183 7
Ġdeliver ing
Ġoverl ap
Ġbened ict
k ind
Ġun beat
Ġital ians
Ġtheat res
Ġarab s
Ġmong ol
Ġcroc od
Ġener get
Ġd ong
Ġl Ã¼
ir th
Ġk ins
Ġtrans mit
Ġlab els
om ans
Ġst o
Ġgun nery
Ġoccur rence
Ġgi ro
Ġquad ru
Ġgran ite
Ġwimb ledon
er oy
Ġl ore
Ġz agre
Ġsl ayer
Ġprov idence
Ġsol itary
Ġweb ster
Ġtel ugu
Ġcov ent
Ġaub urn
Ġcertific ate
Ġst ellar
Ġch ocol
Ġpe ac
Ġhy ph
Ġresemb ling
ogen ic
Ġrab bit
Ġlon ely
Ġaborigin al
Ġb oul
Ġpr one
Ġball oon
Ġlik es
Ġcad ets
Ġconcurrent ly
far lane
Ġpla que
Ġintim id
g ard
it he
Ġbe ef
Ġat p
Ġan ten
our se
Ġprest igious
Ġfru its
in ks
Ġal igned
Ġep s
Ġhard core
Ġrit uals
Ġwrap ped
Ġzagre b
Ġs izes
or um
Ġp ere
Ġun in
Ġacc ounted
Ġdec ree
ty m
Ġvis ibility
Ġinform s
Ġmelod ic
Ġbankrupt cy
t he
Ġg ases
Ġis m
Ġmon etary
Ġexpl or
Ġec ological
f ork
v ous
Ġd rif
Ġg um
el ius
Ġk its
Ġv ag
ok a
Ġgr un
by e
Ġiss uing
Ġham m
Ġcry pt
Ġamaz on
Ġdetermin ing
Ġecl ip
Ġcon go
Ġi uc
ters on
Ġsub mission
Ġshort s
Ġdu ff
Ġgoal tender
Ġunf av
Ġkid ney
it us
Ġm ell
Ġh ailed
Ġle ver
og s
Ġinf ra
Ġmor ality
Ġcampaign ed
Ġvirt ue
Ġuncom mon
Ġgael ic
Ġcre t
Ġcr ush
Ġaccess ion
Ġtermin ated
Ġtext ure
Ġdevast ating
Ġguatem ala
Ġemble m
Ġs ire
Ġcomp ose
Ġz imb
Ġextr as
Ġrecall s
Ġoutl aw
Ġincred ible
Ġerupt ions
Ġsuperintend ent
Ġiuc n
Ġr all
ul ative
Ġbl ess
Ġvers a
Ġstar board
Ġdress ing
am oto
Ġdeb ts
Ġroyal ist
Ġshould ers
Ġtal ented
Ġconfron ts
Ġdor othy
Ġcarn iv
Ġtol kien
n ant
Ġl s
Ġr he
Ġcl own
ass ium
Ġsub pl
bo ats
Ġreal izing
Ġsee ks
Ġprot esters
Ġcycl ing
Ġcann ons
Ġdismiss al
Ġgam ma
Ġreprodu ctive
Ġsevent y
Ġsubordin ate
Ġartif acts
Ġprolong ed
r ano
v ara
È Ļ
Ġp ater
Ġj ain
Ġsy ll
Ġdem ons
Ġty ing
Ġcy ber
Ġhy de
ape ake
Ġide ology
Ġ183 9
Ġkh rush
Ġupd ate
Ġcros by
Ġprosper ity
e a
Ġd Ã©
Ġst akes
aw i
Ġsy rac
Ġorgan izing
Ġident ifying
Ġbank ing
Ġcongress man
Ġhein rich
Ġpersec ution
Ġres ume
Ġcons oles
Ġloc ks
Ġob jections
Ġmemb rane
Ġbur den
Ġbed e
Ġhaw ks
Ġfel ix
Ġenzy mes
l ore
u pp
Ġcon rad
Ġdec ent
ane y
Ġown s
Ġcapt ains
Ġprop on
Ġcand y
ãĥ ³
Ġcad et
Ġbombard ed
Ġvoy ager
Ġfus elage
Ġtrem end
Ġdian e
Ġtrin idad
p arts
Ġw emb
st ep
Ġk au
Ġne u
Ġmar ina
Ġind o
Ġunder c
Ġprof itable
Ġfirm ly
Ġeru pted
Ġlux ury
Ġloos ely
Ġunnecess ary
Ġh ag
ou k
Ġwe y
ib les
Ġsec rets
Ġem inem
Ġset h
Ġenc ir
Ġliber als
Ġcorrect ly
Ġabb as
Ġprompt ly
l ike
m ph
Ê »
on gh
Ġne b
Ġab ortion
Ġint ensive
Ġprogram mes
Ġ46 0
Ġsin clair
Ġintegr ity
Ġguerr ero
Ġwander ers
Ġkhrush chev
Ġd l
Ġn ave
Ġe k
Ġe tym
Ġpress ures
Ġhapp ening
Ġwy oming
Ġ à¤
Ġs urn
Ġc us
Ġk art
Ġv ass
Ġex otic
Ġle ased
Ġcare ful
Ġsurge on
Ġank le
Ġd itch
Ġinfl ation
Ġpot assium
don nell
Ġgrav itational
Ġabb ot
Ġfert il
Ġemotion ally
Ġmarath on
Ġapoc aly
gh ai
Ġimp ed
Ġtrans mitted
Ġhum orous
Ġsat ire
Ġdir t
Ġkann ada
Ġcomp elling
be ck
Ġcult ivated
Ġlog ic
Ġconsc ience
Ġcamoufl age
Ġhyph ae
Ġsyrac use
ter ing
Ġen vision
Ġmo ff
Ġsol ic
Ġsun set
Ġsurv ives
Ġnurs ing
Ġandre a
Ġincumb ent
Ġt ant
is y
ir k
Ġj ut
ath a
Ġmat ilda
Ġfun nel
Ġbal anced
Ġsett ling
Ġcurt ain
ĠÏ Ģ
Ġdispers ed
Ġstup id
Ġork ney
Ġherzeg ovina
Ġwemb ley
Ġb ates
Ġm w
Ġv id
Ġexp ired
Ġcr im
atter ing
Ġpra ir
lo o
Ġham pered
Ġsyn ag
Ġcert ification
Ġches apeake
Ġshif ts
Ġbrut al
r aged
v ia
Ġt rent
Ġl umber
ol ar
Ġr im
Ġj ill
Ġro x
Ġfl att
Ġcor rupt
Ġrefer enced
Ġtu ber
Ġabd ul
Ġbesie ged
Ġt apes
Ġp its
Ġg ong
oc ar
Ġtr agic
Ġsc rew
Ġdown stream
Ġdomin ion
Ġwa ited
Ġcart oons
Ġpick ing
Ġlibr aries
Ġmamm al
Ġt uls
Ġb ung
ent e
Ġad vers
Ġout post
Ġinc ur
Ġinc ap
Ġarm ist
Ġmaj esty
Ġbreak away
Ġ183 5
Ġom n
Ġinnoc ence
Ġweigh ing
Ġduch y
Ġbritt any
Ġkrust y
Ġs f
Ġg rie
ab we
Ġar ches
Ġout flow
Ġchar itable
Ġcr ushed
Ġdiffer ently
Ġwood y
Ġven et
Ġris ks
Ġpin ned
Ġretreat ing
Ġwol ves
Ġprecurs or
Ġpsyched elic
ic ol
Ġsh adows
Ġmar ion
Ġdes k
Ġlat itude
Ġcompos ite
Ġsas kat
Ġdiction ary
Ġs cl
Ġp d
Ġm oll
as is
ag her
Ġshe er
Ġ30 5
Ġspan ning
Ġstrateg ies
Ġexpedition ary
Ġaccur ately
Ġrecru its
Ġattract ions
Ġobv iously
Ġm ates
Ġcl ips
Ġno ir
Ġchrist ina
Ġprote ctor
Ġmart y
Ġhost ilities
Ġconfeder ation
Ġpitch fork
Ġundert aker
Ġdim ension
Ġmini ature
Ġobst acles
Ġisot ope
Ġleip zig
Ġc odes
Ġre acted
est e
ue z
Ġang ered
Ġmo ons
Ġhun ger
Ġtom atoes
Ġconstit uted
Ġcer am
Ġmagn us
Ġhip per
Ġrand olph
Ġdepos ited
Ġecho ed
Ġparad ise
Ġvern on
Ġfisc al
b ands
im i
Ġch au
un ct
ign e
ric ks
Ġpa ired
Ġmad ras
Ġru in
Ġott omans
Ġvac ation
Ġcoinc ided
Ġreleg ation
Ġhutch inson
Ġstrick en
Ġconcurren cy
Ġc ripp
Ġp iers
Ġsh annon
Ġcomm ence
Ġimp acts
Ġdist ress
Ġbook er
Ġmag gie
Ġentire ty
Ġble eding
Ġn p
iv o
Ġsl aughter
Ġcirc ulated
Ġ179 9
Ġdiff ered
Ġsuspect s
Ġgalv eston
at os
00 0
Ġno on
Ġgun fire
Ġnin ja
Ġzimb abwe
s ay
Å Ł
Ġh orm
Ġj ma
Ġpl ag
Ġins ane
Ġir rit
Ġrepl ica
onom ic
Ġpract ition
Ġpip eline
Ġaber de
Ñ ģ
Ġsc an
Ġcar b
ck in
Ġant o
Ġwall ed
Ġjew el
Ġmand atory
Ġshan ghai
Ġf ri
Ġp Ã©
Ġp uck
Ġy oga
Ġhun gar
Ġinform al
Ġ183 8
Ġspl its
Ġspecific ations
Ġbelong s
Ġrender ing
Ġcomplic ations
Ã° r
t les
Ġsub str
Ġins erted
Ġpost season
Ġexper ien
Ġsent ences
Ġrob ust
Ġdiscuss es
Ġtas mania
och ond
Ġfolk lore
Ġmetall ic
Ġcounteratt ack
Ġunbeat en
ic le
Ġn wa
Ġab yss
Ġbr ave
Ġsub du
ah u
Ġtechn ically
Ġnovel ist
Ġdownlo ads
Ġcoff in
Ġastronom ers
occ up
Ġdatab ase
Ġbaro que
Ġcourty ard
1 3
Ġt z
in ished
en za
Ġl ak
Ġhe aling
Ġex eter
Ġlab elled
Ġscre am
Ġmut iny
Ġclar kson
Ġteach ings
Ġeval uation
6 0
al an
Ġre appe
Ġst ained
Ġwest on
Ġpat ches
Ġgood man
Ġprotest ed
Ġcob b
4 0
c ill
le x
Ġst ack
Ġbe aver
Ġde e
Ġar th
Ġmar in
Ġbay ern
Ġmission aries
Ġ182 9
ux e
Ġinsur g
enh agen
Ġgentle man
Ġsuspic ion
Ġkem p
Ġh airs
Ġg anes
Ġr bi
Ġse w
Ġtechn ological
Ġmind s
hr er
Ġexcell ence
Ġamal gam
Ġexperien cing
Ġal ike
Ġk ant
Ġsl ug
Ġtre nds
Ġdoc ks
Ġwebs ites
Ġansw ers
Ġd it
Ġan zac
op ot
ud ing
Ġins cribed
Ġweb b
Ġattract ing
Ġhoriz on
Ġexceed ing
Ġverte bra
Ġware house
chw ader
Ġiph one
ic he
Ġr ican
Ġun av
Ġpre hist
ens en
Ġcar son
Ġcour thouse
Ġbre tt
Ġaugust ine
Ġtot als
let te
Ġtre vor
Ġvi j
ograph ies
Ġcock pit
Ġredevelop ment
Ġdigit ally
Ġb ie
ou b
Ġk ry
Ġup stream
Ġatt itudes
Ġdavid son
Ġfa una
Ġmarket ed
Ġairport s
Ġreign ing
Ġcontinu ity
Ġthorough ly
gam er
Ġansw ered
pow der
Ġc is
Ġin ception
Ġm ould
Ġl oun
Ġhe w
Ġmar ian
Ġdis par
Ġno ct
Ġbas ically
Ġstri ps
Ġadminist rator
Ġjul ius
Ġintention ally
Ġukrain e
Ġretros pective
Ġrehabil itation
Ġst alk
Ġy uc
Ġfe y
Ġfound ers
Ġcontin ually
Ġsix teenth
Ġgun powder
Ġcouncil s
stone craft
Ġbowl ers
Ġconve x
Ġexpect ing
Ġczech osl
Ġparas ites
Ġwoll stonecraft
1 8
r ice
Î µ
Ġre jection
Ġbe ech
ul d
cl ed
Ġmore no
Ġbroad side
Ġsurf aced
Ġfail ures
Ġdefin itive
Ġnaz is
Ġprest ige
Ġh pa
Ġle ak
Ġ20 5
ater al
ins ki
Ġra iding
Ġsal ford
Ġinvest ments
Ġ41 0
Ġ48 0
Ġbarr age
Ġvig il
Ġmant le
Ġfing ers
Ġunrel ated
Ġvect or
p us
ad ian
Ġde ities
ast rous
Ġdis astrous
Ġpre tend
ph is
Ġpres idents
Ġrev is
Ġhel met
Ġdel uxe
Ġlg bt
Ġplas ma
Ġvishn u
at ics
Ġhe ss
us ions
Ġsh o
Ġsh Åį
Ġle h
Ġad oles
Ġam ids
Ġout rage
Ġvis ually
Ġrang er
agn etic
er ie
Ġst ressed
Ġbl ur
Ġsl ed
Ġgrant ing
Ġtax i
Ġ184 2
Ġens ued
Ġ183 1
Ġunf inished
Ġmist akes
Ġexcav ated
Ġmetab ol
Ġepiscop al
Ġsacr ament
Ġis h
Ġdis hes
Ġwar b
Ġameric as
gr at
Ġcoun cill
Ġmargin al
Ġeug en
Ġpian ist
Ġdispos al
ã Ģ
Ġin herent
Ġh abs
Ġstr ongh
Ġreform ation
Ġandrew s
Ġreconst ructed
Ġth ief
Ġnot tingham
Ġbr as
Ġvis c
Ġlim iting
Ġcult iv
Ġexam ine
Ġmist ress
Ġadvis ories
Ġwire less
Ġamids hips
n ance
iv ia
Ġfl int
Ġinst antly
Ġdiv erg
Ġconstru cting
Ġcop enhagen
lo ok
Ġbomb ay
Ġsab b
Ġnik ol
Ġmetall ica
Ġdisappoint ing
Ġbicy cle
on ne
Ġnot orious
Ġim min
Ġnorth umberland
Ġche ek
Ġinfl amm
ett i
Ġheav iest
Ġemerg ence
Ġmaster piece
Ġ180 1
Ġlam bert
Ġbapt ism
Ġsymp athy
Ġcret aceous
a a
ok en
Ġbl ades
Ġprob able
Ġdom est
Ġtemper ate
osh i
f inger
ar in
Ġgr ades
Ġpriv y
Ġbul ld
Ġ184 3
Ġens uring
Ġbon o
Ġchor al
Ġc i
or th
Ġout n
Ġpre season
ib ald
ĠÂ ½
Ġcit adel
Ġtall est
Ġarchae ology
Ġsurve ill
Ġth y
id an
Ġy a
ough ts
Ġgr ind
Ġed it
lo ad
field s
Ġindic ation
Ġescort ing
Ġsevent eenth
Ġcliff s
Ġoverlo oking
Ġunexpected ly
Ġh v
il iation
cc i
Ġbu chan
Ġopp ose
Ġsuper b
Ġwil f
Ġsac rific
Ġcorre l
Ġcustom er
Ġprofession als
Ġ ãĢ
Ġc ull
Ġm um
ul i
Ġrem atch
oy a
Ġcult ivation
Ġder ives
Ġb oring
Ġsm ugg
Ġriver a
Ġcritic izing
Ġage nda
Ġren umbering
Ġweak er
ding ton
Ġ181 5
Ġid aho
Ġjuven iles
Ġspokes man
Ġd m
Ġto k
ast ically
Ġbl unt
Ġcent s
Ġwill ow
Ġdepart ing
Ġmodel ed
Ġquestion ing
Ġprin z
p m
Ġre be
Ġfir ms
Ġexpl oded
Ġgentle men
Ġtrunk line
Ġsod ium
Ġwinn ipe
k ie
u ard
le ased
Ġcl aren
Ġco ined
ne ill
Ġfut ur
Ġamb ush
Ġinterse cting
Ġcorp se
Ġautonom ous
Ġsurveill ance
n ar
Ġo mitted
st idia
Ġen light
Ġout sk
Ġep onymous
Ġcat ching
Ġpu ff
Ġmit ochond
Ġremix ed
Ġpir ate
Ġnom en
Ġconsult ing
Ġisab ella
Ġminer als
Ġsophom ore
u en
w au
Ġt empt
Ġw age
Ġd ucks
Ġg ad
el ly
orm an
Ġinv inc
ps y
Ġhand ic
Ġdu pl
Ġident ifies
Ġsat an
bor g
Ã¡ s
Ġren ted
Ġp hel
Ġd us
Ġn os
Ġse ap
ag ements
Ġfin anced
Ġdisc arded
Ġref urb
Ġmark ings
Ġindivid ually
Ġstra its
Ġj or
Ġcar m
Ġno el
Ġsl oven
Ġroll ed
Ġta ft
Ġinterpret ations
Ġvlad imir
Ġpresbyter ian
Ġgeorget own
b ons
Ã Ł
Ġa if
Ġpar agu
ues day
Ġ23 5
Ġsuff rage
Ġmiddle ton
Ġrepr ise
Ġinex per
Ġrepet itive
Ġinfin ite
Ġc airo
Ġgovernment al
Ġexplos ives
Ġpig eon
Ġdeliber ate
Ġoutsk irts
c ule
Ġn er
am orph
Ġrel ate
Ġgood bye
Ġmic key
Ġbene ficial
Ġenjoy able
Ġ85 0
Ġdart mouth
Ġcunning ham
Ġt ips
Ġb aja
Ġd os
id ays
Ġj umped
Ġro gue
urn al
Ġbu g
Ġfle eing
Ġord nance
Ġmathem atic
Ġcoordin ated
Ġretrie ve
Ġnico le
Ġoverth row
d r
h oe
Ġt uesday
Ġb ols
at l
Ġp iv
Ġsu ck
Ġkill ings
Ġer in
Ġdu el
Ġprot r
Ġcool ing
Ġtow ed
Ġlev ine
Ġtr unc
Ġtim eline
Ġhim m
Ġeng agements
Ġloc ke
Ġsex es
Ġunc overed
Ġsuperior ity
Ġcolumn ist
Ġaggress ion
Ġglac iers
p ace
r ors
Ġche v
Ġfre eman
Ġhapp iness
Ġexc it
Ġdefend ant
Ġshif ting
Ġfitz ger
Ġcorp us
Ġhed ge
Î »
ch am
av ier
Ġsp erm
Ġru ff
ĠÃ ¶
Ġ180 9
Ġrand all
Ġupgr ades
Ġleaf s
Ġdreadn oughts
Ġcylind rical
Ġwinnipe g
Ġw ig
Ġb ite
ro b
Ġi o
Ġoff s
Ġlik ened
Ġ179 4
Ġdemonstr ations
Ġintercept ion
Ġalg or
Ġpsychiat ric
qu est
Ġex iled
rit ion
Ġapp lying
Ġappe aling
Ġaut onomy
Ġdam s
Ġ38 0
Ġfrust ration
Ġd rought
Ġst ain
pp en
ish a
Ġus af
Ġnumber ing
Ġgerman ic
Ġdest ructive
Ġcoll ided
Ġpersonal ities
Ġenl ist
Ġn k
Ġn ull
Ġst anton
Ġmon ten
Ġdep ressed
Ġtom bs
Ġcou ples
Ġpenn y
Ġdoub ts
Ġmatthew s
Ġchrom os
Ġfitzger ald
g ame
Ġv ault
Ġres isted
ach y
Ġrep uls
Ġback l
Ġbar ometric
ann ers
Ġmal aria
Ġscr ut
Ġalexand ra
Ġoxid ation
Ġimmin ent
i ago
Ġp es
Ġp emb
Ġd umb
if fer
Ġinter fer
Ġform id
Ġem in
Ġteam ed
Ġbar ker
Ġchrist ine
Ġaud itor
Ġfif teenth
Ġcat ast
Ġmem phis
Ġrap ids
Ġtarget ing
Ġ179 8
Ġresemb led
Ġkidn apped
f unction
Ġw ad
or row
Ġdist ract
Ġcoll ar
Ġsun sh
ĠfranÃ§ ois
x es
Ġt ah
Ġj ol
Ġgre eted
omb at
Ġtun es
Ġgib bs
Ġmaria h
Ġaudition ed
Ġk any
Ġcl over
Ġ20 3
Ġbar ack
Ġlen in
Ġuncom fort
Ġfacil itate
Ġmagnific ent
Ġhabs burg
Ġst ems
Ġcan ning
Ġinfl ict
Ġsuper vised
Ġlif es
mark et
Ġflu ct
Ġaffili ate
Ġflex ible
Ġhass ett
Ġineff ective
i em
Ġl akers
Ġst ole
Ġhar ald
Ġjust ices
ĠÎ ±
Ġcornwall is
Ġbism arck
Ġremaster ed
Ġembed ded
w yn
Ġm ash
ap y
Ġi os
Ġeurope ans
Ġequ ity
Ġvac u
Ġalleg iance
Ġdisord ers
Ġobsc ure
c ip
Ġc ake
Ġm orm
Ġsh ake
Ġpart ition
ne g
ind a
Ġinc ent
Ġinv is
Ġbi ke
bour g
Ġacqu iring
Ġlot us
Ġum bre
Ġchocol ate
1 4
s m
es co
ak ov
Ġam ster
ond heim
Ġover c
Ġdo om
Ġposs ibilities
Ġlet hal
Ġhuman itarian
clus ive
Ġdomin ate
Ġtouch ing
Ġbol t
Ġalter ations
Ġyield ed
Ġspart an
Ġpreval ent
Ġt ails
Ġv ett
Ġver mont
ĠÂ ²
sh aw
Ġmad ness
Ġsn akes
Ġess ence
Ġcorrespond ent
Ġclaren ce
Ġs ard
Ġm b
Ġn ude
Ġst alled
Ġrec y
Ġsub gen
Ġob sole
ĠÂ ±
Ġbat ista
Ġdisplay ing
Ġexpress es
Ġstrip es
Ġmim ic
Ġon o
Ġhe ather
Ġunder going
Ġalb ania
Ġgu ides
Ġdem ise
Ġnight mare
Ġviol ated
Ġs ally
Ġstr ained
Ġhold ings
Ġtar iff
Ġrelig ions
Ġfinanc ing
Ġproblem atic
Ġcant on
Ġsalv ador
Ġcinemat ography
w i
ar th
Ġd ried
st age
Ġst aging
Ġman it
Ġapp ar
Ġpop mat
Ġlight ly
Ġ22 5
Ġthom son
Ġgreen land
Ġmcc le
Ġsyn ch
Ġ181 4
Ġ181 9
Ġadj o
Ġaffect s
Ġwals h
Ġplent y
Ġhep burn
Ġcuis ine
Ġcrim son
wau kee
Ġpopmat ters
Ġl ips
Ġre work
Ġk ron
Ġch asing
and ra
Ġcl ients
Ġdis organ
ism atic
Ġcontrib utor
Ġface book
Ġbun ker
Ġanticip ation
Ġpengu ins
Ġcly de
Ġbols he
Ġobsole te
Ġj ub
Ġne ville
Ġcol t
Ġout line
Ġme al
Ġinter changes
Ġass erts
Ġgroup ed
Ġel vis
Ġever gl
Ġview ership
Ġtrib un
Ġdefend ants
Ġintens ify
Ġeurop a
Ġb ax
al g
Ġback s
Ġback wards
Ġmill imeters
Ġcre m
Ġmod ification
Ġra o
ming ton
Ġbry ant
Ġtru ce
Ġchord s
Ġenerget ic
w y
Ġ ç
ad vant
ill as
Ġcons ulted
Ġunder way
Ġfootball er
Ġmart yr
Ġshir ley
haw k
is ely
Ġdis advant
Ġme gal
Ġcent red
Ġprov oked
Ġbar ric
Ġold ham
Ġelect rom
Ġill usion
Ġspin ning
Ġble w
hard t
Ġhab its
Ġenvision ed
Ġevergl ades
Ġc oke
Ġshow case
Ġins ert
Ġgl orious
Ġgold man
Ġsan ction
Ġden ounced
Ġrac ism
Ġhero ine
Ġ179 3
Ġcriticism s
Ġmunicipal ities
Ġdischar ged
Ġaberde en
Ġyuc at
Ġamster dam
Ġb rent
Ġd ing
Ġne ur
ob e
app ers
Ġanim ators
Ġmac l
Ġculmin ating
Ġinherit ance
Ġt att
ers ed
Ġy ah
Ġcl ap
Ġcl aus
Ġwe in
Ġbel ly
Ġtem p
Ġvol ley
Ġvi able
Ġfather s
Ġpun ish
Ġcart man
Ġdecor ations
Ġconfirm ation
Ġdevot ion
Ġhomosexual ity
Ġtaun ton
i ya
Ġf oli
Ġâ Ĩ
Ġbr uss
Ġpol o
Ġz ach
Ġmid st
Ġnh c
Ġh uff
Ġsu its
Ġfe as
Ġrel oc
Ġgu ess
Ġmet s
Ġcost ly
Ġa pe
Ġb ould
Ġl um
Ġen act
Ġbr aves
Ġtun is
Ġelimin ating
Ġgalax ies
Ġrer out
Ġo kin
Ġto sh
Ġy uk
ant i
Ġad s
Ġcont amin
ins ky
Ġcommun ism
Ġground ed
Ġbra un
Ġenter p
ij uana
Ġrot ating
Ġta vern
Ġkick off
imet re
Ġ ~
nd on
ers e
ok i
Ġwar ming
Ġcampaign ing
Ġspan iel
Ġsurround ings
Ġ181 0
Ġlic ence
Ġrum ble
Ġrehears als
Ġreper to
Ġl Ã©
le igh
Ġr ita
Ġv hs
Ġpl ank
Ġam us
Ġco ordination
Ġconst raints
Ġcr ab
Ġsk ating
Ġref use
Ġve in
Ġwal ton
Ġrod gers
Ġimpl ied
Ġspons or
Ġbos nian
Ġguid elines
Ġnig el
Ġpegg y
b ral
et e
Ġtrans f
Ġhom icide
Ġprot agonists
Ġgill ian
Ġnap les
Ġanx iety
Ġambul ance
Ġp ension
Ġn ir
Ġun se
ost ic
Ġi oc
its u
Ġsus cept
Ġchic ks
Ġbuff y
Ġironcl ad
p ole
Ġc w
Ġd well
id as
Ġcon grat
Ġsh ores
Ġmon opoly
Ġz u
Ġins ign
Ġstation ary
Ġtom orrow
Ġtreat ies
Ġul tra
ii i
Ġcrimin als
Ġvel vet
Ġern st
Ġjagu ar
Ġmoff at
Ġhimm ler
Ġt res
at ile
Ġm Ã©
Ġe bert
ut a
ch us
Ġnot re
Ġsp elling
ond er
Ġprev ention
Ġbre st
Ġx v
Ġdet ention
Ġgod win
Ġjud ici
Ġjenn y
Ġcrus aders
Ġwis dom
Ġrebe cca
f u
Ġp icks
il ib
Ġfil ip
Ġstand ings
Ġillust ration
Ġcooper ative
Ġlind say
anth a
Ġbureau cr
Ġcomed ic
Ġrehears al
Ġmarl borough
Ġtribut ary
Ġkeyn es
Ġgenev a
c ourt
Ġm ound
Ġre int
ch amp
Ġup held
Ġev an
Ġcan e
Ġter ra
Ġsl im
Ġbreak fast
Ġmas cot
Ġcelebr ating
Ġ177 5
Ġaim ing
Ġbrun o
Ġfulf ill
Ġhumph rey
l ass
v ana
Ġthe sis
qu el
ke f
Ġow l
Ġgust av
Ġdick inson
angel o
Ġreward ed
Ġtitan ic
ĠÎ¼ m
Ġcelest ial
Ġtud or
Ġb land
Ġch rys
Ġpro clamation
Ġhun ted
Ġbreed ers
Ġmind ed
Ġgate way
Ġtremend ous
Ġformid able
m ium
ar ius
Ġst aun
Ġit v
ri o
Ġsh am
ok u
Ġ15 00
Ġcommand o
Ġtop s
Ġnight cl
Ġvo id
Ġsar awak
Ġmand ate
Ġoliv ier
Ġvolunt ary
Ġn ails
ir able
ag asy
qu it
Ġmar se
Ġz en
Ġstr anger
Ġfort unes
Ġcommission ing
Ġ179 2
Ġmos es
Ġspect ral
Ġwel ding
Ġsculpt or
Ġsight ed
Ġvib e
Ġredes igned
Ġbruss els
Ġh ots
Ġl act
Ġv ie
ass ment
Ġhold er
Ġtreat ments
Ġwil kinson
Ġemploy ing
Ġrever end
Ġassum ption
Ġetym ology
Ġo urs
Ġh ul
Ġe go
Ġwor ry
Ġma z
Ġsing ular
Ġcy t
Ġequ ation
app ropri
Ġclim bs
Ġprogress es
Ġfeed s
Ġori ental
Ġspons orship
Ġfern ando
Ġjohann es
p he
Ġthe ological
Ġc f
Ġh ulk
Ġth res
Ġcon gestion
Ġj ug
od er
Ġsp ells
Ġmil ky
Ġmil waukee
Ġcor v
Ġappoint ments
Ġwheel chair
Ġvolcan oes
Ġfare well
Ġborne o
Ġcricke ter
Ġarmist ice
Ġw agon
Ġc umberland
Ġp act
Ġn r
Ġne c
Ġso ils
Ġlater al
Ġever ett
Ġrest ing
que z
Ġplant ations
Ġocean ic
Ã¸ r
Ġrome o
Ġprol ific
Ġt ae
on n
Ġin acc
ag ua
ans en
Ġinde fin
Ġmal agasy
Ġresist ant
Ġdisagre ement
Ġairpl ane
Ġinacc ur
f an
Ġadd iction
Ġrest oring
Ġarg u
Ġcomment ator
Ġwid ened
Ġrend ez
Ġpeas ant
Ġdisappear ance
Ġs is
Ġw anna
Ġp anc
Ġfor aging
Ġun changed
Ġpers ist
Ġshort ages
Ġche f
Ġdest inations
Ġsal on
Ġsam ar
ĠÃ ³
Ġsav oy
Ġsant iago
Ġprel ude
Ġphenom ena
Ġsunsh ine
Ġw enger
Ġmar co
Ġend uring
Ġdiv erted
Ġany way
ody nam
Ġtrad ers
Ġinterv ene
Ġscript ed
Ġtraff icking
Ġron nie
Ġsalv ation
Ġmorph ology
Ġbotan ical
Ġshank ar
2 5
Ġp iz
Ġl ana
st aff
Ġwh ig
og le
Ġfact o
Ġsand wich
Ġfresh water
Ġredesign ated
Ġb enson
Ġse af
Ġcl ade
Ġtim othy
Ġcol ts
Ġem ission
Ġalb anian
Ġpay ne
Ġchap lin
Ġow ed
Ġmalays ian
Ġoverl ord
Ġsupplement ed
Ġclif ton
w en
w al
or able
Ġre el
Ġr het
ber ht
Ġwe aver
Ġmin aj
Ġrel ates
Ġinc ub
Ġmat s
Ġje op
Ġgeor ges
Ġmot iv
Ġesc aping
Ġstrike outs
anth rop
Ġhi ros
Ġchop ra
Ġparalymp ics
Ġwolver ines
inte gr
it ution
ar c
Ġk ash
ist ani
ab ul
Ġfin ed
Ġconf ession
Ġir anian
Ġdav en
Ġtal ents
Ġip ad
Ġump ire
Ġb ian
Ġne on
Ġall ison
Ġchar ming
Ġgame c
Ġlast s
Ġgrad uates
Ġ182 5
Ġfix ture
Ġcrom well
Ġaval anche
e ur
Ġl ump
Ġland marks
any a
Ġfre ak
Ġevery where
Ġhit ter
Ġ182 4
Ġpig s
Ġske pt
Ġscholar ly
Ġfow ler
Ġazerbai jan
Ġinfra red
Ġreperto ire
Ġ ions
Ġl und
Ġn ons
Ġn mi
le af
igh ters
ass es
Ġtown send
Ġ21 5
Ġ178 9
Ġchemical s
Ġexplo it
Ġnass er
Ġquart et
g il
w es
Ġin und
ar ity
Ġn od
Ġn oun
il ated
Ġth ie
ath am
Ġrel i
Ġprov ing
Ġnar c
Ġmcc oy
Ġbid en
Ġclay ton
Ġsej m
Ġumbre lla
Ġ é
st ones
Ġnew com
Ġi rene
Ġredu ces
Ġemploy er
Ġreserv ation
Ġpak istani
Ġcamb odia
Ġbiz arre
enz ie
Ġcasem ates
b ins
g iving
Ġh iring
Ġex its
az e
uss y
Ġgar bage
Ġneg atively
Ġ180 4
Ġ179 5
Ġconsum ers
Ġlion el
Ġprospect s
Ġory z
s son
Ġc in
Ġde ception
pl us
Ġdiffer ing
Ġdev i
Ġaltern ating
Ġcommemor ative
Ġdors et
g roup
at ro
it ian
Ġm uk
Ġto il
ut nant
et us
pl ant
ba um
Ġdiss ol
Ġdeleg ate
Ġphill ip
Ġturb ine
Ġoblig ed
Ġuncomfort able
Ġrendez vous
Ġdaven port
it ivity
Ġe ul
Ġg ol
Ġu tt
Ġr ift
Ġk ah
th or
Ġcase y
Ġsand ers
Ġcolor ation
Ġsell ers
Ġfro gs
Ġexagger ated
r at
Ġ urs
es i
Ġen ric
Ġrel inqu
na i
Ġdisc s
Ġhom eland
Ġprem ium
Ġconcert o
Ġ182 1
Ġpip es
Ġp est
Ġal ma
Ġmar riages
Ġcomm issions
Ġtreat ing
Ġmeasure ment
Ġmonaster ies
haw ks
Ġjudici ary
Ġal um
od ing
Ġmon itors
Ġconc ession
het amine
Ġtrain er
Ġ34 0
Ġperf ection
Ġrab bi
Ġsatisf ying
Ġah mad
Ġkilog ram
Ġingred ients
ar ians
ad en
ly wood
Ġwh olly
Ġk ombat
Ġall ot
Ġhel ena
ob ic
ev iÄĩ
Ġundert ake
f ielder
Ġp istol
is k
if iers
ber n
Ġen forced
Ġ20 6
Ġz ack
Ġcal d
Ġrh in
Ġ183 3
ij a
Ġconte nder
Ġcolomb ia
Ġsaff ir
Ġand ri
Ġl oren
Ġover head
Ġbro oke
Ġprem ises
Ġcommercial s
Ġnatural ist
Ġethan ol
Ġt ate
Ġc ory
Ġf ence
om ac
Ġse ct
Ġcar ne
eng th
Ġten or
Ġlet ting
Ġsand s
Ġconclud e
Ġ179 7
Ġcompens ate
Ġfold ed
Ġhungar ians
f oot
Ġd ove
Ġle p
Ġher d
Ġmon keys
Ġexpl ores
Ġwil mington
Ġphot ographed
Ġgro ening
Ġven er
Ġeth n
Ġbrad y
Ġ178 0
Ġdock yard
Ġunre leased
Ġaccomplish ments
Ġacadem ics
Ġeuras ian
u j
v ol
Ġty res
Ġale c
Ġinvestig ators
Ġveget ables
Ġplut o
Ġgriff ith
Ġsear ched
Ġsurprising ly
ĠâĨ Ĵ
r ÃŃ
y ards
Ġch it
ia e
Ġret ains
Ġgl aston
Ġdiscover ies
Ġ180 5
Ġ180 6
Ġded u
Ġexcav ation
Ġunanim ously
Ġsynag ogue
Ġw avel
en b
es ome
Ġcon an
Ġv ale
Ġreg ency
Ġcharacter ization
Ġmid fielder
Ġang ular
ple as
Ġign or
Ġprec ision
Ġsteam er
Ġhaz el
Ġtribut aries
Ġfratern ity
i Ã³n
Ġr ans
Ġpr att
ail able
Ġmal vern
Ġnomin al
Ġimprov ised
Ġoverlo oked
Ġeleph ants
Ġvick ers
Ġinver te
Ġbik ini
Ġmoz amb
Ġoverha ul
Ġb rib
Ġm og
Ġn j
Ġpr ague
Ġfr amed
Ġfore ns
Ġros es
Ġheadquar tered
Ġrub y
Ġvic ar
Ġglac ial
Ġelong ated
Ġmaurit ius
Ġc ors
Ġh ib
ang o
Ġapp la
Ġgu in
Ġger m
af i
Ġdecre asing
Ġalph abet
Ġnad u
Ġcarn ival
b ase
Ġin ject
Ġst ub
ist on
oc o
Ġam mon
ob il
Ġpress ing
yn t
Ġboard ed
Ġneigh bors
Ġhan over
Ġfisher men
Ġleop ard
Ġf ay
it ting
ut z
Ġsp ine
Ġpat terson
Ġpri zes
Ġcharl eston
har mon
Ġvolunte ered
Ġstevens on
Ġhog an
Ġunanim ous
c ell
er un
oc ative
Ġpass ive
Ġer lew
Ġvarious ly
ox ide
Ġprec isely
Ġdoll s
Ġmit ch
Ġtra uma
Ġax e
Ġtoler ance
Ġconven ed
Ġargu ably
Ġerlew ine
ol and
Ġad en
Ġmus s
Ġsm ile
Ġadv iser
Ġarch ie
less ness
Ġpok er
Ġoverwhel med
Ġundef e
Ġglaston bury
Ġt rom
Ġto ul
Ġl ys
Ġn ab
Ġsc rib
Ġout right
Ġfin ances
Ġprodu ctive
Ġz an
Ġra ided
Ġequ ilib
Ġcatholic ism
Ġflash back
Ġalam os
Ġhydra ul
Ġenterp rises
Ġwavel ength
Ġundefe ated
al ach
ur ated
em ann
Ġar j
Ġres ent
Ġco y
Ġbo one
Ġma o
Ġdec ks
Ġexp orts
Ġinf ections
Ġjun ta
Ġref ined
Ġprop elled
Ġcompet itor
Ġpot omac
Ġsoph ia
Ġrhythm ic
Ġblond e
Ġ ^
Ġh bo
Ġam ir
Ġsm ell
Ġpost ers
Ġ300 0
Ġbol lywood
Ġpale ont
Ġautobi ographical
Ġreluct antly
Ġhond uras
re illy
Ġw augh
Ġn ell
Ġhe red
Ġal ger
Ġv ain
th on
Ġtw isted
Ġbl uff
Ġcolle ctors
Ġsuff olk
Ġsn ap
Ġbon nie
Ġclin ic
Ġdecor ative
Ġinnov ations
Ġrodrig uez
1 7
Ġd ix
od ont
Ġi z
Ġbl itz
Ġwar n
gr ass
Ġbre ckin
Ġ29 0
Ġsepar ating
Ġscreen writer
Ġsoundtrack s
Ġpip er
Ġtack les
Ġkany e
Ġb ly
ch urch
Ġk ell
all i
ab y
Ġqu ater
ll an
Ġinv ade
ett o
Ġprem ature
Ġreason ing
Ġsubst ances
Ġlic ensing
greg or
Ġcow ard
Ġvul can
Ġflo at
Ġramp s
Ġparalymp ic
Ġstoryt elling
Ġprair ie
w aters
is se
Ġk atherine
ard i
ich o
Ġar ter
pp ers
Ġfl air
Ġchar ging
Ġed dy
Ġmy a
Ġbay s
Ġmac farlane
Ġsche er
Ġhear ings
build ing
Ġfrit z
l ov
Ġst int
Ġgl ider
Ġsty led
Ġhy der
Ġ27 5
Ġnin ety
Ġmas cul
Ġpenn ant
Ġtal bot
Ġpin n
Ġprosec utor
Ġphr ases
Ġpron unciation
Ġnass au
Ġderiv ative
y ah
Ġad verse
Ġshe ets
Ġbr anded
ind y
Ġinf ring
Ġvill agers
Ġjournal ism
Ġcomplex es
Ġpack aging
Ġ61 0
Ġclean ing
Ġcoordin ator
nae us
Ġkyl ie
1 6
g io
Ġw ip
Ġm ps
Ġg in
Ġbe an
ial s
ib an
Ġcomb ines
Ġgi ov
Ġsplit ting
Ġtreas urer
Ġrig id
Ġt iles
ot he
Ġj as
Ġj umps
Ġar ise
ast ed
Ġbu cc
Ġsome how
Ġfur t
for ward
Ġclear ance
Ġaltern atively
Ġconfeder acy
Ġsynd icate
Ġrepr inted
eli hood
Ġp aus
Ġg lands
Ġla wn
Ġdeal er
Ġteen agers
Ġpreced ent
Ġcatch y
Ġwes sex
Ġjar rett
Ġtriang ular
Ġni agara
Ġairfield s
Ġchlor ide
2 4
g age
t el
Ġst ipe
Ġinter mitt
Ġent rep
Ġest e
pend ing
Ġber ger
Ġassist ing
Ġfisher ies
Ġexplo itation
Ġfilmm aker
Ġmour ning
Ġphel ps
Ġexcit ement
Ġvett el
b ling
Ġr amb
av i
ian ces
Ġep stein
Ġlo ft
Ġhal ft
over s
Ġcal ais
Ġbomb ed
Ġos wald
Ġlif elong
Ġcorpor ations
Ġpul p
Ġsurre al
Ġastronom er
Ġvolt age
k u
Ġb b
Ġp ud
ct ric
Ġal ign
Ġan te
Ġfl anks
Ġtun ed
Ã± o
Ġcogn itive
Ġw igan
Ġcr ude
port s
Ġide als
Ġjour n
Ġstret ching
Ġconvin ces
Ġsuspic ious
Ġdecomp ression
Ġcompat ible
n otes
t ures
il on
st ed
Ġdis integr
ne v
Ġend ured
Ġcast ell
Ġarch ive
Ġ183 4
Ġcrow ley
Ġvertebra e
Ġvacu um
g ren
he ed
Ġdis g
Ġfin ishes
amp ed
ident ified
Ġsystem atic
ves ter
Ġbed ford
Ġadvant ages
Ġster ling
Ġmanit oba
b eth
Ġt ally
Ġt ug
ar ios
Ġk ad
Ġk ip
Ġpro be
Ġver bal
ll er
Ġlim b
Ġunl ock
Ġnecess ity
Ġrespond ing
Ġtransl ations
Ġcapit als
Ġinvent ory
Ġstair case
Ġvaugh an
Ġmotorcy cle
Ġeclip se
r ar
Ġk aw
Ġk ara
Ġpl ural
Ġman ila
ok s
Ġdep osed
rop od
Ġke el
Ġgar ner
Ġpot tery
Ġhost age
Ġmic he
Ġris en
Ġkar nat
Ġtiss ues
roph ic
Ġseiz ure
Ġokin awa
Ġreint rodu
Ġquater mass
c ut
Ġs inc
Ġin k
Ġhe t
Ġse ctors
ap arte
Ġcons pic
Ġjust ify
Ġline age
Ġpred iction
Ġabs urd
Ġow ls
Ġfor c
id y
Ġap ology
Ġany body
Ġinterv als
Ġadvoc ates
Ġinvis ible
Ġl ur
Ġcan als
Ġbar rels
Ġever ton
Ġdet ained
Ġcat cher
Ġgar rett
Ġamb itions
Ġamb rose
Ġmir anda
Ġconver ting
Ġadj usted
Ġfellow ship
Ġ ida
Ġl ust
and ro
Ġover run
und a
oph on
Ġeth ical
Ġanalys es
Ġpier cing
Ġsynt hetic
Ġmott o
Ġroc kef
Ġn ina
el ope
ly ss
Ġu c
Ġas cent
Ġse ism
Ġch ased
Ġpl ague
Ġher man
Ġge ometry
Ġrest ed
Ġer ik
Ġauthor ised
Ġeconom ically
Ġphys icians
Ġze pp
Ġcrowd ed
Ġinterf ere
Ġsop rano
Ġsurn ame
Ġoutn umbered
Ġyucat Ã¡n
Ġjourn als
o ise
w it
Ġt ire
ow itz
Ġk ok
Ġar te
Ġgr is
enn es
Ġgar land
Ġmcc ay
Ġconnect or
Ġdepth s
Ġeman cip
Ġmotif s
Ġconfisc ated
le z
ad in
oc hem
Ġtr it
Ġcomp ares
Ġcont empt
Ġam en
Ġag round
Ġover ly
Ġbr am
Ġsch ne
Ġel k
Ġcanad ians
ae a
Ġtur bo
Ġexhib itions
Ġker ry
Ġancest ral
Ġrav ens
Ġrey es
Ġpix ar
Ġnost alg
p ical
Ġh m
Ġl ens
Ġdes cending
Ġpar a
Ġair stri
Ġwin ters
ik ovsky
Ġsk ys
Ġhere ford
ãĥ «
Ġ182 8
Ġextr av
Ġkit ty
Ġtoll s
Ġtheore m
Ġcosm ic
Ġinev itable
Ð ½
Ġm akers
Ġto by
ol le
Ġby e
her ical
un ion
Ġsh ame
Ġlist ened
Ġtot tenham
Ġobs essed
ma id
Ġ31 0
Ġprob ability
Ġamb ient
Ġoce ans
Ġbun ch
Ġbuddh ism
Ġhalft ime
Ġkarnat aka
Ġw rought
Ġand roid
il er
am ily
oc he
ong s
ie u
Ġaf l
Ġbut cher
Ġme gan
Ġaug mented
Ġtotal ing
Ġexec ute
Ġ74 7
Ġimpl ies
Ġsatir ical
abul ary
p ox
Ġin appropri
Ġst ays
Ġr ko
Ġplay wright
Ġbr ush
Ġcons ume
Ġbi as
Ġey ed
Ġregiment al
Ġapart ments
Ġexerc ised
Ġcod en
Ġpup il
Ġpassion ate
Ġnord ic
stad t
Ġnegle cted
Ġkub rick
Ġamus ement
j on
w ith
Ġp ens
Ġse mit
oc yt
Ġnot ices
Ġwhe don
Ġcomm od
Ġexp orted
ern er
Ġmot ivation
Ġfly nn
Ġadvance ment
Ġrow land
Ġcarl isle
con nor
Ġspont aneous
f i
m ere
t land
Ġb ount
el o
Ġag ing
Ġsou p
Ġbrit ten
Ġdem os
Ġmy stic
Ġaccess ed
Ġmess enger
Ġsupre m
Ġnich ol
Ġearn ings
Ġpatri ots
Ġpedest rian
Ġm ons
Ġh os
Ġsh rews
Ġam n
ph ones
Ġref res
ott a
Ġly on
Ġrequest ing
Ġwick ed
Ġ181 6
Ġhang ar
Ġquiet ly
Ġlibert ies
Ġmozamb ique
Ġp ry
Ġd res
Ġn ike
Ġby ron
Ġex ac
cl ing
Ġmy ers
Ġmid ship
Ġarr ange
Ġcur s
Ġlist ings
Ġbri ar
Ġgri ef
Ġdepos it
Ġsucceed ing
Ġmoroc co
Ġf ission
ir s
Ġr ory
ver y
Ġv atic
os o
Ġad orn
Ġam in
Ġinf ants
Ġq f
Ġadop ting
Ġexpress ions
Ġdrag ged
Ġrenov ated
Ġzh ang
Ġpneum onia
Ġbreckin ridge
3 2
Ġst ig
Ġv ind
Ġv iolet
Ġpe ck
Ġcons ul
Ġfle ets
Ġphil harmon
Ġrail s
Ġpal er
Ġemploy s
Ġ179 6
Ġaddress ing
Ġlith ium
Ġspart a
Ġdunge ons
Ġbuchan an
Ġpiv ot
b anks
c z
g one
al is
Ġk umar
Ġpl aster
are z
Ġap h
Ġste phan
Ġbar riers
Ġel iot
Ġred empt
Ġpain ters
Ġbon aparte
Ġcode x
Ġterror ism
Ġpeters on
Ġcontrad ict
Ġprivile ges
Ġexac erb
e i
r and
Ġm ab
Ġor ion
Ġma har
Ã¼ hrer
Ġtrail ing
Ġlev y
Ġaddress es
Ġdeput ies
Ġwreck ed
Ġrecruit ment
d t
h ore
ur ities
Ġar rows
Ġsp un
Ġbel fast
Ġfort un
Ġmount ing
Ġadvert ised
Ġabsor ption
Ġdunge on
Ġimmort al
f ried
Ġa cl
Ġc ic
Ġp ter
Ġmin h
Ġsa igon
Ġlow e
Ġphil anthrop
Ġsal em
aj i
Ġrow ed
Ġjur assic
Ġcole man
Ġguerr illa
Ġcinemat ographer
Ġrockef eller
c asters
l ian
Ġk od
em i
att a
Ġmon astic
Ġsupp ressed
Ġinst ability
Ġins ult
Ġline back
Ġcy p
Ġengine ered
Ġprocess ion
Ġcandid acy
po ints
Ġamend ments
Ġswit ching
Ġagree ing
Ġfulf illed
Ġgarc ia
Ġd ental
ong o
Ġdis reg
Ġco oke
Ġqu ote
Ġsever ity
int osh
Ġsl op
Ġext ensions
Ġinstit uted
Ġcab les
Ġincl ined
Ġsubpl ot
Ġrerout ed
Ġentrep rene
Ġw att
Ġab bre
ub le
Ġmar ijuana
Ġdis gr
Ġem erson
Ġhistor ies
Ġmer ge
Ġsil va
Ġcontest ants
Ġken ya
Ġeject ed
Ġvenge ance
Ġb ash
Ġfl aws
Ġwar mer
Ġreg ina
Ġsch war
lo e
Ġsil ly
Ġstan za
Ġod in
Ġamend ed
Ġnic ar
Ġnapole onic
Ġencyclop edia
d es
Ġm ug
Ġd ose
Ġex h
Ġ201 7
Ġim pending
Ġme als
Ġreg istry
Ġed en
Ġgl oria
Ġappro ve
Ġham mers
Ġsil icon
Ġprot ocol
Ġnation als
Ġ39 0
Ġsalv age
Ġpatri otic
Ġscl er
at on
en ne
Ġd red
Ġpe nding
ars ity
Ġger ry
Ġpaul ine
Ġol ga
Ġemb ark
Ġdism ay
Ġcharl ton
Ġsurvey ed
Ġbraw l
Ġpater nal
c ats
Ġa kin
Ġd amp
Ġd ahl
Ġr w
Ġcon e
Ġpl under
Ġab e
Ġdes erted
Ġinf amous
Ġdisc ography
Ġins ists
Ġvis ions
port ed
Ġstruct ured
Ġprec ious
zz i
Ġdra ught
Ġsav anna
Ġles ter
Ġdecre ases
Ġimpl ications
Ġrhyth ms
Ġsid ney
Ġexplo ited
Ġuncon v
Ġlud wig
Ġepit het
Ġridic ulous
Ġincons istent
Ġphysic ist
g au
Ġt ara
Ġo me
al m
ing o
Ġre lying
Ġk ou
Ġpar odies
hor st
Ġcomb inations
Ġelev ator
Ġbenef ited
Ġdub ai
Ġmarg ins
Ġghost s
keep ing
Ġretal iation
in ald
Ġs iber
Ġk appa
Ġcons on
Ġsur g
Ġest uary
Ġattack ers
Ġsupport ive
Ġhol idays
Ġga ud
Ġalco h
fle et
or se
Ġto pping
Ġsc utt
Ġout look
Ġprov es
Ġroy als
Ġwood ed
Ġur ugu
Ġconvers ations
Ġsud an
Ġye ah
Ġment ally
shadow ed
m ire
Ġn w
Ġe z
Ġman gal
ten stein
Ġgl oss
Ġdon key
Ġget t
Ġden is
Ġjud y
Ġminor ities
Ġacqu aint
Ġexplos ions
Ġgest ure
m ec
Ġw s
Ġo ch
Ġg rit
im ited
ak on
ĠâĢ ĳ
Ġass im
Ġsur plus
Ġdown graded
Ġbar red
Ġav engers
Ġmark er
Ġtax ation
Ġhung ry
Ġembr ace
Ġcompuls ory
ad h
ur us
Ġas ym
Ġv int
Ġspe nds
Ġcre te
Ġship ment
Ġuns ure
Ġsear ches
Ġabn ormal
Ġplag ued
Ġb res
at hed
le od
Ġal ge
ag ram
Ġout ages
ck i
hes is
Ġz ap
Ġpers ia
Ġsw ear
Ġcapt ained
Ġorgan ism
ĠÂ ·
Ġsele ctive
Ġexam ining
Ġ44 0
Ġprefer ring
Ġari el
Ġscar let
Ġjane iro
Ġproport ions
Ġnurs ery
Ġconce aled
run ner
Ġlan tern
Ġlandsl ides
Ġl ass
Ġv or
Ġsc are
Ġcont ention
Ġall oy
Ġbl oc
Ġpe el
Ġmay er
Ġmaster ing
Ġod i
Ġobserv es
Ġ181 8
Ġsolid arity
Ġantib odies
Ġmaced onia
gro ve
Ġbie ber
Ġmccle llan
Ġin ert
Ġd ic
Ġl j
Ġg ond
Ġst airs
Ġint ric
Ġpred ation
Ġgall ip
Ġextr action
Ġsymbol ism
Ġsab ot
Ġneighbour hood
Ġneutral ity
Ġathen ian
Ġsemif inals
Ġs age
at ops
Ġwh ist
Ġch ili
em po
Ġy ak
Ġfl ip
Ġrel iance
Ġsing led
Ġdec im
Ġz a
Ġche aper
Ġec w
Ġconstit ute
Ġguard ed
Ġod ys
Ġjer icho
Ġpel oton
Ġanaly zed
Ġcompr ise
Ġpatric ia
h m
Ġs ina
Ġh s
ac s
os c
Ġear p
Ġsun ny
rict ion
Ġsam antha
Ġca ud
Ã¨ res
Ġmarry ing
Ġearthqu akes
Ġpossess es
Ã ¯
in ating
Ġd ul
Ġk ul
Ġv ivid
op ath
Ġtr ondheim
Ġday time
Ġpres cribed
velop ed
Ġprev ailing
Ġpit ches
tr ak
Ġcontrast ing
Ġdivers ion
Ġgalile o
Ġnomen cl
Ġelectrom agnetic
Ġgamec ube
Ġequilib rium
e w
Ġan ter
Ġtr icks
Ġsp lend
Ġatt ach
Ġdr inks
Ġprop het
Ġmass a
Ġhold ers
Ġtun g
Ġcry ing
Ġrailroad s
Ġpic ard
Ġrb is
Ġloun ge
Ġgallip oli
Ġd ion
Ġd ag
Ġal umin
Ġun sc
Ġaf c
Ġwor m
Ġper ce
Ġup wards
Ġass umes
Ġfle m
Ġtrav is
Ġhon oured
Ġinform er
go vern
pr int
Ġkh mer
Ġdw elling
Ġreorgan ized
Ġkle in
Ġgand hi
Ġfundra ising
Ġjut land
l itz
Ġc et
Ġf ury
Ġth umb
Ġat ari
Ġpro claim
Ġbr ands
Ġnomin ate
Ġthreat en
Ġexception ally
Ġshep ard
Ġsustain able
Ġupl o
es y
ing ing
Ġr n
Ġj ard
Ġcomm uter
Ġac et
Ġz ur
Ġty re
Ġfre ighter
Ġhig gins
Ġgold s
Ġ29 5
Ġlib ya
Ġsel en
Ġsimultane ous
Ġclif ford
Ġtrump et
Ġhierarch y
Ġp our
as ian
Ġh ilar
Ġn iss
Ġr ca
Ġpro jection
cl c
Ġus c
Ġdis ability
Ġfl ats
Ġsupp ression
Ġequ ator
Ġcam el
Ġcru ising
Ġactress es
Ġtra it
oz o
hous er
Ġassa ulted
Ġjed i
Ġunav ailable
Ġt art
Ġin ad
Ġh ick
Ġl ub
ac ies
ol ation
Ġch ast
Ġover he
Ġout ward
Ġbest s
Ġdam on
pend icular
Ġinflu enza
Ġprim ates
Ġur ine
Ġtransition ed
Ġnich ols
Ġcoordin ate
Ġosc ill
Ġwitch craft
Ġembr aced
Ġreson ance
Ġevol ve
Ġg ull
Ġsp at
Ġper pendicular
form ed
Ġcar riages
Ġmet aph
Ġpul se
Ġgra pe
Ġrevol ver
Ġnic ol
Ġcommemor ated
Ġsimpl icity
Ġdrif ted
Ġw ik
Ġp aced
Ġp ants
Ġh oy
Ġst ump
Ġen am
Ġall ig
che wan
Ġgall eries
Ġcollabor ator
Ġcell ular
Ġunf air
Ġreserv ations
Ġhart ford
ãģ ®
Ġtuber cul
c ard
v re
st reet
Ġde af
Ġsh ap
Ġinv alid
Ġdet r
Ġbegin nings
bre aking
road s
Ġ64 0
Ġjac qu
Ġkick ing
Ġspart ans
Ġspokes person
Ġambig uous
Ġw oo
Ġhe br
Ġis tan
ill and
Ġcomp elled
Ġher n
Ġdep leted
Ġpet ty
Ġbor is
Ġcause way
Ġconfl u
Ġbru ins
Ġproceed ing
Ġsteven age
Ġjudg ement
Ġvenezuel a
w orm
Ġb ery
Ġb isc
ign y
Ġph yll
Ġwill s
Ġrev ive
Ġnow here
Ġwater loo
Ġcycl es
Ġbir ch
Ġinterc ontinental
Ġinsist ence
ĠrÃ© union
ro be
Ġr t
Ġv arsity
Ġher mann
ome ter
Ġtim b
Ġfl am
int o
che z
Ġstar gate
Ġple aded
Ġrivers ide
Ġfeud al
Ġpenet rate
Ġistan bul
l f
Ï ħ
Ġb oun
Ġn ay
em ia
Ġad he
Ġen ig
Ġind ul
Ġexp o
sh a
af ts
Ġcommit ments
Ġber th
Ġcanc el
Å¡ iÄĩ
Ġbackst age
Ġaest het
Ġpilgrim age
Ġsaskat chewan
c rap
Ġn ac
Ġg aps
ay ana
Ġch u
Ġunder world
Ġsch mid
Ġdisc retion
Ġconf essions
Ġgl iders
Ġmid land
Ġunivers ally
Ġfly ers
Ġtransfer ring
Ġrac ist
Ġwit ches
Ġgal actic
Ġlog ical
kin en
Ġfal c
Ġsynthes izer
Ġtoxic ity
Ġpled ged
Ġprejud ice
t ter
Ġl w
Ġch un
ame ters
ov ar
Ġend urance
Ġopen ings
Ġlow ell
Ġha ul
Ġhat red
Ġatlant is
Ġinaug uration
Ġvik ings
Ġtram way
Ġassa ults
x y
er ton
Ġm fr
Ġk ov
Ġro uge
Ġgener ous
Ġel m
Ġcop ied
Ġsele ctions
Ġber k
Ġconcept ual
Ġadmir ation
Ġcontrast ed
Ġexperiment ed
Ġmes a
Ġindirect ly
Ġwer en
Ġpatroll ing
Ġsabb ath
Ġgiov anni
Ġc erv
Ġpar ap
Ġdef le
Ġpost al
Ġpain ful
Ġpract ically
Ġpenn ed
Ġcontest ant
Ġbull s
Ġhav illand
Ġsoci ology
Ġvenet ian
n em
nd e
or g
le en
ot le
Ġcom bs
Ġcl ashed
Ġcomp are
Ġme adow
Ġbar ney
Ġdun n
Ġdetail ing
Ġantiqu ity
Ġzomb ie
Ġnorthumb ria
Ġpractition ers
Ġskys crap
Ġs if
Ġin gen
ri k
Ġy og
Ġsp herical
Ġdo yle
Ġsmall pox
br and
Ġenjoy ing
Ġextr ater
Ġka hn
Ġere ct
Ġblow ing
Ġsuz uki
Ġzepp elin
f rey
t ford
Ġo ught
Ġb ored
Ġf iji
ac ter
ut ory
Ġpres ided
Ġgener ators
ting u
Ġhar riet
Ġsuccess ors
Ġtro ph
Ġtur tles
Ġmcc orm
Ġlin naeus
Ġfashion ed
Ġsad dle
Ġcheck ed
Ġwag ons
Ġbudd ha
Ġcort ex
Ġhaun ted
Ġredempt ion
g ang
i ard
Ġp ity
ce phal
Ġare n
Ġdis ruption
Ġbu oy
Ġz ion
Ġhel ms
Ġmo e
Ġrob bery
Ġtransport ing
Ġalcoh olic
2 8
t hen
Ġh ak
um o
ell us
Ġbr an
Ġreg ulated
Ġdiv ert
Ġmed itation
Ġbuild s
Ġsent iments
Ġsun light
Ġpast or
Ġ182 7
Ġet ty
Ġ177 7
Ġearn est
Ġpseud onym
Ġsubstr ate
h orn
Ġch alk
our g
Ġi k
Ġwe hr
iz a
Ġinter red
ick ed
Ġpaul o
Ġconsum ing
Ġsubstit uted
Ġthanks giving
Ġsymmet ry
Ġsacrament o
in et
Ġp ied
Ġre iter
st ick
Ġse aw
Ġk ess
if iable
ill ion
op a
ace ans
Ġrel ocation
Ġsch iz
Ġste alth
Ġbrit ann
Ġconst able
Ġdest ro
Ġaver y
Ġfavor ably
Ġrow ling
Ġ182 6
Ġpropos es
Ġreconcil iation
Ġcoch rane
Ġshrews bury
h ound
p el
Ġt ard
Ġa uck
Ġw ulf
Ġf aint
it ations
ce nds
Ġpre quel
Ġatt aining
Ġchar ters
Ġsub l
Ġsch arn
Ġshow er
Ġbar g
Ġpat rons
Ġtele gram
Ġwilliam son
Ġmc d
Ġforest ry
Ġash ton
Ġmicro phone
Ġimmig rant
Ġreiss ue
Ġconclus ions
Ġflatt ened
Ġrepuls ed
9 0
i q
w old
Ġw ield
Ġw rist
og ene
Ġair bus
Ġz ah
Ġisland ers
Ġpromot ions
Ġfort ification
Ġbi ographical
Ġillust rate
Ġemphas ize
Ġincred ibly
Ġadjo ining
Ġ ips
is an
Ġact in
ah an
Ġsw orn
Ġcoast s
Ġbrown lee
Ġjer ome
Ġmechan ic
Ġmerc ia
Ġsatisf y
cha ikovsky
Ġkend rick
Ġhitch cock
l iest
Ġa ide
Ġd ump
Ġth ur
Ġr ides
Ġex clusion
Ġab dom
Ġoff ence
Ġpo ole
Ġpar th
sh ot
Ġten ants
Ġhun ts
Ġmac beth
Ġhay nes
ogen esis
Ġot ter
Ġsymph onic
Ġmys ore
Ġlav ish
Ġoutl ined
Ġchron o
rang ed
Ġcarne gie
Ġschne ider
m aker
Ġo ste
Ġh id
Ġl ily
Ġint ro
Ġcomm end
Ġyear ly
Ġpe at
Ġnational ism
Ġref in
Ġho oper
Ġmc gu
Ġbow s
Ġcup s
Ġunl imited
Ġ49 0
Ġ181 7
Ġ66 0
Ġoblig ations
Ġremind ed
Ġabrupt ly
Ġalumin ium
Ġy as
Ġwe iss
Ġover view
Ġann als
Ġequ est
Ġaz ores
Ġvent ures
f il
Ġt iber
Ġa q
Ġg ert
Ġhe al
Ġse ward
Ġv om
Ġro g
Ġdis emb
Ġbr ace
Ġgr ate
Ġorigin ating
Ġeast enders
Ġmal t
Ġtreat ise
Ġsocial ism
Ġatl as
ĠÃ ł
Ġsell er
Ġhang ed
Ġsurpass ing
Ġcav ity
Ġintend ing
h ops
Ġw en
Ġc nn
Ġd air
Ġn ets
le um
Ġv ogue
Ġman ners
Ġout c
oll en
Ġrem od
Ġthan houser
Ġcap ped
na h
Ġhar b
Ġsoc ially
Ġfire arms
Ġ42 0
Ġarchae ologists
Ġincom ing
Ġconven ient
Ġbyr ne
Ġslee ve
Ġdres den
Ġex tingu
Ġtr ams
Ġma fia
Ġhall uc
Ġbreak up
Ġdepend ed
Ġpack s
Ġeu ph
Ġmamm oth
Ġhans en
Ġsimpl ified
Ġfert ile
Ġuncon st
Ġrespir atory
Ġch ol
Ġcom r
Ġsh i
Ġun ic
Ġam or
Ġspe ctor
Ġem m
ft a
Ġmil ne
Ġtrans ylvania
Ġnational ists
Ġeuro gamer
Ġer otic
Ġless on
Ġhol t
Ġmel anch
ĠÃ ¸
Ġimm ense
Ġgall ons
Ġwilhel ms
Ġorn ament
Ġoutf its
Ġrelax ed
Ġs ake
Ġo y
ad le
Ġst unning
Ġle vin
Ġcl air
Ġqu otes
Ġsm ok
ual a
Ġbad en
Ã¨ s
Ã¨ ne
Ġstraight forward
Ġhighlight ing
Ġdescend ant
Ġlingu istic
Ġprehist oric
Ġb s
il ocy
Ġth i
om al
Ġv apor
Ġcan opy
Ġinv aders
Ġprem iers
Ġrob son
Ġheart ed
Ġcit ation
Ġ180 3
Ġeth iop
Ġfunction ing
Ġrenew al
Ġparad ox
Ġreass igned
Ġtribun al
Ġskept ical
Ġphilharmon ic
Ġscharn horst
b uck
r atory
z ko
Ġwh istle
Ġcon way
Ġme h
Ġfil ters
Ġob jection
Ġwid ening
Ġwil co
Ġbud dy
Ġast rol
Ġlauren ce
Ġimmun ity
Ġgarc ÃŃa
Ġnumer ical
Ġirr igation
t ail
v s
Ġc ove
Ġp asha
es a
an ity
an ne
le ep
ad ium
Ġr Ã¤
Ġed ible
Ġbre nd
Ġgl ut
Ġx l
ret to
Ġhur on
Ġsuff ers
Ġscen arios
Ġsyn onym
Ġ180 8
Ġsort ies
Ġyok o
Ġilleg it
Ġimped ance
Ġsynch ron
Ġdestro ys
Ġc ac
Ġb is
Ġbe gg
ct ica
if erous
Ġbo o
Ġfr action
Ġdown ward
Ġwhite head
Ġly d
Ġcrew men
Ġ182 3
Ġkr atos
Ġcra fted
Ġfranch ises
Ġconfer ences
m ind
Ġt ad
Ġo clc
Ġwas p
Ġv iz
Ġher r
Ġgo ogle
Ġplay boy
Ġgr ac
Ġgen oc
Ġem il
Ġcy pr
Ġbur rows
Ġ181 1
Ġauck land
Ġs Ã£o
Ġim aging
Ġexp on
Ġob it
Ġdet ach
Ġsol ved
Ġhy m
Ġgall ant
Ġtext ile
child ren
f est
l ig
Ġw i
it ud
Ġm ou
Ġj oc
Ġun le
Ġcl ich
Ġcent ennial
Ġger ard
head ed
Ġ43 0
Ġshore line
Ġresear cher
Ġjen kins
Ġenroll ment
Ġmong ols
Ġemer ald
Ġdisgu ised
Ġaster oid
haus en
Ġantio ch
ine as
Ġoff set
Ġco hes
ult ural
Ġinf inity
Ġprev ents
Ġav ant
Ġsqu ir
Ġreal igned
Ġemp ower
iser ies
Ġcounter ed
Ġemper ors
Ġ179 1
Ġspin al
Ġcha ired
Ġbag hd
Ġuss r
Ġinaug urated
Ġsimpl er
Ġwors ened
z t
Ġt ones
Ġa hl
ig i
Ġr ack
ab out
ra e
Ġret r
Ġmon o
Ġmet amorph
Ġaust rians
Ġdel icate
Ġhen son
lo id
Ġprot otypes
Ġmig ratory
Ġsher idan
Ġrevol ves
Ġlandsc apes
Ġoptim istic
Ġpom pe
Ġquadru ple
Ġhered itary
Ġarte f
Ġc n
Ġp ug
al am
Ġd ante
Ġg ian
th ard
ab h
are th
Ġgre ens
Ġden ial
Ġmac mill
Ġemploy ers
Ġjackson ville
Ġfred eric
Ġmis under
Ġinstall ations
Ġches hire
Ġwilling ness
Ġpill ars
Ġanarch ist
Ġphylogen etic
Ġscandin avian
Ġnichol son
v ine
Ù Ħ
Ġv h
Ġv ang
Ġnot ified
Ġnor ris
Ġfun n
Ġfa Ã§
Ġforest ed
Ġwing ed
Ġsens itivity
Ġuns igned
Ġannex ed
Ġdialect s
Ġserp ent
Ġinappropri ate
Ġconflu ence
c ia
n ets
r ide
ä ¸
Ġk ak
Ġk rie
Ġar id
Ġen erg
Ġsec re
Ġtrans cend
Ġaut ism
che m
Ġgun ners
Ġhur ley
Ġsupern ova
Ġoverturn ed
Ġabbre v
Ġmacmill an
s i
Ä ±
Ġc es
Ġdis band
other apy
Ġprocess ed
Ġbal zac
Ġgall agher
Ġ178 3
Ġforth coming
Ġamid st
Ġsegreg ation
Ġhyder abad
an ish
Ġh int
Ġh Ã¤
Ġg es
Ġne al
Ġpl aint
Ġsc ary
Ġen for
Ġi ro
Ġup right
Ġso f
Ġsever ed
Ġtake over
Ġconv ective
Ġdu nder
Ġcam den
Ġkh alid
Ġtact ic
Ġmonarch s
Ġiniti atives
Ġcelt ics
Ġslav ic
Ġns b
Ġsuperv ising
m b
m acht
Ñ Ĥ
Ġm ice
Ġm aus
Ġk ai
Ġres um
Ġcar lo
Ġpol ished
Ġdist orted
umb led
Ġrecogn izes
Ġdomin ation
Ġrecip ients
Ġbyr ds
Ġgoss ip
É Ľ
Ġv uk
Ġinter sp
act ions
Ġsl ogan
Ġtrans verse
Ġdel ivers
ling er
Ġtur f
Ġguard ians
Ġbox er
Ġspok ane
Ġdod d
Ġpengu in
ĠrÃ¤ ikk
c us
Ä Ļ
Ġf idel
if ully
Ġen ch
og ly
Ġcan vas
Ġdisc ont
Ġhar p
Ġ40 4
Ġrecogn ise
Ġtravel ers
Ġdra fts
Ġdemonstr ating
Ġabsor b
Ġtoy ota
Ã¶n en
Ġsuscept ible
Ġschwar z
l ene
v ie
Ġb w
ol t
ill ard
qu is
Ġun ac
Ġle nd
Ġcl ashes
ace y
iss on
Ġsl ated
az ar
Ġdel ic
Ġgun men
Ġstar craft
Ġhost ility
Ġscre aming
Ġprincip ally
Ġnucle i
Ġelabor ated
zh ou
Ġlung s
Ġbutt ons
Ġwehr macht
Ġs uther
or ian
Ġto e
Ġu lyss
Ġread ings
Ġhard est
Ġcontrovers ies
Ġ181 3
Ġdram at
Ġwithdraw ing
Ġstyl istic
Ġukrain ian
Ġincarn ation
Ġneb ula
Ġdisorgan ized
Ġnir vana
ĠrÃ¤ikk Ã¶nen
Ġulyss es
r ine
Ġf used
Ġm iff
Ġl al
Ġhe is
Ġhe ars
iv ided
ond o
Ġpe cul
vers ion
Ġmot ives
Ġactiv ism
Ġthreat ens
Ġcalc ulations
Ġslip ped
Ġstef an
Ġbark ley
Ġkes ha
4 5
Ġt ink
Ġm aw
Ġg os
Ġg Ã©
am ination
Ġr att
Ġsh it
Ġsp urs
Ġma ver
Ġmill wall
Ġbas eman
Ġrap t
Ġviol ations
Ġund ivided
Ġhaw kins
Ġell iot
Ġalt itudes
Ġsel dom
Ġgate house
Ġvic eroy
Ġbount y
Ġnicar agua
Ġtubercul osis
3 7
b ys
g em
Ä ĵ
Ġv ulture
Ġsh u
Ġev id
und ers
ets u
Ġrad ial
Ġlow land
Ġfat ig
Ġshel by
Ġdemonstr ates
Ġflash backs
Ġpref ers
Ġdict ator
Ġhollow ay
Ġaristocr acy
Ġreinst ated
Ġstrongh old
3 5
Ġt ik
Ġb ricks
Ġm asts
Ġg ue
Ġu em
Ġsh oe
Ġste amed
Ġmed all
Ġsol ving
for th
Ġoccup ies
Ġq ing
Ġmir acle
Ġmd ot
Ġacknow ledge
hell o
Ġlandown ers
Ġlaur ie
Ġforens ic
Ġinad vert
Ġpecul iar
t te
Ġt chaikovsky
Ġin mates
Ġl ille
Ġsh ade
Ġinv ites
Ġcal ed
Ġcorn ish
Ġscar ce
Ġrab b
Ġundert aking
Ġnegoti ating
Ġelig ibility
Ġnightcl ub
Ġmangal ore
h is
n ick
Ġf ian
Ġg dp
Ġbe ts
Ġfor erun
Ġal to
Ġcl ues
Ġgen ome
Ġwhere in
Ġmill imetre
Ġdep ort
Ġcr ashes
Ġbook ed
Ġer oded
Ġlocal ized
Ġaff irmed
oss a
gu y
Ġdod ge
Ġdal ton
Ġencl osure
Ġannex ation
Ġdismant led
Ġwilhelms haven
Ġuem atsu
g art
on al
Ġst ocks
Ġk uala
Ġcomp uting
Ġmin iseries
Ġ30 1
Ġmer ry
Ġinflu x
Ġdon ation
Ġhom est
ither s
Ġworks hops
Ġradio head
wer ff
Ã¶ l
Ġconflict ing
Ġech oes
Ġdign ity
Ġfron ts
Ġczechosl ovakia
Ġb aj
Ġm elt
Ġto uches
Ġi ke
att on
Ġmil estone
com be
Ġpur ana
Ġtorpedo ed
Ġcompar atively
Ġappl ies
Ġnem esis
Ġtorch wood
Ġunders ide
Ġvint age
Ġcypr us
ell ery
Ġsp lin
Ġcount ing
Ġdiv a
Ġconf using
Ġcho oses
Ġdig ging
Ġsav ings
Ġkh al
Ġlov ely
Ġgra ff
Ġcasual ty
Ġsynthes izers
Ġendors ement
Ġvander werff
opot am
2 7
p ath
Ġ è
Ġp asc
an ar
Ġbe ak
Ġsc apa
Ġpar atro
Ġel i
Ġbre wer
Ġgard e
Ġdistrib ute
Ġyellow stone
Ġtrust ed
Ġstick y
Ġauthentic ity
Ġeleg ant
Ġh ated
Ġn ile
Ġis is
ul se
Ġne ct
Ġsh afts
Ġam ar
Ġam anda
Ġmar vin
Ġdes erved
Ġme lee
Ġqu ir
Ġche w
Ġfore most
Ġrob bie
Ġfrank f
Ġcann ibal
Ġsongwrit ers
Ġrick y
Ġreprodu ce
Ġadvoc acy
Ġlob b
Ġrus so
Ġpenet rated
Ġrewrit e
Ġdissatisf ied
Ġpetro leum
Ġabdom en
u ky
er i
as se
Ġl ug
Ġe ust
Ġun esco
Ġcl one
ary a
Ġher cules
Ġinter st
Ġcar pet
Ġno ah
Ġinst inct
Ġcrit ique
Ġprev ailed
Ġwater fall
ital ia
Ġcy an
Ġdevelopment al
Ġroyal ty
Ġwall ach
Ġdro wning
Ġabandon ing
Ġextr acted
Ġstret ches
Ġwet lands
Ġflank ed
Ġjacob s
Ġdal mat
Ġrepr ised
yt he
Ġvit amin
Ġreiss ued
j j
Ġ Ê
Ġc t
Ġfor ge
Ġse p
ass is
Ġfl ick
Ġacc using
Ġinv ading
Ġz am
oy ne
Ġcor inth
Ġconc essions
aut hor
Ġcand le
Ġrat ified
Ġnic olas
ropol is
Ġliqu or
Ġgates head
Ġnad al
Ġsemin ary
Ġresurre ction
Ġauditor ium
Ġsuther land
c ely
Ġs cept
Ġc gi
Ġf riction
le utnant
Ġk ro
Ġle ap
Ġdef ic
Ġcount down
Ġocc ult
Ġmountain e
Ġenjoy s
Ġ180 2
Ġincorpor ation
Ġ56 0
Ġdens ely
Ġah med
Ġantar ctica
Ġdisgu ise
Ġapprent ice
Ġcoul thard
Ġmiche le
Ġb ully
Ġf oll
or os
Ġl c
Ġg op
ess es
ment ioned
Ġup anish
Ġind ict
anc ies
Ġhand held
Ġfac ade
Ġprot o
Ġtra um
Ġlev i
Ġchanc el
Ġtrunc ated
Ġbucc ane
Ġbaghd ad
h ou
in ia
Ġp ab
Ġp ect
og ram
Ġbar th
Ġbath room
Ġintercept ions
Ġrenew able
Ġfemin ine
Ġretail ers
zh nev
Ġprivile ge
Ġsubsc rib
Ġmerg ing
Ġtuls a
Ġmarse ille
Ġf aw
ar is
Ġd rom
un s
Ġdiv iding
Ġ25 4
Ġinsp iring
Ġmight y
Ġens ign
Ġsav a
Ġlabor atories
Ġalbert o
Ġfu j
Ġsor ry
Ġanaly sts
Ġrever ted
Ġrams ay
Ġgenet ically
Ġinexper ienced
Ġconspic uous
Ġvatic an
y o
Ġbe ams
Ġj ov
ach lan
Ġrel ics
Ġpit chers
Ġul ster
Ġquarter f
Ġsatell ites
Ġyanke e
Ġstamp s
Ġspit fire
Ġnie ce
Ġbung ie
o it
Ġthe ss
ond s
Ġup ward
Ġbel oved
Ġsim s
Ġjack ets
Ġinterv al
Ġspeed way
Ġcaptain cy
ste en
Ġopt ional
Ġhell en
mal ley
Ġrede em
Ġpump ing
Ġherb iv
Ġepid emic
Ġjak arta
b rough
Ġw ards
Ġc un
Ġb ale
Ġcom ets
Ġsp ice
Ġdes erv
ib a
Ġrel ies
Ġlar a
Ġany more
Ġdecl ares
Ġsn out
Ġboy le
Ġros berg
Ġlog istics
je vo
Ġsteel ers
Ġ177 8
Ġmorph ological
Ġaa a
Ġmonit ored
Ġisab el
Ġw ah
Ġe ck
Ġg land
og ist
ren s
Ġ00 7
Ġtimes lot
Ġprop ose
Ġyellow ish
Ġfavour ites
Ġkat rina
Ġsyl vester
Ġbetray al
Ġnutri ents
Ġenlight en
Ġs amp
Ġk ram
Ġv ort
ul in
ap o
op ers
Ġor ang
Ġtr aps
Ġchar tered
Ġimp r
Ġent ities
Ġeast wood
Ġfig ur
Ġbul lets
Ġexperiment ation
Ġsoph ie
Ġhav ana
Ġbacter ial
Ġchore ographed
Ġrept iles
Ġcompart ments
Ġillumin ated
Ġu bs
Ġwith stand
Ġk icks
Ġsp ock
ound ing
Ġsl ash
Ġship building
Ġyork er
Ġcur ving
Ġ21 3
Ġfav re
Ġcut sc
Ġtor rent
Ġmel issa
Ġcapital ism
Ġforeign ers
Ġ180 7
Ġreject s
Ġsens ation
Ġta o
Ġshut out
Ġforecast s
gue z
Ġcowboy s
Ġcalib re
p itz
Ġa ro
Ġs ora
on te
Ġm Äģ
Ġd yer
th rop
Ġcl aws
Ġpriv acy
Ġtax onomic
Ġ182 2
Ġrod rÃŃ
Ġsatisf action
Ġbak shi
Ġanto ine
Ġinvinc ible
Ġillegit imate
Ġst icks
Ġdis ag
act ivity
ress ive
Ġfun er
ges chwader
Ġpal ae
Ġregular s
uff le
Ġmyth s
Ġcha otic
Ġspar se
Ġarbit r
Ġinfect ious
Ġscrut iny
ĠrodrÃŃ guez
f ol
h ima
Ġb its
el ton
el ves
Ġst rom
Ġfor rest
Ġk eller
te ch
Ġsp ines
Ġman son
int y
Ġra ja
Ġir res
Ġbur t
Ġrespect s
Ġmurder er
Ġlis bon
Ġupd ates
Ġpor ch
Ġcondem n
Ġbever ly
ĠmÃ¼ ller
Ġours elves
Ġm uc
Ġwar ns
Ġdr ained
ink a
Ġdam n
Ġdest ined
Ġvir gil
Ġgrad ed
Ġbul b
Ġacqu itted
Ġdistrib utor
Ġaer on
Ġabb ott
Ġerr one
Ġstere oty
g ae
p ants
u ve
Ġw aff
Ġf ooth
ie g
Ġsever n
Ġstates man
Ġsk ate
Ġtrad es
Ġneed ing
Ġgra zing
Ġcustom ary
Ġpione ers
Ġtir pitz
Ġsummar ized
Ġrodrig ues
Ġcasc ade
Ġemancip ation
Ġ ×
Ġb ic
Ġe in
Ġk af
ical s
Ġcomp ly
Ġen qu
Ġpo ols
Ġapp alach
Ġimp air
Ġdiv er
Ġhar lem
Ġham lin
Ġbrown ish
Ġdefence man
Ġlincoln shire
Ġbypass ed
Ġhook s
Ġrecip es
Ġced ed
Ġsacrif ices
Ġome ga
n is
Ð ²
ol ini
Ġy uan
Ġle a
Ġsp ars
Ġrec ounted
Ġbr ake
Ġwill am
Ġrepresent ations
Ġtur mo
Ġsele cting
Ġdar ius
Ġfrag ile
Ġcourts hip
Ġchest nut
Ġluther an
Ġbalk ans
Ġpamph let
Ġinverte brates
Ġtimb aland
Ġdisag ree
Ġc ary
Ġc ody
Ġal erted
Ġwh oles
Ġk are
ĠâĢ ³
Ġim pe
Ġbo is
Ġchar ities
Ġpar rot
Ġhead line
Ġir is
Ġsaw yer
Ġps i
Ġol af
Ġspot light
Ġell ie
Ġimag ined
Ġraf ael
Ġdiff usion
Ġpredict ions
Ġbackst ory
Ġposthum ous
Ġemig rated
Ġniger ia
occup ied
Ġbackl ash
Ġt ic
Ġh au
Ġn guy
Ġfor wards
ul ator
Ġtim or
Ġfin es
Ġep ile
Ġke ats
Ġaugust a
Ġstat utory
Ġfa ults
Ġencour agement
Ġward robe
Ġsynthes ized
Ġlaure l
Ġtight ly
al u
et ing
ag us
Ġun ite
Ġar s
Ġman power
Ġpa ula
Ġ22 2
Ġhor ace
Ġcommit ting
Ġsail or
Ġpredict able
Ġasc ension
Ġturmo il
m ot
Ġs way
Ġh ord
Ġh ards
Ġv r
um per
Ġsh im
Ġro land
osp ace
lin ary
Ġrepe ating
Ġtra verse
Ġcinem as
Ġwhit ish
Å¡ e
Ġbreat he
Ġcoinc ide
Ġtort ured
Ġdolph in
Ġsubdiv ision
Ġdepr ived
Ġwigg ins
Ġsurg ical
4 8
k r
u ber
he aster
Ġc ain
Ġm h
Ġm ugh
ar se
Ġto ad
Ġbo let
Ġimp ose
Ġmid lands
bo o
Ġsuff ix
Ġhealth care
Ġoffer ings
Ġnom ura
Ġliz ard
Ġhob bs
Ġeval uated
Ġteles cop
Ġs d
Ġin active
Ġk v
Ġch is
Ġsc her
ys ical
Ġdem ograph
Ġbus iest
Ġcost ing
Ġmal aya
Ġbat ch
Ġple a
Ġaccident al
Ġtransform ers
Ġobl iv
heaster ly
Ġt ing
Ġh uss
Ġh af
Ġbe ers
Ġr ak
if ting
op ods
Ġle one
Ġspe er
Ġsch wart
ley s
Ġfinal ists
Ġstory board
Ġequ ations
Ġvi ad
Ġha as
Ġdebut ing
Ġcontest s
Ġgraph ical
Ġarchae ologist
Ġmars hes
Ġdiplom at
Ġphilosopher s
Ġdistr acted
Ġunconst itution
o j
v ic
Ġw ishing
al le
Ġd uc
Ġl ure
az i
Ġdisc rimin
Ġbar low
Ġfinal ist
Ġide ological
Ġbrown e
Ġmel an
Ġcart ridge
Ġpair ing
Ġarrest s
Ġmerc en
Ġspons ors
Ġsig ism
Ġvig orous
Ġexter min
Ġiceland ic
d ar
Ġw ies
Ġsec ession
Ġhim al
Ġnorth wards
ode on
Ġrequ iem
Ġjour neys
Ġburn ham
Ġmedic ation
Ġlock heed
Ġted dy
Î¿ ÏĤ
Ġdiscour aged
Ġvacc ine
Ġcontamin ated
j ack
Ġg ros
Ġbe ard
Ġk um
Ġen o
Ġred isc
Ġchrist ie
Ġpun ished
Ġrh od
Ġprogress ively
Ġoil ers
Ġbag s
Ġassass inated
Ġpill ar
Ġstere o
Ġlux emb
Ġrecept ions
Ġincorrect ly
Ġparagu ay
Ġalum inum
Ġmiff lin
Ġschwart z
Ġs iv
Ġs anche
Ġc ag
Ġp ius
is co
Ġn ud
Ġe h
Ġon stage
Ġcon dom
Ġpro d
Ġun identified
Ġsc rant
ra il
orn s
Ġoper ative
Ġbill ie
Ġ28 7
Ġphot ographic
ien ne
Ġlif ting
Ġclar ified
ĠÎ ²
Ġweapon ry
Ġsor row
Ġbiographer s
Ġrecip roc
Ġdwarf s
Ġaur ora
Ġintersp ersed
nd ez
Ġal ison
Ġcl ans
Ġmus cular
Ġass ent
Ġbel ize
Ġrest ruct
Ġrob ots
Ġconfir ming
Ġlog s
Ġsant os
Ġharm ful
Ġdisturb ing
Ġpref ix
Ġparent al
Ġchile an
Ġjag d
Ġlia ison
Ġsanche z
z ier
Ġm ard
Ġm oul
Ġas leep
Ġmor ales
Ġgreen wich
Ġbor on
Ġelev ations
Ġrefuge e
Ġapprec iate
Ġexplan ations
Ġhybr ids
Ġknock out
Ġnickel odeon
h as
h oun
Ġo str
Ġn m
Ġg c
Ġk ling
ap est
Ġy el
Ġcl ara
ans on
Ġco bra
Ġunder gone
Ġgu bern
Ġpass er
Ġbroad caster
Ġbetray ed
Ġlineback er
w ill
w ulf
Ġ Åį
Ġr ites
Ġar rog
Ġz y
Ġbre zhnev
Ġmid west
Ġinit iate
Ġtake off
Ġliter acy
Ġsmith son
Ġconsider ations
Ġwit t
Ġmut ations
Ġconsec rated
Ġimag in
Ġchor ale
Ġvic ious
Ġsax ophone
Ġmistaken ly
Ġlifes pan
b ut
d ings
j ina
p pe
Ġ ers
Ġthe olog
Ġs acks
il o
Ġgr amm
iew icz
ron es
Ġir win
Ġx iv
Ġpal at
Ġconn or
Ġgrad ient
Ġdisp atch
Ġtax a
Ġbud apest
Ġrespond s
Ġcanc ell
Ġdang ers
Ġmig rated
Ġaer ospace
Ġgam ers
Ġkiss ing
Ġwes ter
Ġfold ing
Ġcricke ters
Ġmagist rate
Ġrelat ivity
Ġalgor ithm
Ġbrend an
Ġscrant on
Ġgubern atorial
n h
w ic
og ens
Ġout let
ress es
Ġdef ines
Ġmix es
Ġcycl onic
isl av
Ġcontract or
Ġgil es
Ġ177 0
Ġalle v
Ġdisl ike
Ġfasc ist
Ġgett ys
t ry
Ġc air
Ġo mar
Ġl Ã³
Ġper kins
Ġfall out
Ġcat ap
Ġrac co
Ġemphas ised
Ġga ul
Ġimpress ions
Ġmood y
Ġpray ers
Ġanx ious
Ġbav aria
Ġpopul ace
e ger
w r
Ġan j
Ġun real
Ġall oys
Ġint ake
Ġbl izz
Ġass et
Ġrece ip
Ġke ating
Ġconf essed
Ġsqu id
Ġpost war
Ġwind ing
Ġham asaki
Ġgreen wood
Ġsam us
Ġemp ires
Ġmas ks
Ġmaster ed
Ġrebell ious
Ġgenet ics
Ġmoll us
Ġbriar cliff
a ud
b ear
p en
Ġk ag
Ġsu ez
Ġatt ested
Ġjo a
Ġreg gae
Ġph ones
Ġhead lining
Ġimpro per
Ġjud ith
Ġchief ly
Ġut terly
Ġeye wall
Ġts un
Ġnas al
Ġinstitution al
Ġrib bon
Ġflower ing
Ġartef acts
Ġgettys burg
r ab
Ġc indy
Ġb har
Ġh ap
ou ch
Ġr ink
Ġall ah
Ġper l
Ġ00 00
Ġdep osition
Ġ16 00
Ġreal ms
Ġpit ted
Ġassist ants
Ġeat on
Ġcoc on
Ġkos ovo
Ġextrav ag
c ad
ar am
Ġand es
ut ta
un ken
Ġaf ore
Ġsc al
Ġsign atures
Ġfre el
Ġmer cer
tt a
Ġprepar atory
Ġ53 0
Ġbarb ados
Ġswim mer
Ġstere otypes
Ġfluor ide
Ġappar atus
Ġhiros hima
Ġodys sey
Ġnomencl ature
2 6
v ich
Ï ĥ
it ism
Ġe f
Ġv ita
Ġne olithic
Ġam assed
Ġman kind
Ġi ber
Ġag nes
Ġmon aco
Ġant is
Ġpract icing
Ġscen ery
Ġps p
tt es
Ġdom ains
Ġfox es
Ġ178 8
Ġfashion able
eg ro
Ġsweep ing
Ġnegle ct
Ġmonten egro
Ġutt ar
Ġguin ness
Ġacl u
Î ·
Ġa pt
Ġc ron
it as
Ġg b
Ġu d
Ġu sta
Ġor r
Ġgu ang
Ġdr ac
ily n
Ġgames py
Ġfree zing
Ġneg lig
Ġamb ushed
Ġtrail ers
Ġhyp oc
Ġfutur istic
Ġjeop ardy
Ġhydraul ic
Ġhebr ides
Ġwillam ette
c ile
w at
Ġb ae
Ġl ets
Ġsh attered
Ġtr ash
cc o
Ġrec ession
Ġinter rupt
Ġthem atic
Ġmil o
Ġmaj ors
Ġpat erson
Ġhum ili
Ġroy ale
Ġden ying
Ġur anus
Ġglob ally
Ġdeliver ies
Ġpione ered
Ġpilgr ims
Ġcere bral
Ġanalog ous
urg ical
Ġgav in
Ġecosystem s
Ġkrak Ã³w
Ġh ue
Ġan ast
Ġwor ms
te xt
ult imate
Ġend ow
Ġimp erson
Ġsim ulation
Ġju vent
Ġlit ter
Ġstre aming
aren ts
Ġcro ft
Ġnar r
Ġaw esome
Ġhonor able
Ġker ala
f man
re cht
Ġd ard
her ty
Ġun ch
rit e
Ġnew born
Ġres ided
Ġrev isions
Ġtrans actions
Ġgre co
Ġlik elihood
tr ans
Ġq ur
Ġegypt ians
Ġrod ney
Ġcous ins
Ġsi oux
Ġdisagre ements
Ġsting ray
Ġkens ington
Ġequest rian
r ise
Ġh mas
Ġl ime
Ġn abl
Ġat roc
Ġgener ator
Ġbar ge
Ġport o
Ġeuro vision
Ġactiv ision
Ġpur ported
of sky
hold er
Ġpropos ing
Ġba fta
Ġmyster ies
Ġpartn ered
Ġlaugh s
Ġleonard o
Ġstir ling
Ġinsurg ents
Ġappla uded
Ġmercen aries
Ġnabl us
c roft
r ack
t aker
Ġf ishes
en as
Ġsh un
Ġres upp
Ġreg ulate
Ġmon mouth
Ġsur m
Ġbel ts
Ġlo ops
Ġren umbered
Ġ37 5
Ġmir rors
Ġlot tery
Ġdefin itions
Ġpione ering
Ġbod ied
Ġrenov ations
Ġpod ium
Ġarbit ration
Ġparan ormal
Ġschiz oph
Ġevid enced
d aughter
h ole
Ġw ires
Ġk och
Ġpro ps
Ġsp elled
Ġi j
Ġser mon
Ġbec ky
Ġwe ir
Ġcan nes
Ġdo b
Ġland lord
Ġju ice
Ġra ises
Ġroy ce
Ġbreak out
Ġaltern atives
Ġsax ons
Ġcass ette
Ġost ens
Ġawa iting
Ġpist ols
Ġgrun ge
Ġamn esty
Ġscutt led
Ġips wich
n itz
u o
Ġto ug
am iliar
Ġk iev
Ġor ator
Ġun used
Ġab rams
Ġbo er
Ġjo hor
Ġalb at
Ġche ro
Ġmor an
com es
Ġparticip ant
Ġlib retto
Ġbor g
Ġfair banks
Ġdrum mond
Ġsar at
Ġconfeder ates
Ġsem ic
Ġironcl ads
Ġvand al
r c
Ġ >
Ġf and
ar ium
Ġv c
ag uchi
ill ary
Ġcut ter
Ġkir by
rif ying
Ġrestrict ion
Ġbrew ery
Ġordin ance
nem outh
le ading
Ġj ing
Ġv ague
Ġun for
Ġun inter
Ġbec ket
Ġinto x
Ġimp aired
Ġcur ious
Ġconn ie
Ġroll ins
aret te
Ġmik hail
Ġanat om
Ġresol utions
Ġglou cestershire
Ġstap le
Ġswall ow
Ġhym ns
Ġvang uard
Ġhomest ead
Ġafore mentioned
Ġschizoph ren
h og
m oor
r av
z one
Ġh ath
Ġto pp
Ġth ai
Ġher tford
ign ant
Ġref uel
Ġprop osition
Ġcross roads
Ġstat utes
Ġbur ma
Ġpen ultimate
Ġdocument ation
Ġmun itions
Ġ47 0
Ġinstall ments
Ġark ham
Ġhes it
Ġlauren t
Ġinterven ed
ĠbÃ© la
Ġexplor ers
Ġincur red
Ġgrate ful
Ġdemograph ics
f ighters
h ra
m ic
er l
Ġw ain
Ġp umps
ig ated
Ġal s
Ġde cept
Ġv u
Ġch ir
Ġpro w
if olia
ile e
Ġlar kin
Ġperiod ically
Ġec st
Ġden oting
Ġfell ows
Ġreason ably
Ġmcc ool
Ġliving stone
Ġdial og
Ġglass es
enc ia
Ġinund ated
Ġflem ish
Ġw ic
Ġw yn
Ġf its
Ġp aw
Ġst el
Ġ20 8
Ġpre acher
we ek
Ġrel ent
Ġair men
Ġsch w
Ġcap ac
Ġtrans m
Ġaff inity
Ġbrown ing
Ġguard ing
Ġplant ing
Ġexam inations
Ġbeaut ifully
Ġcarl ton
Ġtable ts
Ġwond ers
Ġresear ched
Ġflav or
Ġruf us
Ġdair y
Ġgue vara
Å ¼
Ġh ust
Ġan ec
ag s
pe ople
Ġex cer
Ġen ables
Ġdes irable
Ġgo b
oll ah
Ġmin us
Ġinst ruct
Ġtit anium
Ġche cks
Ġhum id
Ġcommun al
Ġcomb ust
Ġactiv ation
Ġur gent
Ġsam pled
Ġpay s
Ġpaper back
Ġkr as
Ġshel f
Ġpoly gon
Ġhub ble
Ġharmon ies
Ġadmit ting
Ġnatal ie
Ġeste em
Ġinadvert ently
i ards
Ġb unk
Ġf anny
Ġl anth
Ġat oll
Ġde fer
Ġar lington
Ġtr aw
Ġass y
Ġbuild er
Ġbook let
Ġrepl en
Ġbur d
Ġscore less
Ġign oring
Ġluc rative
Ġcontrast s
Ġsant ana
Ġtell er
Ġthor ium
Ġgrass es
Ġoverl apping
Ġremark ably
Ġexpert ise
Ġknock ing
Ġgif ted
Ġmicroscop ic
ĠlÃ³ pez
s by
u w
Ġm n
Ġg ne
pl ess
Ġover shadowed
Ġop us
led o
Ġhor rible
Ġfair fax
Ġunf amiliar
Ġtable t
Ġcob ain
Ġpreserv ing
pin wall
Ġecl ips
Ġchero kee
Ġs ins
Ġb ony
Ġst ela
Ġr anc
Ġk c
Ġmat su
Ġlong itud
Ġarch ibald
Ġdecl ines
Ġdi aries
Ġbra very
Ġdun stan
Ġcorpor al
Ġjon as
Ġtren ton
Ġseiz ures
Ġclover leaf
Ġbax ter
Ġjard ine
b et
b els
r ama
Ġ Å¾
is o
Ġr ij
Ġj ade
Ġse mes
Ġch loe
ist o
Ġro oted
Ġz x
Ġcr aters
Ġcare ll
ob ia
Ġtit us
Ġang lia
Ġchrist gau
ham mer
Ġho over
ĠÃ ®
Ġadminist rators
Ġbirth place
Ġign ore
Ġ59 0
Ġhell o
Ġ77 7
Ġcommemor ating
Ġlon gh
Ġgren ades
Ġdelight ed
Ġperm its
ĠgÃ¶ ring
Ġiro qu
h ir
r anes
z as
ot hed
Ġthat cher
os em
ud ge
ip es
Ġsp heres
Ġup ro
Ġdef ault
Ġdr ill
Ġel aine
Ġimport s
Ġdi abet
Ġunc redited
Ġpun j
Ġstra uss
Ġobl igation
fr ame
Ġexplo its
Ġsuperst ar
Ġgren ade
Ġriff s
Ġsubf amily
ĠpÃ© rez
Ġunconstitution al
Ġn ascar
Ġth wart
Ġr s
so hn
Ġver ge
Ġimp lying
Ġland is
Ġred sh
Ġrock well
Ġ40 1
Ġmart ÃŃn
Ġaz te
Ġlisten er
Ġdict ators
chw itz
Ġcaut ious
Ġplaint iff
Ġlobb ied
c reen
s ley
z b
Ġc umb
Ġb oll
Ġl m
Ġwh arf
Ġcom a
ru z
Ġout sp
Ġmon a
Ġwhere ver
Ġhar ness
Ġmid field
Ġfer mi
Ġsut ton
Ġelector ate
Ġemin ent
Ġsanction ed
Ġfalc ons
r ard
se in
Ġun m
ial e
Ġcl ive
Ġser en
ons on
rop s
Ġlo ads
Ġclass ifications
Ġgl az
Ġcamp ing
Ġtit ular
Ġpredomin ant
Ġretros pect
Ġmedi oc
Ġmitochond rial
Ġgenoc ide
Ġfian c
Î ¼
Ġo ro
at ore
Ġto ledo
Ġre class
ur u
ol in
ol it
em ate
Ġar v
Ġtr uss
Ġte aser
Ġgo ose
ib us
Ġmed ina
Ġel bow
Ġant it
Ġunc ont
Ġparis hes
Ġrecon cile
Ġsupply ing
Ġneut rons
Ġmason ry
grad ation
Ġsarat oga
h ler
i ks
Ġ ï
en ko
Ġal v
Ġat e
Ġint est
Ġcar c
Ġport ed
Ġsoc io
Ġanim ations
Ġobs ession
Ġmodel ing
Ġpul s
Ġchronic ler
Ġspur red
Ã¦ d
Ġconce al
Ġmock ing
Ġconfer red
Ġcylind ers
Ġsigism und
c w
at ical
Ġh ides
Ġn ate
Ġre used
Ġr agn
Ġch Ã¢
Ġman ch
Ġi bra
ren ched
Ġcar ac
Ġreg inald
ath i
Ġexp ose
Ġstr as
Ġgl o
Ġref rain
erv ille
Ġmc govern
Ġ95 0
Ġ178 1
Ġmole cule
Ġpad res
Ġpriest ley
Ġskull s
Ġparas ite
Ġdale y
Ġlegitim acy
Ġstephan ie
Ġo asis
Ġm ls
Ġun author
Ġme adows
Ġed ith
Ġcoun ters
Ġmo ly
Ġ23 9
be e
mit te
Ġpet it
Ġsand ra
Ġlegisl ators
Ġca o
ari at
Ġsar c
Ġmyth ological
Ġexpect ation
Ġencounter ing
Ġpon ies
Ġfacil itated
Ġprostit ution
Ġregener ation
Ġperipher al
w he
Ġa quar
Ġf aded
is i
et ics
Ġv rs
ri p
ri ous
Ġy us
Ġrec ons
Ġend less
Ġel ias
Ġge ometric
Ġant ig
co e
Ġcollabor ations
Ġow ens
Ġkat y
Ġweeke nds
Ġarmen ians
Ġhu bert
Ġmcg ill
Ġdegener ated
Ġunconv entional
k amp
Ġt b
Ġe ct
Ġr aced
Ġsmall ville
Ġcapt ures
Ġgun n
Ġtele commun
Ġcro ats
Ġmart ine
Ġrain fore
Ġanal ogy
Ġshoot out
Ġbarb ettes
Ġwend y
Ġcompart ment
Ġlich tenstein
Ġbless ing
n en
Ġw ired
Ġb ain
Ġd har
Ġfor fe
um en
Ġinter d
Ġbr ink
ton es
Ġimp osing
Ġann ih
Ġrain y
Ġple ist
Ġtas man
Ġbit ch
rain e
Ġmut ation
Ġdefin ite
Ġunsu itable
Ġko hl
Ġhob art
Ġsubsc ription
Ġversa illes
Ġmarin ers
Ġhilar ious
Ġdetr iment
Ġpremiers hip
2 9
Ġc en
Ġre z
Ġre claim
Ġg imm
et he
Ġar bor
pt s
Ġgo at
Ġover land
Ġz immer
Ġmag ma
Ġrecogn izing
Ġfer al
Ġquarter ly
Ġwr ath
Ġencour ages
Ġ178 7
Ġdram as
Ġsort ie
Ġindu ction
Ġvulner ability
Ġl us
Ġal ps
Ġde w
um ont
ore sc
Ġdes mond
Ġrep atri
Ġbu gs
Ġsk ies
Ġinsp ire
isl aus
Ġrh ino
Ġgoals c
Ġbab ies
Ġgil m
Ġid i
Ġnarrow s
ni ks
Ġrout inely
Ġsap ph
Ġgenu inely
Ġkerr igan
Ġsucc umb
Ġtransf ers
ĠfaÃ§ ade
Ġdiabet es
Ġd ess
Ġl ied
Ġfor ks
em ason
Ġro us
Ġam an
Ġbl essed
Ġqu ag
Ġph ara
Ġnov ak
gr ave
Ġyork town
Ġgold berg
Ġsal aries
oon er
Ġfa ust
Ġfoc al
Ġattend ees
Ġfuel ed
Ġmedic ations
Ġyor ke
Ġrip ley
Ġbour nemouth
Ġvamp ires
Ġpseud o
Ġsemif inal
Ġcompass ion
Ġdund ee
b uster
Ġf ren
Ġu cl
ill usion
all a
Ġnot ch
Ġdis illusion
Ġz erg
Ġfam ine
Ġintern ally
Ġhum ble
Ġx er
Ġnort her
af a
ald i
Ġfa ire
Ġchall enger
bre aker
Ġdepend ence
Ġfal un
Ġuns atisf
Ġwolf gang
Ġinvas ive
Ġsuprem acy
Ġenlighten ment
Ġusta Å¡e
Ã ²
Ð º
Ġs ells
Ġl att
Ġne um
cl osed
Ġmar ilyn
ry l
Ġunder wood
Ġcr acks
Ġconf uc
Ġpat ience
Ġsuper f
Ġaud rey
Ġmodern ization
asc ular
Ġconver gence
Ġmig rate
Ġexpos ing
Ġsick ness
Ġbutter flies
Ġinvent or
Ġmaced onian
Ġcaf e
Ġcauc us
Ġug ly
Ġhik ing
8 0
j ust
ur ia
Ġse in
Ġse pinwall
Ġk ud
Ġch ino
Ġsh ades
Ġun iqu
Ġsp ared
og l
Ġag ar
Ġind ec
Ġsqu all
Ġprofess ors
Ġdirector ial
Ġvoc abulary
Ġpot ent
Ġsam oa
Ġcollabor ators
Ġstrength s
Ġdaniel le
Ġfix tures
Ġll an
Ġrud der
Ġmack enzie
Ġlaugh ing
Ġlans ing
Ġmedioc re
k al
Ø §
Ġs ik
Ġm ural
id us
Ġus ur
Ġdes ires
Ġ17 00
Ġra ider
Ġhouse w
Ġdesp air
Ġmer maid
Ġbur sts
Ġsus que
Ġcorps es
Ġbord ered
Ġcolor ful
Ġca ul
Ġlog ging
Ġram sey
Ġbell a
Ġscar borough
Ġbj Ã¶r
Ġtroph ies
Ġs ass
Ġs ach
Ġc act
Ġst ow
Ġch ie
ra f
Ġcar men
Ġcap su
ris ons
Ġstat ure
Ġaff irm
Ġbur row
Ġarg on
Ġcompet ent
Ġmot te
Ġmad ame
Ġbay on
Ġring o
Ġreact ors
Ġkim ber
Ġmes opotam
Ġgy m
Ġconvey ed
Ġvow el
Ġhij ack
erse ys
Ġlanth an
Ġcapsu le
k owski
m ie
n ected
Ġin let
Ġre wards
ut ant
Ġpl un
ib or
Ġpe e
Ġ7 20
Ġwork force
Ġdo o
olog ic
Ġav i
Ġshort est
Ġvo ter
Ġident ities
light s
Ġnecess itated
Ġsnow fall
Ġentr ances
Ġcook ed
Ġsid el
Ġreef s
Ġaus chwitz
Ġbw v
Ġibra him
n om
w ave
Ġc z
Ġn ou
Ġun imp
Ġ20 9
Ġbu ch
ug a
Ġlar s
Ġtrans itions
Ġpublic ized
Ġhum idity
ops y
Ġneed le
Ġtechn o
Ġpur ity
Ġassemb le
Ġreplac ements
Ã¤ r
ĠÎ ´
Ġmah ler
Ġorb iting
Ġfried man
Ġchen nai
Ġthorn ton
Ġcouncill ors
Ġresent ment
Ġdiscont ent
Ġfatig ue
Ġbuccane ers
Ġluxemb ourg
Ġpleist ocene
e ck
x i
an j
Ġd oses
Ġh ints
le ments
Ġst ree
ab outs
Ġshe tland
Ġdis asters
Ġsl ick
Ġmor row
Ġer as
Ġ23 8
Ġaer os
Ġmonument al
Ġboss es
opter a
Ġpropon ents
Ġwilf rid
Ġasym met
c rew
y ar
Î º
Ġl ively
Ġre ele
am eric
im ar
Ġj od
Ġpro k
Ġy ong
Ġfir th
Ġcont amination
Ġsp ru
Ġus eless
be g
Ġsal ts
Ġvo or
Ġimportant ly
Ġcontain er
Ġhind ered
Ġbah Ã¡
Ġcoc aine
Ġweigh s
Ġadul thood
Ġjub ilee
Ġsmithson ian
t u
u er
Ġp ills
Ġg t
Ġth igh
ab is
Ġcol ogne
rap h
Ġfore head
Ġdifferent ial
Ġfrequ encies
Ġlay ered
Ġfavor ites
Ġca en
Ġpig e
Ġmol ars
Ġveget able
Ġcartoon ist
Ġpossess ing
Ġsara jevo
Ġclut ch
3 3
Ð »
Ġc ds
Ġd are
Ġon ward
Ġk uch
Ġcom o
Ġsh ine
ĠâĢ ł
Ġher mit
Ġlocal ization
Ġec u
Ġpen is
Ġdoctor ate
Ġgene al
Ġvalid ity
Ġrevel ations
Ġsg t
Ġsene ca
Ġnarc iss
Ġtrit on
Ġt ann
ed ience
Ġp to
as ium
Ġg add
ay ne
Ġde eds
Ġde gradation
Ġsh at
Ġbl ink
Ġma ud
Ġgre ed
Ġir vine
Ġfar rell
Ġsound sc
Ġrobert o
Ġdomin ic
Ġtank er
Ġrhy me
Ġwhit man
Ġhyp n
Ġbyzant ium
Ġ73 7
Ġthunder birds
Ġjen ner
Ġloyal ist
Ġnotice able
Ġvern acular
Ġathen ians
Ġnoct urnal
Ġpiz za
r one
Ġt f
Ġa ve
re a
Ġu h
Ġse oul
ag han
ill us
Ġun pa
Ġshe en
ons hire
Ġsch l
Ġz oe
Ġmil ford
Ġadv isers
Ġsqu ares
Ġrepl ic
Ġinj ection
Ġnar uto
Ġcompl aining
Ġhands ome
Ġ54 0
Ġ177 9
Ġdistingu ishing
Ġmarc eline
Ġ68 0
Ġcul ver
Ġtransp arent
Ġpard on
Ġp ett
Ġl id
Ġg ome
Ġhe els
Ġch r
ag ar
ant ine
Ġpr er
Ġadd ict
Ġel is
Ġaward ing
che t
Ġtro ll
Ġpopular ized
Ġrich ie
Ġnar ration
Ġmac ro
Ġpurch ases
Ġresc ues
Ġbrand enburg
Ġ166 0
Ġyes ter
Ġbalk an
Ġtard is
Ġgilm our
Ġpige ons
o os
on o
Ġg age
Ġr Ã¶
Ġnot or
ok o
ang s
Ġso y
Ġbro ws
Ġjun o
Ġbar ris
Ġsk ins
Ġmot ions
Ġcreat ivity
umb ling
tt i
Ġgot ten
Ġaw ful
Ġrid den
Ġ76 7
Ġvent ilation
itt i
Ġobst acle
Ġgem ini
Ġune ven
Ġdeton ated
Ġcig arette
Ġeps ilon
Ġiroqu ois
b led
p ack
Ã ¬
Ġs Ã©
Ġhe ctor
Ġj ockey
Ġro ch
ant a
Ġab el
Ġte c
Ġhel s
Ġsk iers
Ġcast e
Ġ23 2
Ġcirc uits
Ġhost ages
Ġbeat rice
Ġintens ifying
Ġyard ley
Ġreluct ance
Ġsubsid ies
Ġnurs es
Ġspit fires
Ġweakness es
Ġaristocr atic
m ast
Ġt aped
Ġf use
Ġl up
Ġch airs
pp o
Ġres ide
ire z
Ġmus ket
ath ing
Ġport fol
aim an
Ġprop riet
Ġcoll oqu
Ġze us
Ġdelay ing
Ġrud olf
Ġanaly st
Ġlawsu its
Ġrejo in
Ġchet nik
Ġprophe cy
Ġreli ability
e ous
Ġk ern
Ġpr at
Ġph i
Ġdr unken
ank ing
Ġmat ric
Ġob ey
Ġve ins
Ġbow man
Ġsam pling
sc reen
Ġburn ley
Ġweight s
Ġspect acle
Ġcompar ative
Ġmud dy
Ġinterf ered
Ġprofession ally
Ġantib ody
Ġblame y
Ġintend s
d orf
Ġc ork
ak an
Ġbr akes
Ġball ard
Ġcou rier
ios ity
Ġthr ill
Ġwa ist
nam ara
Ġmort ars
Ġmand ela
Ġtransition al
Ġprol ogue
Ġbast ion
Ġhort on
Ġnarr atives
Ġprer og
r ish
u per
Ġw int
Ġw erner
Ġb k
Ġb aird
Ġe ad
Ġal p
Ġam man
Ġbl iss
Ġimp art
Ġsl ovak
Ġsl ovakia
Ġball room
Ġban quet
Ġrow an
Ġram irez
Ġbc s
Ġremark ing
Ġporn ography
Ġkrie gs
Ġfrankf urt
he id
Ġh ats
Ġn ug
am o
Ġis t
if ix
Ġsc ent
Ġser ver
Ġfilm ography
Ġfilm fare
Ġgr ams
Ġdesign ations
iam en
up s
Ġ21 7
Ġshot gun
Ġrefle ctions
ãĤ ¹
Ġtrou pe
Ġjes uit
Ġstall ion
Ġbotan ist
Ġcald well
Ġobit uary
Ġwain wright
g re
É Ķ
Ġ Äį
Ġd aring
ent in
ac ruz
ad ors
Ġv t
Ġrev ital
Ġsim mons
Ġmain line
Ġbar ges
Ġla e
Ġmer lin
Ġroyal ties
Ġesc orts
Ġban ana
Ġtall er
Ġhyp ot
Ġcalc utta
Ġdisappe ars
Ġsig ma
Ġflex ibility
Ġmanifest o
Ġvert ically
Ġextrater restrial
Ġo le
Ġh inted
ad der
Ġst ard
Ġj i
Ġk ink
Ġall iances
Ġco en
Ġcol er
Ġcent enary
Ġpar v
Ġpar ameters
Ġmon ter
Ġrecord er
Ġinform ing
Ġgreen house
uk u
Ġabandon ment
Ġtree house
Ġrod den
Ġattrib ute
Ġcorrespond s
Ġshr ub
Ġshear er
Ġmack ay
Ġaqu ed
Ġfemin ism
Ġpetition ed
Ġamphib ians
Ġdiscour se
Ġassign s
Ġescal ated
Ġconsort ium
Ġcatast rophic
Ġrework ed
Ġurugu ay
ay ing
Ġch assis
est own
Ġbo on
Ġcar ic
Ġcor ros
Ġrom a
Ġmo ose
Ġannoun ces
Ġcontract ors
Ġjose f
Ġpath way
Ġ177 4
Ġshock ing
Ġsi han
Ġzh ou
Ġmarqu is
Ġlandsl ide
Ġniss an
Ġrapt ors
Ġpect oral
Ġphara oh
s ka
Ġt ile
Ġa ure
Ġw akes
Ġb n
Ġb iod
Ġm ersey
Ġit er
Ġpe ppers
Ġsch ul
Ġinv ite
Ġdiv as
Ġang us
Ġsum s
Ġfree ze
Ġ28 5
Ġpal my
Ġbrother hood
Ġbat avia
Ġlu zon
Ġdw ind
Ġkel ley
Ġgill igan
Ġdeterior ating
Ġprostit ute
Ġconfess es
Ġshowc ased
Ġanter ior
Ġt j
in ate
Ġe ats
Ġu ter
Ġy acht
Ġun int
Ġher ring
ough ton
Ġver acruz
Ġed ged
Ġinc urs
Ġstr ains
Ġfam ously
Ġbar ns
Ġbest owed
Ġroyal ists
Ġhill ary
Ġren Ã©
Ġapproxim ate
Ġolymp us
Ġos s
Ġod or
Ġcontroll ers
Ġapplic able
Ġkat ie
Ġconstitu ent
Ġreich s
Ġflour ished
Ġboot leg
Ġchim ney
Ġnd h
ĠkÃ¶n ig
Ġmetabol ism
Ġthres hold
Ġinaccur ate
Ġgome z
m akers
Ġf ade
Ġf ielder
al om
Ġg j
Ġg us
Ġch ips
od ic
Ġor icon
Ġam trak
Ġcre ed
Ġfinal ized
Ġsw arm
Ġra e
Ġcal houn
Ġ22 9
Ġpopular ly
Ġwood stock
Ġliter al
Ġdun es
Ġic ons
Ġcool ed
Ġpig ment
Ġflank ing
Ġmeg ad
Ġeman uel
Ġbeau champ
Ġchet niks
Ġprefect ure
Ġascend ed
Ġtorrent ial
h off
p se
ad t
Ġbe acon
Ġan ark
Ġun ification
Ġup beat
Ġcal ig
Ġstand out
ator ium
Ġ22 8
Ġbab e
Ġpoll en
Ġmis ch
Ġcruc ifix
Ġnavig ate
Ġneuro l
Ġultr av
Ġsihan ouk
j av
Ġs b
Ġf ancy
ar an
Ġst en
oc l
Ġfin ite
Ġpar ry
Ġsa fer
Ġdef ens
Ġlab yr
Ġru pt
Ġmel ted
Ġemerg es
Ġund oub
Ġnames ake
Ġbott les
Ġcorre cted
Ġrub ble
Ġwreck age
Ġeval uate
Ġcaps ized
Ġunrel iable
Ġhots pur
Ġindefin itely
Ġostens ibly
Ġnorther ly
t ings
w ara
Ġhe el
Ġch ong
Ġex che
Ġun lo
Ġmat hew
Ġpop ulous
ae an
Ġspecial ised
Ġstri pe
Ġmal one
Ġemp ir
Ġcm ll
Ġbra at
Ġhero in
Ġpin fall
Ġoak ley
Ġgang ster
Ġnic he
Ġdetect ives
Ġcaf Ã©
Ġilleg ally
Ġexacerb ated
z ep
Ġp estic
Ġd ab
as im
Ġn ero
Ġg ing
Ġad ren
Ġsp anned
Ġgu nd
Ġship w
ik en
Ġgun ner
Ġorgan ising
Ġsuper c
Ġconv ent
Ġbi ographies
Ġmust aine
Ġrecogn izable
Ġpast oral
Ġol ig
Ġimm ature
Ġdv ds
Ġpros pective
Ġevangel ical
Ġrhet oric
Ġundoub ted
Ġexche quer
f our
Ġp ang
Ġg aut
el man
Ġro ost
Ġend ings
Ġcr ushing
Ġant agon
Ġir ons
Ġpra ises
Ġfant as
Ġrid d
Ġund is
Ġdun k
Ġrab aul
Ġnag asaki
Ġcoordin ates
Ġrecept or
Ġassert ing
Ġorchestr ated
Ġape x
Ġunac cept
Ġkaf ka
Ġrodden berry
c ote
v il
Ġ urn
Ġc g
Ġf ries
Ġp yr
Ġm ish
es que
Ġch app
un i
art en
Ġtr iv
Ġsc av
Ġte j
Ġ20 20
Ġph all
Ġlit igation
lin er
wer p
Ġconsist ency
Ġunp red
Ġsor or
Ġincom pet
Ġadvoc ating
Ġprosper ous
Ġcomr ades
Ġyester day
Ġlabyr inth
Ġcl ones
Ġher ds
Ġsp aced
Ġper ished
Ġres idency
Ġel ton
ony ms
Ġpress ured
Ġinj uring
ÃŃ s
Ġrepe al
Ġminim ize
Ġoak s
Ġfisher y
Ġnerv es
Ġhast ily
Ġspor adic
Ġskelet al
Ġmathematic ian
Ġunse en
Ġblizz ard
j et
m ars
Ġs orts
Ġl ull
el iness
Ġfor age
ge an
Ġup hold
vel ope
ning ton
Ġexp ulsion
Ġmillion aire
Ġche e
Ġpost ure
Ġfar n
Ġmo ors
ham pton
Ġearl s
Ã¡ ndez
Ġclos es
Ġsquare pants
pr ints
Ġdar ryl
Ġtransform ing
Ġutil ize
Ġconsc ription
Ġstem med
Ġloan ed
Ġinteract ing
Ġwiz ards
Ġfract ured
Ġcontend ers
Ġrememb ers
Ġunfav orable
Ġfoli age
l ius
Ġg own
Ġex ited
Ġsp ill
Ġi od
Ġpr ud
Ġspe e
Ġloc ker
Ġnat asha
Ġtor o
Ġbal c
Ġlat itudes
Ġ- -
Ġsteam ship
Ġ52 0
Ġspect ator
Ġflu x
Ġaccompan iment
Ġpy g
Ã« l
Ġrepet ition
Ġhond a
Ġlumin osity
Ġcripp led
Ġs ot
Ġc ues
Ġb ors
as ki
Ġh ain
Ġl h
Ġl ining
Ġat kinson
Ġne ared
ast e
Ġen velope
ace ut
Ġbl ows
Ġeng ra
Ġmon olog
Ġel sa
Ġche et
Ġposition ing
Ġrepl ies
augh ty
Ġhistor ia
Ġexec utions
Ġnar rated
Ġalex ios
Ġcub e
Ġmeaning ful
Ġtrust ee
mark ed
Ġbrid g
Ġpel op
Ġdiscip lines
Ġfurn ace
Ġrosen berg
Ġpawn ee
Ġincap able
Ġtatt oo
Ġfilip ino
or ously
st y
Ġhe zb
Ġan sel
Ġar ising
Ġcl itor
ra pe
Ġco ats
Ġest onia
Ġmag na
Ġwater ways
Ġ24 9
Ġconv ict
Ġcred ibility
Ġoccup ants
Ġcool idge
Ġmurd och
Ġaggreg ator
Ġheir s
Ġdioc let
Ġunemploy ed
Ġcease fire
Ġoutsp oken
Ġt uc
Ġto re
Ġn ail
Ġse k
qu ito
Ġmar ches
Ġi q
Ġback ward
Ġjust inian
Ġju xt
get s
Ġtit ans
Ġled ger
Ġer ad
Ġcle ments
Ġsent in
Ġaud itions
Ġgard iner
Ġcollabor ate
Ġsust aining
Ġwel ch
Ġsor cer
Ġcrus ader
Ġdeterior ation
Ġspo of
Ġsentiment al
Ġlut on
Ġpus an
Ġgrab bed
Ġoryz omys
Ġsavanna h
Ġdioclet ian
Ġs Ã¡n
Ġp au
Ġp anned
Ġd ared
ic able
Ġre ctor
ad ar
od ian
Ġun equ
Ġhad n
Ġdef unct
Ġter rific
Ġdisc ern
ah aw
Ġtop ography
Ġant werp
Ġhand el
Ġgrand daughter
Ġwood lands
Ġnorthern most
Ġbridge head
Ġenc ore
Ġmention ing
Ġbol ster
Ġlind en
Ġtransform s
Ġacknowled ging
Ġthorough bred
Ġhammer stein
Ġdop amine
Ġpled ge
Ġbefriend ed
Ġree ves
Ġsloven ia
Ġcutsc enes
Ġunpred ict
ĠsÃ¡n chez
3 6
v ir
Ġin sec
Ġl oth
Ġl illy
st ant
oc les
pp ard
ond a
Ġpar c
Ġmin ed
Ġimp ly
ull ah
Ġnight ing
Ġlim a
Ġmot ive
ĠÃ ¾
Ġliber ated
Ġtal iban
Ġchem ist
osaur ids
Ġconsult ation
Ġtum or
Ġmiddles brough
ÅĦ ski
Ġastronaut s
Ġinterl ude
Ġdeuts ch
Ġregul atory
Ġchev ro
Ġintric ate
Ġneum ann
Ġmegad eth
Ġultrav iolet
en i
Ġp are
Ġin gl
Ġin equ
Ġl ill
il and
st airs
Ġwh aling
ell ular
Ġsc aled
Ġte ens
Ġter rier
Ġstate wide
Ġconc ussion
Ġgl adi
Ġorgan izers
hen y
Ġce phal
Ġbrig gs
Ġjul es
Ġvac ated
Ġscul pted
Ġattor neys
Ġmagist rates
Ġperipher y
Ġhezb ollah
a en
j in
am ore
od rome
Ġun he
ast ing
Ġrem edy
aus ible
Ġel gar
omin al
Ġbody guard
Ġbusiness men
Ġiv ory
Ġspl ash
Ġrod ents
Ġtam ar
Ġcul p
Ġphilip pe
Ġye oman
Ġinver ted
Ġapprent ices
2 2
k omm
Ġt Åį
is al
Ġh ott
iv ities
Ġy emen
Ġcan oe
Ġcount ess
Ġwin throp
Ġprov ocative
anc a
Ġoct opus
Ġbelie v
Ġrock star
Ġbeh ave
Ġread iness
Ġgar risons
Ġlu igi
Ġassemb lies
Ġdar ling
Ġtu ition
Ġkl aus
Ġgent ry
Ġbehavi ors
Ġhog g
Ġtill man
Ġpp v
Ġnept un
Ġgoeb bels
Ġdisqual ification
Ġbarric hello
e aux
ow ay
ag le
Ġmar oon
Ġbr ighter
Ġver a
Ġsm ythe
Ġexc use
Ġestablish ments
Ġsched uling
Ġdub rov
Ġbishop ric
Ġsight s
Ġdiet ary
Ġsustain ability
Ġmarqu ess
Ġalk ali
Ġvolunt arily
Ġpatroll ed
Ġrecapt ured
Ġskelet ons
k ick
o ter
Ã ®
Ġb auer
at io
Ġp f
Ġd ocked
ic ultural
Ġn ant
Ġg p
Ġr c
ag os
Ġne at
Ġres et
Ġag n
Ġdis se
Ġgall and
Ġstephen son
Ġstock port
Ġfear less
Ġmis f
Ġsens es
ãĤ ¤
Ġ91 0
Ġhenri k
Ġlobby ing
Ġspont ane
Ġflaw ed
j ans
v ald
ct on
et own
Ġex ert
Ġqu asi
Ġnorth ampton
Ġste pping
Ġgroup ing
Ġbuild ers
Ġ21 6
Ġtar ant
Ġpick ett
Ġluc ia
Ġtowns hend
Ġindu ce
Ġ98 0
Ã¼r st
Ġhann ibal
Ġdepress ions
Ġreloc ate
Ġtoul on
Ġdisg ust
Ġhammers mith
Ġgraff iti
Ġwaff en
4 7
p ill
p ark
Ġs val
Ġg ed
Ġr ica
ch ool
Ġk ali
Ġro pes
Ġun opp
Ġco herent
Ġpar odied
Ġinc is
Ġmod elled
Ġge ared
Ġcommand ant
Ġdet ain
Ġaff iliation
Ġlib el
Ġjew ellery
Ġrein v
Ġkar ma
Ġmut ant
Ġori oles
Ġaggress ively
Ġ176 0
Ġconspir ators
Ġrena ult
Ġrecapt ure
Ġjuxt ap
a ise
Ã ½
Ġc b
Ġd ief
Ġn ib
Ġn ih
Ġan gr
Ġar ched
Ġinc ar
Ġvol atile
Ġpal aces
Ġfund ament
Ġcompl iance
Ġwound ing
Ġmos ley
Ġmand ated
Ġmyster io
Ġot is
Ġshr ubs
Ġkal am
Ġrib s
Ġpond s
Ġbam boo
Ġstam ford
Ġawak ening
Ġarche ty
Ġalge bra
Ġunopp osed
j ak
Ġt ipp
or b
or ax
Ġm ce
Ġe uk
Ġst av
im us
et es
Ġj elly
Ġk ob
um er
ge nder
Ġsc orp
Ġen raged
Ġmar i
Ġfl ocks
Ġpos es
ier i
ah i
Ġsouthern most
Ġenc ro
Ġrob es
Ġliver y
Ġvul gar
Ġbulk heads
Ġfo ley
Ġyield s
Ġfasc inating
Ġproc ure
Ġgymn asium
Ġcovent ry
ocyt es
Ġadorn ed
Ġpivot al
Ġkriegs marine
Ġbraat hens
Ġchevro let
Ġdief enb
i ov
t op
Ġb ump
ren ts
Ġbatt ling
Ġcross ings
Ġmass ac
Ġcomment aries
Ġiron ic
Ġdun ham
Ġram on
Ġpsych o
Ġsens ational
Ġsant o
Ġsund ays
Ġrub in
rad ar
Ġnik ki
Ġdesper ately
Ġhod g
Ġforc ibly
Ġkram er
Ġappalach ian
Ġdiefenb aker
g um
Ġt ires
Ġp anch
ch o
Ġj ared
Ġk olk
Ġrec ipe
Ġoff ences
Ġout comes
Ġind ist
Ġbr onc
Ġcar v
Ġmin ig
Ġste ered
Ġcontin ents
ful ness
Ġschool ing
Ġeconom ist
Ġstephen s
Ġdoub ling
Ġpul mon
Ġsin ister
Ġreun ite
Ġpatt y
Ġshak ur
Ġreorgan ization
omorph ic
Ġlongitud inal
v ation
Ġt ama
Ġt utor
Ġa il
Ġb ok
Ġm ama
Ġg ator
ir y
ut able
Ġis th
Ġk ors
Ġv ista
ld on
Ġro che
Ġtr ich
Ġab st
Ġab ort
Ġsp ikes
Ġper cept
Ġbr ant
Ġgr ains
Ġeas terly
Ġdu ly
Ġsn iper
writ ers
Ġdyn ast
Ġpsych ic
Ġ178 2
Ġreinforce ment
Ġbypass ing
Ġfasc inated
Ġfert ility
Ġhil ary
Ġrah man
Ġinsist ing
Ġoversee ing
Ġnons ense
Ġdubrov nik
Ġf eld
Ġtr un
Ġcl amp
cl ock
Ġall oc
Ġwe aving
pl an
pl ain
ll i
Ġz hu
Ġdiv es
iet al
Ġdown fall
Ġintern ed
Ġ25 5
Ġmor i
Ġsan ctions
enth al
Ġemb ank
Ġqual ifications
Ġhaw ker
Ġbound ed
Ġbatter ed
Ġshare holders
Ġunp ro
Ġpref ace
Ġhindu ism
Ġrestr aint
Ġinvas ions
Ġcoden amed
Ġalbat ross
3 9
f Ã¼hrer
k kinen
Ġ Ë
Ġs asha
re hend
Ġf ost
or io
Ġd azz
Ġh ilton
Ġem pl
Ġdef iciency
Ġset list
Ġob verse
ob o
Ġer ich
Ġsum ner
Ġpain e
Ġpan hand
Ġund es
Ġwrest led
Ġdar lington
Ġquestion able
Ġcrown s
Ġshr ines
Ġscr ub
Ġfortress es
Ġdenn y
Ġlag una
Ġbeth le
Ġgast ro
Ġphosph ate
ĠâĻ ¯
Ġdenomin ations
Ġceram ic
Ġganes ha
Ġrevis ited
Ġlump ur
Ġsabot age
ĠmÄģ ori
Ġcancell ara
Ġpto le
Ġt su
Ġw ur
Ġre claimed
and um
se au
ie gel
Ġunder parts
Ġver di
Ġgre tz
Ġmilit ants
Ġlog ar
Ġheight ened
Ġvari ables
Ġcorre ction
Ġ74 0
Ġbright est
Ġdress es
Ġpull s
Ġrud d
chang ing
Ġpic nic
Ġspar ks
Ġdil em
Ġfing leton
Ġencompass es
Ġana heim
Ġtibet an
Ġyah oo
Ġinsign ia
ĠhÃ¤ kkinen
Ġt ess
er man
an elles
Ġth rom
ac er
ad as
et z
Ġal ias
Ġex iting
Ġcl aw
cl assic
Ġman zan
Ġdis abilities
Ġcent aur
Ġcap ita
Ġbar re
Ġref itted
Ġ25 2
Ġsum med
Ġmal m
Ã¡ d
Ġtext ures
Ġwhit lam
Ġmol ar
Ġrp m
Ġbeng ali
Ġkidn apping
Ġaub rey
Ġmyst ical
Ġmetab olic
Ġhaun ting
Ġscandin avia
Ġpharm aceut
Ġarbitr ary
Ġundis closed
Ġc ute
Ġp ets
es ter
Ġand rom
Ġg ild
Ġr ims
Ġcomp ressed
Ġrec olle
Ġfl ute
Ġdem obil
Ġsuper ficial
Ġlow lands
Ġcover t
Ġfield ed
Ġmad h
itar ies
Ġwal ters
Ġunl ocked
Ġtall on
Ġcrest ed
Ġparam il
Ġconsolid ation
Ġconsolid ate
Ġae gean
Ġjor ge
Ġtoil et
z ef
Ġb ites
Ġan onym
Ġk orn
Ġsch u
Ġrece ivers
Ġla x
Ġsqu ee
Ġhum ber
Ġx avier
Ġsol os
Ġtest ify
Ġinj ust
Ġrap h
Ġbat ters
Ġsir ius
Ġlog istical
Ġay y
Ġproport ional
Ġburial s
Ġrecept ors
Ġcrust aceans
Ġhazard ous
Ġcement ed
Ġgoeb el
Ġdefect s
Ġlyd ia
Ġnighting ale
Ġsval bard
Ġangr ily
Ġincar cer
Ġbethle hem
r b
r iver
Ġw ÅĤ
Ġc ared
Ġhe pat
Ġr ite
ay as
Ġsh ab
Ġam using
oll s
Ġpe ach
Ġserv ic
Ġje ter
Ġrecomm issioned
Ġbron x
Ġsummers lam
Ġcommence ment
Ġmorm on
Ġpab lo
Ġsemes ter
f ig
Ï Į
Ġn ah
Ġg ail
Ġg Ã¼
Ġfor ged
ut ic
Ġse ph
Ġse izing
Ġor t
Ġoff season
Ġrep uted
Ġreg roup
Ġsch n
Ġz appa
Ġra ff
Ġmag nes
che ns
aff ected
ĠÂ ¥
Ġmilit ant
Ġ21 2
Ġprogram med
Ġbur gh
Ġfront man
Ġround about
Ġredu nd
Ġmas ked
Ġvan ity
Ġdeterm ines
Ġdirection al
Ġmos quito
Ġfat im
Ġmile y
Ġry der
Ġspin ner
Ġcondition ing
Ġkne es
Ġdaw la
Ġbib li
Ġclap ton
Ġstaun ch
k ap
r t
w ski
Ġ |
Ġm apping
Ġto d
Ġg ently
Ġwh igs
th ia
est ones
Ġout set
Ġbl oss
Ġqu inc
ful l
ys ÅĤaw
gr av
Ġgre gg
Ġcy ril
Ġcertain ty
Ġrefle ctive
Ġhus sein
Ġmort imer
Ġeliz a
Ġlis zt
Ġwag ga
Ġbun ny
Ġdict ated
Ġstyl ized
Ġpreval ence
Ġshout ing
Ġtyrann osaurus
ĠkÃ¶n igs
Ġunderm ined
Ġforerun ner
Ġreclass ified
Ġbronc os
l und
y der
on er
Ġp oc
Ġn ansen
Ġre inc
ant ically
Ġab used
Ġli am
Ġsa unders
Ġdr astically
Ġhand ing
inc hed
Ġros em
Ġca vern
Ġbab a
Ġsle pt
Ġcell o
Ġsens ibility
Ġlic enses
Ġutil izing
Ġsib elius
Ġgoth am
ele ctric
Ġhoney e
Ġandre as
Ġfrances co
keep ers
Ġdad dy
Ġgonz Ã¡
Ġincons ist
Ġuplo aded
Ġchie ft
n ity
Ġc ess
Ġf ia
Ġl una
ad ia
Ġst acy
Ġr f
Ġint entional
Ġco el
Ġsim ulated
Ġmod ify
Ġcor ro
Ġshort stop
Ġmark ham
Ġ26 2
Ġsele ctors
Ġsepar ates
Ġale ppo
Ġpeter borough
Ġq a
Ġentr usted
Ġpoly mer
Ġbot any
Ġpoison ed
Ġovers ight
Ġruth less
Ġrus hes
Ġdispers e
Ġorch ard
Ġmascul ine
Ġviad uct
Ġsidel ined
ĠgonzÃ¡ lez
Ġs ain
Ġb ov
Ġm ald
ar as
Ġn uts
Ġsc ared
Ġman gan
Ġme e
Ġfl ock
Ġlo xton
ene uve
Ġche ers
by n
ott o
Ġprop ri
Ġjud a
Ġcolon ization
Ġwil kes
Ġdig its
Ġrevolution aries
Ġpin ch
Ġsurvey or
Ġsusp ense
Ġsatisf actory
Ġdangerous ly
Ġdiplom acy
Ġtast es
Ġfrust rating
Ġarist otle
Ġcomprom ised
Ġchore ographer
Ġanders en
Ġrestr ained
Ġundoubted ly
o in
Ġc oss
Ġb ids
Ġf iber
at ism
ot ech
ag in
Ġform ulated
Ġav id
Ġrest s
ĠÂ §
ple x
Ġlower ing
Ġalex is
Ġ32 5
Ġiron ically
Ġgra f
Ġsad d
omy c
Ġstro kes
Ġpant her
Ġnomine es
Ġmoz art
Ġellip tical
Ġhedge hog
Ġcaud al
ogly ph
Ġgretz ky
r ador
Ġb p
Ġp elle
Ġcon ject
Ġcon tended
Ġsh ik
Ġpl agi
te au
ond ition
Ġim b
ath us
Ġli ability
Ġhar lan
Ġfle es
Ġsun rise
Ġthr ash
ograph ically
writ ing
Ġclar inet
Ġgib bons
Ã¸ y
bro ken
Ġrecall ing
Ġencompass ing
Ġmarx ist
Ġcauc as
Ġvisc ount
h uman
i ating
l io
Ġt and
Ġk athy
os cop
av is
Ġint u
Ġshow runner
Ġconst r
Ġfam itsu
Ġdet ract
Ġwild er
Ġsyn onymous
Ġpath ways
Ġmetropol is
Ġhob by
Ġmanip ulation
Ġannoy ed
Ġdl c
Ġjewel ry
Ġrefurb ished
Ġdrac ula
Ġsusque hanna
k ets
Ġa ol
ion age
Ġn il
Ġg ou
id uous
Ġj avan
Ġfam ed
Ġ21 1
Ġpur d
Ġos borne
Ġot ters
Ġdiagn ostic
Ġschmid t
Ġimpr int
Ġanark y
c omb
p arents
u aries
Ġa ali
ar um
Ġe wing
Ġth ru
ch rist
Ġv all
Ġtim ed
Ġrec uper
Ġgame pro
Ġpos ing
Ġsch ooner
Ġcr ashing
Ġant an
Ġord ained
Ġwood ward
Ġchap lain
Ġ32 2
Ġspring steen
Ġdrum ming
Ġpurs u
Ġadj utant
Ġunf old
Ġintegr ate
Ġlen o
Ġmim i
Ġnect ar
Ġthe res
Ġm iser
Ġwe instein
ib u
Ġpres iding
Ġsl ap
ivers ity
Ġeast wards
Ġmark ers
Ġche ating
Ġblack m
Ġorgan ise
Ġsn yder
Ġconcent rating
Ġreign s
Ġbol ivia
Ġpy thon
Ġsid d
Ġcob alt
Ġstere otype
Ġlor is
Ġchal uky
Ġdissatisf action
Ġsolic itor
inty re
Ġdard anelles
Ġbalc ony
5 6
l ace
Ġch atham
ap ul
ak o
Ġres h
ff er
Ġap ache
Ġgr apes
Ġgovern orship
Ġnational ity
Ġlab rador
Ġstri fe
Ġsun s
Ġhelp ful
ett led
Ġgro oves
Ġtun ing
Ġsle a
Ġcold play
Ġgrey hound
Ġ175 8
Ġabd ominal
Ġerr atic
Ġdispers al
Ġãĥ »
Ġsne ak
Ġengr aved
Ġnell ie
h ang
Ġw ary
Ġp ork
Ġp oured
ig or
ok ovic
Ġme ck
Ġfl an
Ġste g
Ġclass room
ik os
Ġdirect ive
Ġpark inson
Ġhum e
Ġsuper iors
Ġ23 4
Ġburn ett
zz o
Ġ76 0
Ġhear st
Ġsight ing
Ġdj okovic
Ġdisturb ances
Ġpic cad
Ġanchor age
vol ent
Ġrans om
Ġeuk ary
Ġaali yah
g reen
Ġw ich
Ġc ough
Ġf y
Ġm ord
ou in
Ġsp ies
Ġav ro
Ġarch du
Ġvol ks
Ġvill eneuve
Ġgrand children
Ġpac ing
Ġcann abis
ien cies
uff ed
Ġstrateg ically
Ġfan ning
Ġ51 0
Ġrug ged
Ġdiscip les
Ġay les
Ġacceler ation
Ġhier oglyph
Ġposter ior
Ġcataly st
Ġrall ied
Ġdynast ies
g ement
or ical
Ġm oy
Ġg om
Ġbe eth
Ġfor s
Ġro ther
Ġrec omb
ne il
Ġma res
Ġpers pect
Ġhar rier
Ġhead lines
Ġpa ige
Ġbur ge
Ġmodern ist
ara ja
Ġreb irth
Ġbi ochem
Ġder ive
Ġnovel ty
Ġscreen ings
Ġbuy ers
Ġidol ator
Ġvass al
Ġapocaly pse
Ġsubdu ed
Ġpiccad illy
s sel
t re
Ġo u
or ah
Ġm Ã©t
Ġg is
Ġr ave
Ġr ÃŃ
Ġwh al
ign on
Ġwe is
Ġplay ground
Ġco e
Ġpr iced
Ġchar iot
Ġfr ing
Ġleg ions
Ġmemb ranes
Ġchrist church
Ġsit a
Ġexc urs
Ġtermin ator
Ġsens ory
Ġ178 4
Ġadap ting
Ġproduct ivity
Ġswit ches
Ġmol t
Ġforb ade
Ġesp ionage
Ġswing ing
Ġxx x
Ġgorge ous
Ġfuck ing
Ġsew age
Ġhandic ap
Ġmahar ash
Ġrez nor
Ê Ĭ
Ġas ex
ber gh
Ġar af
Ġcl ocks
ass a
Ġmar red
Ġsub com
Ġexp ands
Ġbar bed
uss en
Ġexpl ode
Ġmor se
Ġdifferent iate
Ġson ata
Ġactiv ate
Ġplot ting
Ġspot nitz
Ġbright ness
Ġacid ic
Ġunp ubl
Ġtempor al
Ġassert ion
Ġsut cliffe
Ġá ¼
Ġkra jina
Ġwand ering
Ġsecre cy
Ġmugh al
k le
Ġt au
Ġt eng
Ġb ounce
ou pe
st ra
st ood
Ġpro jections
Ġsh p
Ġy p
art y
Ġun pleas
ast ics
Ġpre aching
Ġel ena
Ġroad ways
Ġgl ove
Ġoriginal ity
Ġlocal ity
Ġve il
Ġball ots
Ġbow en
Ġfleet wood
[...]
