{"<pad>":0,"<s>":1,"</s>":2,"<unk>":3,"<mask>":4,"!":5,"\"":6,"#":7,"$":8,"%":9,"&":10,"'":11,"(":12,")":13,"*":14,"+":15,",":16,"-":17,".":18,"/":19,"0":20,"1":21,"2":22,"3":23,"4":24,"5":25,"6":26,"7":27,"8":28,"9":29,":":30,";":31,"<":32,"=":33,">":34,"?":35,"@":36,"[":37,"\\":38,"]":39,"^":40,"_":41,"`":42,"a":43,"b":44,"c":45,"d":46,"e":47,"f":48,"g":49,"h":50,"i":51,"j":52,"k":53,"l":54,"m":55,"n":56,"o":57,"p":58,"q":59,"r":60,"s":61,"t":62,"u":63,"v":64,"w":65,"x":66,"y":67,"z":68,"{":69,"|":70,"}":71,"~":72,"¡":73,"¢":74,"£":75,"¤":76,"¥":77,"¦":78,"§":79,"¨":80,"©":81,"ª":82,"«":83,"¬":84,"®":85,"¯":86,"°":87,"±":88,"²":89,"³":90,"´":91,"µ":92,"¶":93,"·":94,"¸":95,"¹":96,"º":97,"»":98,"¼":99,"½":100,"¾":101,"¿":102,"Â":103,"Ã":104,"Ä":105,"Å":106,"Æ":107,"Ç":108,"È":109,"É":110,"Ê":111,"Ë":112,"Ì":113,"Í":114,"Î":115,"Ï":116,"Ð":117,"Ñ":118,"Ò":119,"Ó":120,"Õ":121,"Ö":122,"×":123,"Ø":124,"Ù":125,"Ú":126,"Û":127,"Ü":128,"Ý":129,"à":130,"á":131,"â":132,"ã":133,"ä":134,"å":135,"æ":136,"ç":137,"è":138,"é":139,"ê":140,"ë":141,"ì":142,"í":143,"ï":144,"ð":145,"Ċ":146,"Ġ":147,"Ģ":148,"ģ":149,"Ĥ":150,"ĥ":151,"Ħ":152,"ħ":153,"Ĩ":154,"ĩ":155,"Ī":156,"ī":157,"Ĭ":158,"ĭ":159,"Į":160,"į":161,"İ":162,"ı":163,"Ĳ":164,"ĳ":165,"Ĵ":166,"ĵ":167,"Ķ":168,"ķ":169,"ĸ":170,"Ĺ":171,"ĺ":172,"Ļ":173,"ļ":174,"Ľ":175,"ľ":176,"Ŀ":177,"ŀ":178,"Ł":179,"ł":180,"Ń":181,"Ġt":182,"Ġa":183,"he":184,"in":185,"Ġthe":186,"er":187,"Ġs":188,"on":189,"Ġ,":190,"re":191,"Ġw":192,"Ġc":193,"Ġo":194,"ed":195,"Ġb":196,"nd":197,"Ġf":198,"at":199,"Ġ.":200,"or":201,"it":202,"en":203,"Ġp":204,"Ġin":205,"Ġm":206,"is":207,"es":208,"ar":209,"Ġof":210,"an":211,"al":212,"ing":213,"Ġd":214,"as":215,"Ġand":216,"Ġh":217,"Ġto":218,"ro":219,"ic":220,"Ġl":221,"ion":222,"ou":223,"Ġn":224,"Ġre":225,"il":226,"Ġe":227,"Ġg":228,"Ġth":229,"Ġ=":230,"le":231,"ent":232,"Ġ\"":233,"Ġ1":234,"st":235,"Ġ@":236,"el":237,"ĠĊ":238,"am":239,"om":240,"Ġon":241,"ac":242,"ad":243,"Ġwas":244,"Ġst":245,"Ġbe":246,"Ġhe":247,"ur":248,"ly":249,"Ġ'":250,"Ġfor":251,"Ġu":252,"id":253,"im":254,"ol":255,"ter":256,"Ġas":257,"ir":258,"-@":259,"Ġ@-@":260,"iv":261,"ig":262,"ct":263,"ot":264,"ut":265,"Ġr":266,"et":267,"ith":268,"ay":269,"ow":270,"Ġal":271,"Ġ2":272,"ver":273,"Ġwith":274,"ce":275,"ation":276,"Ġthat":277,"Ġwh":278,"Ġit":279,"ch":280,"Ġcon":281,"Ġat":282,"Ġj":283,"Ġan":284,"Ġby":285,"Ġde":286,"Ġse":287,"Ġis":288,"us":289,"Ġk":290,"Ġv":291,"Ġ)":292,"th":293,"Ġ(":294,"ul":295,"ers":296,"Ġch":297,"and":298,"ain":299,"em":300,"Ġ19":301,"rom":302,"Ġhis":303,"os":304,"her":305,"ag":306,"av":307,"um":308,"est":309,"Ġcom":310,"00":311,"Ġsu":312,"ri":313,"Ġfrom":314,"Ġpro":315,"od":316,"pe":317,"Ġne":318,"ist":319,"if":320,"ill":321,"un":322,"ore":323,"ld":324,"ap":325,"Ġsh":326,"se":327,"Ġy":328,"ere":329,"igh":330,"res":331,"op":332,"ies":333,"Ġro":334,"qu":335,"art":336,"ard":337,"ber":338,"Ġor":339,"Ġex":340,"Ġpl":341,"ich":342,"ak":343,"Ġwere":344,"ate":345,"ort":346,"all":347,"Ġun":348,"ab":349,"Ġle":350,"ant":351,"ud":352,"oc":353,"gh":354,"ong":355,"ated":356,"ip":357,"ity":358,"ess":359,"Ġar":360,"ame":361,"ive":362,"Ġtr":363,"ie":364,"Ġhad":365,"Ġâ":366,"ack":367,"ĠâĢ":368,"ast":369,"red":370,"rou":371,"Ġwhich":372,"our":373,"ge":374,"Ġare":375,"ment":376,"Ġnot":377,"ian":378,"ov":379,"Ġaf":380,"ial":381,"pt":382,"ost":383,"ell":384,"ia":385,"ight":386,"Ġcl":387,"ust":388,"ary":389,"Ġwor":390,"ine":391,"Ġwhe":392,"pp":393,"cl":394,"rit":395,"ther":396,"Ġ3":397,"oun":398,"Ġad":399,"ical":400,"ave":401,"Ġsc":402,"cc":403,"Ġcomp":404,"Ġbut":405,"Ġen":406,"ord":407,"ction":408,"Ġthis":409,"Ġfir":410,"Ġher":411,"Ġ200":412,"te":413,"ould":414,"Ġtw":415,"Ġab":416,"Ġafter":417,"ish":418,"Ġcont":419,"Ġfirst":420,"ous":421,"so":422,"Ġte":423,"ide":424,"Ġ20":425,"Ġsp":426,"ure":427,"Ġits":428,"Ġnew":429,"ign":430,"Ġtheir":431,"Ġam":432,"Ġall":433,"Ġ;":434,"Ġman":435,"per":436,"Ġone":437,"ra":438,"ition":439,"Ġint":440,"Ġper":441,"ass":442,"ĠâĢĵ":443,"Ġalso":444,"ub":445,"Ġmar":446,"Ġus":447,"Ġi":448,"og":449,"ok":450,"Ġshe":451,"ru":452,"Ġ:":453,"ear":454,"ater":455,"ome":456,"Ġtim":457,"Ġres":458,"out":459,"orm":460,"age":461,"Ġrec":462,"ond":463,"Ġthey":464,"ire":465,"Ġser":466,"ry":467,"hed":468,"Ġtwo":469,"Ġfe":470,"Ġpart":471,"Ġ4":472,"ue":473,"Ġag":474,"Ġwho":475,"Ġcomm":476,"du":477,"Ġdes":478,"ans":479,"Ġhave":480,"Ġ5":481,"ree":482,"Ġbec":483,"ally":484,"ff":485,"Ġdis":486,"ance":487,"ile":488,"Ġgo":489,"Ġ18":490,"Ġwe":491,".@":492,"Ġ@.@":493,"pl":494,"Ġover":495,"Ġyear":496,"own":497,"ted":498,"ice":499,"Ġoff":500,"iz":501,"Ġplay":502,"Ġhas":503,"uring":504,"ence":505,"Ġbeen":506,"Ġco":507,"Ġother":508,"ect":509,"Ġ201":510,",@":511,"Ġ@,@":512,"Ġim":513,"ough":514,"ke":515,"are":516,"ory":517,"Ġcol":518,"ely":519,"ts":520,"Ġout":521,"Ġme":522,"ations":523,"clud":524,"Ġup":525,"ach":526,"ace":527,"Ġinter":528,"Ġpre":529,"ound":530,"land":531,"Ġev":532,"Ġpr":533,"Ġfin":534,"wn":535,"Ġwhen":536,"Ġbo":537,"ade":538,"ib":539,"act":540,"Ġspe":541,"ions":542,"Ġtime":543,"Ġcan":544,"Ġduring":545,"ail":546,"urn":547,"Ġinclud":548,"ress":549,"ced":550,"Ġap":551,"Ġfl":552,"ric":553,"ens":554,"Ġwould":555,"ks":556,"Ġsec":557,"man":558,"Ġfil":559,"one":560,"Ġind":561,"we":562,"ward":563,"Ġbr":564,"ang":565,"nder":566,"Ġinto":567,"Ġhim":568,"Ġbl":569,"Ġatt":570,"ite":571,"ult":572,"Ġear":573,"oll":574,"ates":575,"Ġ6":576,"Ġqu":577,"Ġmore":578,"able":579,"Ġjo":580,"Ġwar":581,"ces":582,"ased":583,"Ġchar":584,"Ġpe":585,"ren":586,"ited":587,"Ġcent":588,"amp":589,"ied":590,"Ġrep":591,"ase":592,"Ġbet":593,"Ġfilm":594,"rough":595,"way":596,"Ġgr":597,"ount":598,"Ġform":599,"les":600,"form":601,"ors":602,"Ġ7":603,"ason":604,"aw":605,"ings":606,"Ġpo":607,"ember":608,"Ġwhile":609,"Ġacc":610,"ose":611,"Ġmus":612,"vel":613,"Ġgame":614,"ild":615,"Ġmost":616,"ne":617,"ve":618,"Ġthere":619,"ered":620,"Ġrem":621,"Ġfr":622,"Ġcar":623,"ind":624,"ck":625,"Ġnor":626,"Ġpar":627,"Ġso":628,"Ġgen":629,"ake":630,"Ġass":631,"Ġsou":632,"ious":633,"old":634,"att":635,"Ġcons":636,"Ġhow":637,"ents":638,"aus":639,"fer":640,"Ġ8":641,"reat":642,"iss":643,"Ġem":644,"Ġlater":645,"Ġno":646,"Ġsong":647,"Ġbu":648,"ick":649,"round":650,"Ġprodu":651,"Ġreg":652,"ft":653,"Ġagain":654,"Ġonly":655,"gan":656,"Ġact":657,"rib":658,"ved":659,"Ġunder":660,"Ġwork":661,"ood":662,"Ġsy":663,"Ġmay":664,"Ġthem":665,"Ġkn":666,"Ġthan":667,"Ġsome":668,"Ġ9":669,"Ġret":670,"ters":671,"als":672,"Ġthree":673,"Ġabout":674,"ubl":675,"ix":676,"Ġ199":677,"ath":678,"ween":679,"Ġver":680,"Ġbetween":681,"ollow":682,"ph":683,"ons":684,"hip":685,"Ġday":686,"Ġbro":687,"Ġhigh":688,"Ġrele":689,"Ġeng":690,"oth":691,"Ġthrough":692,"Ġmon":693,"Ġrecord":694,"Ġfollow":695,"Ġmin":696,"eric":697,"Ġma":698,"fore":699,"ational":700,"Ġapp":701,"Ġsecond":702,"Ġrel":703,"Ġend":704,"Ġli":705,"Ġph":706,"Ġnum":707,"ict":708,"Ġsub":709,"Ġac":710,"Ġele":711,"ton":712,"ug":713,"Ġpres":714,"Ġimp":715,"iew":716,"Ġ00":717,"Ġsa":718,"Ġed":719,"Ġalb":720,"Ġair":721,"Ġseason":722,"Ġfour":723,"Ġep":724,"Ġdef":725,"Ġpos":726,"Ġdo":727,"Ġworld":728,"Ġameric":729,"Ġinc":730,"Ġnorth":731,"Ġent":732,"Ġwhere":733,"Ġbefore":734,"cted":735,"ral":736,"ning":737,"Ġteam":738,"Ġmov":739,"ular":740,"ating":741,"ames":742,"Ġspec":743,"Ġwrit":744,"Ġmade":745,"Ġarm":746,"Ġsm":747,"Ġsch":748,"Ġlar":749,"Ġloc":750,"ision":751,"Ġwill":752,"ived":753,"Ġgu":754,"Ġsuch":755,"hes":756,"Ġpol":757,"Ġsur":758,"Ġcap":759,"Ġdr":760,"Ġsing":761,"son":762,"Ġalbum":763,"Ġpubl":764,"Ġ000":765,"ished":766,"Ġsever":767,"io":768,"Ġyears":769,"ained":770,"ics":771,"Ġsupp":772,"iel":773,"ode":774,"Ġcall":775,"ever":776,"Ġ10":777,"ll":778,"Ġshow":779,"Ġsouth":780,"ident":781,"Ġback":782,"Ġrev":783,"Ġadd":784,"Ġ/":785,"ros":786,"Ġgener":787,"Ġboth":788,"ual":789,"tern":790,"ily":791,"Ġthen":792,"Ġinv":793,"Ġhowever":794,"Ġappe":795,"Ġepis":796,"Ġcount":797,"Ġused":798,"Ġdec":799,"Ġrece":800,"Ġmill":801,"ute":802,"ale":803,"ific":804,"Ġbeing":805,"Ġthese":806,"Ġwell":807,"Ġstud":808,"ury":809,"Ġset":810,"Ġmet":811,"Ġseries":812,"Ġagainst":813,"Ġbatt":814,"ten":815,"Ġz":816,"ank":817,"Ġcharac":818,"Ġinst":819,"ife":820,"Ġfound":821,"Ġnumber":822,"velop":823,"Ġlead":824,"Ġbel":825,"Ġmany":826,"Ġ17":827,"Ġmusic":828,"Ġste":829,"Ġsim":830,"orn":831,"Ġmat":832,"Ġperform":833,"Ġ0":834,"ane":835,"Ġmain":836,"Ġlong":837,"other":838,"Ġop":839,"Ġter":840,"Ġcity":841,"Ġcre":842,"int":843,"ool":844,"oy":845,"ause":846,"ince":847,"end":848,"Ġbrit":849,"Ġdevelop":850,"Ġbecame":851,"ert":852,"Ġunited":853,"igin":854,"Ġdire":855,"Ġsl":856,"Ġseveral":857,"Ġart":858,"Ġhist":859,"Ġincluding":860,"Ġship":861,"hn":862,"ĠâĢĶ":863,"ather":864,"air":865,"au":866,"Ġdep":867,"Ġexp":868,"Ġstate":869,"ise":870,"Ġmil":871,"Ġinf":872,"Ġearly":873,"ier":874,"Ġorigin":875,"Ġdiv":876,"ised":877,"ower":878,"Ġob":879,"vern":880,"Ġ198":881,"Ġ15":882,"Ġ12":883,"Ġpop":884,"Ġtrans":885,"Ġdid":886,"ars":887,"its":888,"Ġdist":889,"ired":890,"ject":891,"ley":892,"ement":893,"ork":894,"ures":895,"Ġnov":896,"Ġ194":897,"ines":898,"rop":899,"und":900,"iet":901,"Ġcontin":902,"Ġgovern":903,"Ġwin":904,"ities":905,"Ġpers":906,"olog":907,"der":908,"roup":909,"Ġprov":910,"Ġepisode":911,"led":912,"Ġstates":913,"til":914,"elf":915,"az":916,"ross":917,"ared":918,"anc":919,"Ġcrit":920,"Ġjohn":921,"Ġsaid":922,"ird":923,"ful":924,"Ġfollowing":925,"Ġke":926,"Ġest":927,"Ġconst":928,"Ġdesign":929,"Ġgroup":930,"Ġcould":931,"Ġdif":932,"ys":933,"Ġstr":934,"ative":935,"Ġmed":936,"iver":937,"Ġreturn":938,"Ġ16":939,"Ġrun":940,"ock":941,"Ġoper":942,"Ġdesc":943,"Ġamerican":944,"ouse":945,"na":946,"Ġalth":947,"tend":948,"Ġknown":949,"Ġalthough":950,"Ġcomple":951,"ield":952,"Ġany":953,"ivers":954,"Ġwest":955,"Ġger":956,"Ġaust":957,"Ġsign":958,"Ġ197":959,"Ġking":960,"Ġmod":961,"Ġserv":962,"ron":963,"Ġjun":964,"Ġpass":965,"Ġlo":966,"emb":967,"Ġdown":968,"ually":969,"Ġ196":970,"Ġ11":971,"uch":972,"Ġland":973,"ty":974,"Ġfam":975,"Ġnear":976,"ued":977,"Ġbegan":978,"ting":979,"Ġlike":980,"gr":981,"Ġfeat":982,"Ġeff":983,"Ġoffic":984,"ined":985,"Ġuntil":986,"row":987,"ople":988,"ism":989,"Ġdisc":990,"Ġbar":991,"ange":992,"aking":993,"Ġhar":994,"Ġschool":995,"Ġown":996,"Ġbecause":997,"ern":998,"Ġalong":999,"ided":1000,"Ġreleased":1001,"Ġopen":1002,"Ġport":1003,"ccess":1004,"ins":1005,"ized":1006,"Ġcalled":1007,"Ġprev":1008,"Ġel":1009,"ger":1010,"Ġnational":1011,"uc":1012,"Ġthough":1013,"Ġcr":1014,"Ġmaj":1015,"ists":1016,"iam":1017,"Ġwee":1018,"Ġpeople":1019,"stem":1020,"ured":1021,"Ġyou":1022,"up":1023,"Ġgre":1024,"ially":1025,"Ġins":1026,"ution":1027,"Ġann":1028,"Ġcolle":1029,"Ġclass":1030,"ments":1031,"Ġmillion":1032,"osed":1033,"Ġjust":1034,"ium":1035,"Ġever":1036,"Ġsystem":1037,"cept":1038,"Ġcour":1039,"ull":1040,"Ġge":1041,"Ã©":1042,"Ġbritish":1043,"Ġsince":1044,"Ġla":1045,"Ġ13":1046,"ner":1047,"Ġsix":1048,"Ġbest":1049,"Ġadv":1050,"Ġaut":1051,"Ġhead":1052,"Ġaround":1053,"ark":1054,"Ġaug":1055,"Ġaward":1056,"Ġlife":1057,"Ġcor":1058,"Ġmajor":1059,"Ġif":1060,"Ġ$":1061,"Ġju":1062,"Ġeach":1063,"Ġsuccess":1064,"Ġbre":1065,"ains":1066,"Ġsept":1067,"any":1068,"Ġattack":1069,"xt":1070,"gest":1071,"ah":1072,"Ġvar":1073,"Ġcharacter":1074,"oot":1075,"Ġuse":1076,"Ġav":1077,"Ġdescrib":1078,"Ġseptember":1079,"Ġstart":1080,"amed":1081,"Ġaugust":1082,"Ġconf":1083,"get":1084,"rap":1085,"Ġsame":1086,"ible":1087,"Ġhel":1088,"Ġroad":1089,"Ġtri":1090,"ont":1091,"Ġeast":1092,"Ġfinal":1093,"aced":1094,"Ġline":1095,"Ġocc":1096,"ik":1097,"ris":1098,"Ġsupport":1099,"Ġoct":1100,"Ġdem":1101,"Ġanother":1102,"Ġfive":1103,"Ġpublic":1104,"Ġcare":1105,"aining":1106,"Ġsw":1107,"Ġ14":1108,"Ġprom":1109,"Ġkm":1110,"Ġgreat":1111,"Ġbuild":1112,"Ġlit":1113,"Ġty":1114,"Ġold":1115,"els":1116,"Ġconc":1117,"Ġra":1118,"aving":1119,"Ġ195":1120,"Ġmy":1121,"Ġgl":1122,"Ġext":1123,"Ġtook":1124,"Ġcamp":1125,"Ġband":1126,"Ġaustral":1127,"enn":1128,"ues":1129,"Ġbook":1130,"Ġgerman":1131,"Ġhouse":1132,"Ġmid":1133,"Ġarea":1134,"Ġsmall":1135,"ob":1136,"ove":1137,"ann":1138,"Ġ193":1139,"ep":1140,"Ġreport":1141,"Ġconsid":1142,"Ġcentury":1143,"ober":1144,"Ġreceived":1145,"ped":1146,"Ġturn":1147,"uss":1148,"Ġcontro":1149,"Ġoctober":1150,"ets":1151,"ants":1152,"ives":1153,"ble":1154,"Ġunivers":1155,"Ġstre":1156,"ically":1157,"Ġsk":1158,"hing":1159,"Ġ191":1160,"Ġgames":1161,"Ġwhat":1162,"Ġpartic":1163,"Ġdue":1164,"Ġshort":1165,"Ġlast":1166,"Ġdirect":1167,"Ġgovernment":1168,"ility":1169,"Ġref":1170,"Ġhal":1171,"Ġrest":1172,"Ġmarch":1173,"ately":1174,"ina":1175,"cess":1176,"ene":1177,"Ġleg":1178,"Ġes":1179,"gin":1180,"Ġperson":1181,"Ġcommand":1182,"Ġhome":1183,"Ġ]":1184,"Ġ[":1185,"ink":1186,"ored":1187,"Ġway":1188,"Ġmag":1189,"Ġjan":1190,"tle":1191,"Ġjune":1192,"ians":1193,"ril":1194,"Ġsingle":1195,"Ġthird":1196,"Ġmark":1197,"Ġgeneral":1198,"over":1199,"Ġmen":1200,"ime":1201,"Ġtit":1202,"Ġchild":1203,"Ġsqu":1204,"Ġjuly":1205,"ission":1206,"Ġ%":1207,"Ġcapt":1208,"iving":1209,"pect":1210,"Ġnovember":1211,"urch":1212,"Ġtrack":1213,"Ġdeath":1214,"Ġreview":1215,"Ġdel":1216,"ash":1217,"Ġmuch":1218,"Ġevent":1219,"raft":1220,"Ġisland":1221,"Ġyork":1222,"Ġarr":1223,"Ġapril":1224,"uro":1225,"Ġfur":1226,"Ġdam":1227,"Ġtop":1228,"che":1229,"uary":1230,"Ġlarge":1231,"lish":1232,"Ġaccord":1233,"Ġvers":1234,"Ġpower":1235,"Ġsoc":1236,"Ġeven":1237,"Ġbattle":1238,"Ġleft":1239,"Ġtown":1240,"Ġdece":1241,"ural":1242,"Ġcast":1243,"Ġche":1244,"ctions":1245,"ional":1246,"Ġvide":1247,"Ġallow":1248,"ively":1249,"Ġintern":1250,"Ġdiffer":1251,"Ġmonth":1252,"Ġgun":1253,"ient":1254,"Ġ30":1255,"Ġstory":1256,"idge":1257,"Ġstar":1258,"bo":1259,"ilt":1260,"Ġpat":1261,"Ġkill":1262,"Ġappro":1263,"Ġvis":1264,"aim":1265,"Ġfamily":1266,"Ġbased":1267,"ms":1268,"ague":1269,"Ġplace":1270,"Ġcur":1271,"Ġaddition":1272,"Ġnow":1273,"mber":1274,"ven":1275,"min":1276,"ales":1277,"Ġvict":1278,"Ġincre":1279,"Ġcal":1280,"Ġpark":1281,"Ġexpl":1282,"Ġblack":1283,"Ġant":1284,"Ġright":1285,"ified":1286,"Ġlaw":1287,"Ġcompany":1288,"Ġarmy":1289,"rote":1290,"empt":1291,"Ġdecember":1292,"Ġhistory":1293,"avy":1294,"eng":1295,"Ġclub":1296,"Ġplayed":1297,"Ġ25":1298,"Ġmor":1299,"Ġaccording":1300,"ling":1301,"..":1302,"by":1303,"ps":1304,"Ġpost":1305,"Ġincluded":1306,"Ġname":1307,"Ġstorm":1308,"Ġriver":1309,"Ġlos":1310,"Ġwater":1311,"ats":1312,"Ġred":1313,"Ġled":1314,"Ġ192":1315,"Ġjanuary":1316,"rist":1317,"ograp":1318,"omet":1319,"Ġhand":1320,"bert":1321,"aged":1322,"Ġir":1323,"ony":1324,"Ġwind":1325,"ball":1326,"Ġwom":1327,"inc":1328,"Ġwrote":1329,"Ġii":1330,"Ġwon":1331,"apan":1332,"Ġhum":1333,"erg":1334,"ently":1335,"Ġtimes":1336,"Ġang":1337,"Ġresp":1338,"ages":1339,"Ġorgan":1340,"Ġopp":1341,"Ġstru":1342,"Ġval":1343,"Ġ...":1344,"ience":1345,"Ġjapan":1346,"Ġprevious":1347,"Ġrequ":1348,"ital":1349,"Ġposition":1350,"Ġappear":1351,"Ġwithin":1352,"port":1353,"ody":1354,"Ġmake":1355,"Ġdescribed":1356,"med":1357,"Ġinit":1358,"Ġrad":1359,"Ġeuro":1360,"Ġthose":1361,"Ġdeb":1362,"Ġstill":1363,"Ġfore":1364,"Ġvideo":1365,"Ġbill":1366,"Ġchamp":1367,"Ġfar":1368,"ott":1369,"Ġstand":1370,"ides":1371,"Ġnext":1372,"Ġmemb":1373,"Ġnamed":1374,"omin":1375,"Ġlate":1376,"ney":1377,"Ġbelie":1378,"Ġbus":1379,"Ġoriginal":1380,"Ġrelease":1381,"Ġamong":1382,"Ġeffect":1383,"Ġattempt":1384,"por":1385,"iven":1386,"Ġlist":1387,"Ġfurther":1388,"Ġrepl":1389,"ster":1390,"Ġleague":1391,"ilar":1392,"Ġvery":1393,"Ġdest":1394,"Ġx":1395,"Ġfoot":1396,"Ġtele":1397,"ister":1398,"Ġforce":1399,"cy":1400,"Ġiss":1401,"Ġview":1402,"Ġposs":1403,"mer":1404,"Ġbas":1405,"iod":1406,"Ġreal":1407,"Ġrom":1408,"ention":1409,"bru":1410,"aff":1411,"ret":1412,"Ġroute":1413,"Ġ100":1414,"Ġcy":1415,"Ġproduction":1416,"Ġcommun":1417,"Ġspecies":1418,"Ġexper":1419,"ĠÂ":1420,"ness":1421,"ption":1422,"ior":1423,"erv":1424,"ival":1425,"rench":1426,"ached":1427,"Ġmembers":1428,"Ġsound":1429,"Ġconstru":1430,"Ġpolit":1431,"pend":1432,"Ġwhite":1433,"Ġchrist":1434,"Ġformer":1435,"Ġmilit":1436,"Ġtour":1437,"Ġcoun":1438,"Ġfle":1439,"Ġfebru":1440,"Ġfebruary":1441,"Ġsimilar":1442,"Ġinfl":1443,"Ġtak":1444,"arch":1445,"ances":1446,"Ġer":1447,"riend":1448,"br":1449,"Ġsold":1450,"Ġperiod":1451,"Ġnort":1452,"Ġpa":1453,"Ġdays":1454,"Ġdivision":1455,"Ġplan":1456,"Ġbuilt":1457,"ences":1458,"Ġmatch":1459,"Ġnat":1460,"Ġroy":1461,"ched":1462,"Ġside":1463,"vers":1464,"Ġsuper":1465,"Ġprop":1466,"Ġtem":1467,"Ġheld":1468,"Ġeurope":1469,"Ġyoun":1470,"Ġrock":1471,"ple":1472,"Ġgood":1473,"Ġuniversity":1474,"Ġpoint":1475,"Ġlight":1476,"Ġcle":1477,"Ġfrench":1478,"ried":1479,"Ġpresident":1480,"hen":1481,"hor":1482,"Ġsay":1483,"Ġservice":1484,"Ġ2010":1485,"Ġlocal":1486,"Ġestab":1487,"Ġrole":1488,"Ġdesp":1489,"Ġmo":1490,"augh":1491,"Ġpresent":1492,"uted":1493,"wards":1494,"Ġequ":1495,"tended":1496,"Ġorder":1497,"Ġfre":1498,"Ġ21":1499,"ec":1500,"Ġdet":1501,"Ġcame":1502,"Ġevery":1503,"Ġtot":1504,"hy":1505,"Ġsol":1506,"Ġnever":1507,"Ġcaus":1508,"Ġbeh":1509,"Ġhaving":1510,"ropical":1511,"Ġwilliam":1512,"self":1513,"ham":1514,"Ġweek":1515,"oci":1516,"Ġeas":1517,"Ġcross":1518,"Ġresult":1519,"ford":1520,"ense":1521,"Ġsum":1522,"Ġsug":1523,"Ġfew":1524,"Ġje":1525,"ulation":1526,"Ġtest":1527,"Ġtro":1528,"Ġchart":1529,"Ġassoci":1530,"Ġprof":1531,"Ġplayer":1532,"sh":1533,"Ġsee":1534,"app":1535,"Ġtake":1536,"ax":1537,"ices":1538,"Ġ2008":1539,"Ġoften":1540,"Ġcommon":1541,"Ġstat":1542,"ards":1543,"Ġhur":1544,"Ġhalf":1545,"Ġ2009":1546,"Ġcareer":1547,"Ġ24":1548,"Ġgeor":1549,"me":1550,"Ġtech":1551,"Ġwat":1552,"ler":1553,"Ġcontinued":1554,"ots":1555,"Ġlow":1556,"Ġpri":1557,"Ġclaim":1558,"Ġfire":1559,"Ġsty":1560,"craft":1561,"ring":1562,"Ġhistor":1563,"Ġ2011":1564,"Ġlevel":1565,"Ġsent":1566,"Ġdifferent":1567,"ator":1568,"Ġmich":1569,"Ġwithout":1570,"Ġfun":1571,"Ġpress":1572,"Ġelect":1573,"bs":1574,"estern":1575,"Ġdespite":1576,"atic":1577,"Ġengland":1578,"Ġ&":1579,"Ġcover":1580,"ese":1581,"gram":1582,"Ġless":1583,"Ġparty":1584,"ology":1585,"Ġten":1586,"read":1587,"Ġcourt":1588,"af":1589,"Ġconsidered":1590,"Ġcontr":1591,"Ġmer":1592,"Ġ22":1593,"Ġec":1594,"gress":1595,"Ġdav":1596,"ops":1597,"aster":1598,"Ġdevelopment":1599,"let":1600,"Ġ2007":1601,"Ġrepres":1602,"par":1603,"Ġarch":1604,"Ġchurch":1605,"Ġly":1606,"Ġtre":1607,"ves":1608,"Ġcountry":1609,"Ġnight":1610,"Ġcounty":1611,"Ġcomb":1612,"Ġinflu":1613,"Ġchampions":1614,"Ġfield":1615,"Ġsongs":1616,"Ġfriend":1617,"Ġroyal":1618,"Ġversion":1619,"Ġenglish":1620,"Ġhy":1621,"Ġhig":1622,"Ġmoved":1623,"Ġmilitary":1624,"Ġwritten":1625,"Ġhighway":1626,"Ġtrad":1627,"Ġdon":1628,"Ġwant":1629,"rodu":1630,"Ġstrong":1631,"vision":1632,"co":1633,"Ġprogram":1634,"Ġconv":1635,"ones":1636,"Ġvol":1637,"Ġdefe":1638,"Ġbecome":1639,"Ġ2012":1640,"Ġprote":1641,"Ġanim":1642,"Ġlim":1643,"Ġlittle":1644,"Ġmi":1645,"alk":1646,"Ġfact":1647,"Ġchang":1648,"ertain":1649,"Ġproject":1650,"Ġforces":1651,"Ġlost":1652,"side":1653,"ches":1654,"Ġlond":1655,"line":1656,"ize":1657,"Ġinternational":1658,"Ġbuilding":1659,"Ġgiven":1660,"Ġ23":1661,"urs":1662,"Ġson":1663,"Ġcontrol":1664,"Ġlondon":1665,"Ġmiss":1666,"Ġtotal":1667,"Ġauthor":1668,"Ġaff":1669,"Ġsuggest":1670,"Ġtropical":1671,"Ġinvol":1672,"elt":1673,"Ġrefer":1674,"Ġord":1675,"Ġhit":1676,"utes":1677,"ison":1678,"Ġ190":1679,"Ġvir":1680,"Ġbur":1681,"Ġannoun":1682,"hel":1683,"be":1684,"Ġphil":1685,"ged":1686,"Ġlet":1687,"Ġlab":1688,"atter":1689,"Ġread":1690,"Ġhour":1691,"ald":1692,"Ġimport":1693,"Ġstreet":1694,"Ġfree":1695,"ened":1696,"iety":1697,"Ġdecl":1698,"iment":1699,"Ġget":1700,"Ġcanad":1701,"ery":1702,"Ġho":1703,"Ġeight":1704,"roy":1705,"ai":1706,"Ġrail":1707,"sequ":1708,"Ġve":1709,"Ġvi":1710,"Ġperformance":1711,"Ġgold":1712,"Ġsal":1713,"que":1714,"Ġstation":1715,"ille":1716,"Ġsit":1717,"Ġgave":1718,"Ġearl":1719,"Ġwent":1720,"ering":1721,"Ġfind":1722,"Ġrepresent":1723,"rent":1724,"Ġcir":1725,"ae":1726,"Ġreturned":1727,"Ġsomet":1728,"ailed":1729,"Ġusing":1730,"Ġfather":1731,"Ġjack":1732,"Ġneed":1733,"Ġbroad":1734,"Ġpublished":1735,"Ġhen":1736,"Ġcoast":1737,"Ġproduced":1738,"Ġwestern":1739,"Ġarg":1740,"Ġcompet":1741,"Ġnews":1742,"Ġobs":1743,"Ġreported":1744,"ead":1745,"xim":1746,"Ġpopular":1747,"Ġmass":1748,"Ġhun":1749,"Ġchildren":1750,"Ġrecorded":1751,"Ġparticular":1752,"ably":1753,"Ġtelevision":1754,"ape":1755,"Ġinde":1756,"ories":1757,"Ġ2006":1758,"Ġstated":1759,"Ġdu":1760,"Ġaircraft":1761,"aign":1762,"Ġspecial":1763,"Ġcult":1764,"Ġinterest":1765,"ama":1766,"itions":1767,"Ġcampaign":1768,"Ġground":1769,"Ġships":1770,"Ġshould":1771,"Ġlove":1772,"Ġinclude":1773,"Ġlive":1774,"Ġide":1775,"Ġmaking":1776,"Ġdev":1777,"day":1778,"Ġdou":1779,"Ġcritic":1780,"used":1781,"omb":1782,"Ġage":1783,"ief":1784,"Ġwomen":1785,"Ġvo":1786,"mit":1787,"Ġhurric":1788,"Ġfront":1789,"Ġcop":1790,"Ġcoll":1791,"aren":1792,"ument":1793,"Ġcentral":1794,"Ġ27":1795,"Ġthroughout":1796,"yl":1797,"ints":1798,"Ġupon":1799,"Ġprim":1800,"Ġ50":1801,"Ġ28":1802,"Ġyoung":1803,"Ġonce":1804,"iness":1805,"raw":1806,"ploy":1807,"onom":1808,"Ġhom":1809,"Ġsuff":1810,"Ġhimself":1811,"osp":1812,"Ġofficial":1813,"Ġ2013":1814,"Ġaustralia":1815,"Ġtechn":1816,"Ġchampionship":1817,"Ġaud":1818,"ying":1819,"Ġdestroy":1820,"Ġmot":1821,"Ġfac":1822,"Ġdepart":1823,"Ġcharacters":1824,"Ġwall":1825,"Ġnon":1826,"cer":1827,"ned":1828,"Ġsen":1829,"Ġrich":1830,"Ġsouther":1831,"Ġvill":1832,"Ġball":1833,"Ġtrav":1834,"ensive":1835,"Ġ40":1836,"play":1837,"rew":1838,"Ġrelations":1839,"Ġplayers":1840,"rest":1841,"Ġfav":1842,"Ġcas":1843,"Ġhor":1844,"Ġsea":1845,"alth":1846,"itive":1847,"Ġpra":1848,"Ġ26":1849,"Ġcam":1850,"Ġcirc":1851,"Ġft":1852,"Ġinstead":1853,"Ġsquad":1854,"Ġfall":1855,"ither":1856,"Ġcommit":1857,"Ġsouthern":1858,"Ġtitle":1859,"Ġtur":1860,"eder":1861,"Ġseven":1862,"Ġjames":1863,"Ġwriting":1864,"akes":1865,"lo":1866,"Ġbase":1867,"Ġaway":1868,"Ġ189":1869,"Ġcost":1870,"Ġmad":1871,"ges":1872,"Ġbegin":1873,"Ġfem":1874,"acy":1875,"Ġintrodu":1876,"Ġacross":1877,"com":1878,"Ġdied":1879,"Ġremained":1880,"Ġmonths":1881,"Ġgrand":1882,"Ġcenter":1883,"Ġdeveloped":1884,"Ġsignific":1885,"Ġce":1886,"Ġpromot":1887,"dom":1888,"Ġfull":1889,"Ġhall":1890,"Ġfort":1891,"Ġpolitical":1892,"Ġlook":1893,"Ġvarious":1894,"Ġmanag":1895,"ries":1896,"Ġfif":1897,"Ġmount":1898,"Ġmodern":1899,"Ġhurricane":1900,"uck":1901,"Ġrace":1902,"Ġmc":1903,"ration":1904,"Ġwood":1905,"Ġtoo":1906,"Ġput":1907,"Ġaver":1908,"ency":1909,"fic":1910,"Ġnet":1911,"Ġhol":1912,"Ġill":1913,"Ġham":1914,"Ġhill":1915,"Ġcat":1916,"Ġcond":1917,"Ġhon":1918,"Ġfight":1919,"Ġoffice":1920,"hern":1921,"Ġbig":1922,"isted":1923,"Ġpal":1924,"inted":1925,"Ġbow":1926,"Ġhard":1927,"ael":1928,"most":1929,"ef":1930,"Ġsil":1931,"Ġfelt":1932,"Ġworks":1933,"Ġareas":1934,"Ġnoted":1935,"ked":1936,"Ġindust":1937,"Ġeventually":1938,"orts":1939,"Ġamerica":1940,"erc":1941,"Ġstyle":1942,"Ġruss":1943,"Ġpit":1944,"Ġannounced":1945,"Ġcreated":1946,"Ġbrother":1947,"Ġcollege":1948,"Ġreached":1949,"Ġmiles":1950,"Ġdi":1951,"Ġdiscover":1952,"Ġhot":1953,"Ġcro":1954,"Ġengine":1955,"Ġconstruction":1956,"ming":1957,"Ġstri":1958,"Ġsun":1959,"Ġhold":1960,"Ġsuccessful":1961,"Ġsan":1962,"Ġnorthern":1963,"Ġ2005":1964,"Ġjapanese":1965,"Ġbody":1966,"Ġmal":1967,"Ġseen":1968,"Ġsele":1969,"ising":1970,"Ġpain":1971,"Ġstruct":1972,"cast":1973,"ĠâĢĻ":1974,"Ġcut":1975,"gether":1976,"Ġtogether":1977,"Ġheavy":1978,"Ġfollowed":1979,"Ġsym":1980,"Ġagre":1981,"Ġrange":1982,"Ġprot":1983,"Ġprocess":1984,"Ġmeet":1985,"field":1986,"Ġperformed":1987,"Ġbrown":1988,"Ġ29":1989,"iting":1990,"Ġmem":1991,"Ġhelp":1992,"Ġciv":1993,"Ġserved":1994,"ization":1995,"Ġ2014":1996,"Ġmember":1997,"Ġactiv":1998,"work":1999,"ality":2000,"Ġknow":2001,"Ġgeorge":2002,"Ġbridge":2003,"Ġmix":2004,"Ġfootball":2005,"Ġesc":2006,"Ġtor":2007,"Ġgod":2008,"ana":2009,"idence":2010,"Ġsignificant":2011,"Ġprofess":2012,"Ġkilled":2013,"Ġmur":2014,"olution":2015,"Ġtaken":2016,"Ġable":2017,"cent":2018,"Ġestabl":2019,"Ġsaw":2020,"ids":2021,"ature":2022,"Ġident":2023,"Ġmm":2024,"Ġimpro":2025,"elling":2026,"ze":2027,"Ġsat":2028,"rict":2029,"Ġbecom":2030,"Ġque":2031,"Ġaction":2032,"Ġpoints":2033,"Ġround":2034,"Ġhuman":2035,"Ġborn":2036,"Ġdoes":2037,"Ġthought":2038,"Ġestablished":2039,"Ġmean":2040,"Ġoriginally":2041,"Ġthom":2042,"Ġinvest":2043,"bor":2044,"Ġgar":2045,"oss":2046,"ds":2047,"Ġgrow":2048,"ius":2049,"Ġenc":2050,"Ġsubsequ":2051,"enth":2052,"irl":2053,"Ġothers":2054,"Ġbri":2055,"ament":2056,"aval":2057,"Ġstage":2058,"enced":2059,"Ġentire":2060,"Ġappeared":2061,"ara":2062,"Ġaustralian":2063,"Ġdavid":2064,"Ġsn":2065,"ression":2066,"cil":2067,"Ġdirector":2068,"Ġredu":2069,"ett":2070,"Ġ!":2071,"Ġfeatures":2072,"ray":2073,"Ġden":2074,"Ġlocated":2075,"Ġvoc":2076,"Ġsurv":2077,"ctor":2078,"ox":2079,"Ġcrew":2080,"ground":2081,"Ġbusiness":2082,"iers":2083,"Ġplaying":2084,"Ġcommission":2085,"Ġmother":2086,"Ġstarted":2087,"rick":2088,"Ġpot":2089,"less":2090,"Ġafric":2091,"bur":2092,"oon":2093,"Ġcaused":2094,"Ġdecided":2095,"odes":2096,"Ġcritics":2097,"aves":2098,"ought":2099,"yn":2100,"ressed":2101,"Ġur":2102,"Ġkingdom":2103,"ript":2104,"Ġcivil":2105,"Ġfeet":2106,"Ġrather":2107,"Ġrank":2108,"ators":2109,"Ġfourth":2110,"Ġmater":2111,"Ġfell":2112,"Ġrese":2113,"ship":2114,"Ġpen":2115,"Ġinform":2116,"Ġreb":2117,"Ġeconom":2118,"den":2119,"Ġbehind":2120,"Ġindepend":2121,"ogn":2122,"Ġmagaz":2123,"Ġsite":2124,"Ġformed":2125,"Ġadded":2126,"Ġfleet":2127,"Ġbi":2128,"Ã¡":2129,"Ġimportant":2130,"Ġcase":2131,"Ġsoon":2132,"Ġ188":2133,"Ġpred":2134,"gg":2135,"ample":2136,"ma":2137,"ivid":2138,"Ġcomment":2139,"ateg":2140,"reek":2141,"Ġjud":2142,"Ġmart":2143,"wood":2144,"rought":2145,"Ġeastern":2146,"Ġ31":2147,"Ġeduc":2148,"Ġgreen":2149,"cing":2150,"Ġdamage":2151,"Ġital":2152,"Ġcompleted":2153,"Ġsam":2154,"Ġsex":2155,"Ġmult":2156,"ades":2157,"Ġpopulation":2158,"Ġneg":2159,"Ġalmost":2160,"head":2161,"dle":2162,"Ġru":2163,"aces":2164,"Ġpeak":2165,"Ġguns":2166,"Ġcup":2167,"Ġexec":2168,"Ġclose":2169,"Ġinterv":2170,"Ġlang":2171,"Ġtom":2172,"Ġjour":2173,"ination":2174,"emy":2175,"Ġawards":2176,"ata":2177,"Ġinitially":2178,"Ġindian":2179,"Ġtreat":2180,"lin":2181,"oney":2182,"Ġloss":2183,"Ġregion":2184,"Ġinj":2185,"Ġ2004":2186,"Ġoccur":2187,"ways":2188,"Ġsocial":2189,"Ġopened":2190,"Ġcreat":2191,"itar":2192,"Ġlack":2193,"Ġhost":2194,"Ġpract":2195,"Ġmichael":2196,"aps":2197,"go":2198,"Ġproble":2199,"Ġgirl":2200,"Ġrelationship":2201,"Ġscre":2202,"Ġ186":2203,"Ġindivid":2204,"Ġpur":2205,"ceed":2206,"Ġfa":2207,"Ġfund":2208,"Ġren":2209,"Ġlou":2210,"to":2211,"Ġsus":2212,"ements":2213,"Ġleading":2214,"Ġtyp":2215,"Ġul":2216,"Ġweeks":2217,"hic":2218,"Ġtradition":2219,"cher":2220,"Ġbay":2221,"Ġradio":2222,"Ġworking":2223,"Ġsepar":2224,"Ġ2015":2225,"ino":2226,"Ġworked":2227,"Ġclos":2228,"Ġfrance":2229,"Ġrecording":2230,"Ġprem":2231,"Ġdiffic":2232,"Ġcurrent":2233,"Ġdifficult":2234,"Ġsecret":2235,"Ġsour":2236,"Ġnar":2237,"Ġale":2238,"Ġroom":2239,"Ġaccom":2240,"ula":2241,"Ġconn":2242,"Ġtowards":2243,"Ġappo":2244,"medi":2245,"Ġbomb":2246,"Ġbal":2247,"ki":2248,"Ġmel":2249,"Ġmac":2250,"Ġcouncil":2251,"Ġunion":2252,"Ġlaun":2253,"umb":2254,"rison":2255,"Ġscene":2256,"istic":2257,"Ġgoal":2258,"imes":2259,"Ġrain":2260,"Ġwid":2261,"Ġrap":2262,"ica":2263,"Ġhenry":2264,"Ġrespect":2265,"asing":2266,"Ġrepubl":2267,"Ġresul":2268,"Ġnorm":2269,"igned":2270,"anch":2271,"Ġquick":2272,"Ġreve":2273,"Ġrobert":2274,"ky":2275,"Ġmaterial":2276,"Ġbreak":2277,"Ġrecords":2278,"eth":2279,"Ġaccept":2280,"Ġvot":2281,"Ġscored":2282,"Ġwashing":2283,"Ġtraining":2284,"pec":2285,"Ġmust":2286,"Ġprovided":2287,"Ġnavy":2288,"Ġ2000":2289,"Ġleast":2290,"Ġreach":2291,"Ġwanted":2292,"Ġfig":2293,"Ġey":2294,"Ġaverage":2295,"Ġbrought":2296,"Ġdut":2297,"hest":2298,"board":2299,"Ġspace":2300,"Ġrecogn":2301,"Ġbrig":2302,"Ġearth":2303,"ows":2304,"iding":2305,"Ġfeatured":2306,"osition":2307,"ological":2308,"Ġtroops":2309,"Ġcru":2310,"Ġ500":2311,"Ġeither":2312,"Ġnomin":2313,"Ġproper":2314,"Ġquar":2315,"Ġfoc":2316,"Ġ187":2317,"Ġallowed":2318,"Ġcolon":2319,"Ġrob":2320,"ected":2321,"Ġfut":2322,"Ġpast":2323,"Ġangel":2324,"Ġtar":2325,"Ġwife":2326,"Ġestim":2327,"Ġvictory":2328,"ams":2329,"Ġgenerally":2330,"Ġfeder":2331,"Ġstudio":2332,"Ġwashington":2333,"Ġavail":2334,"Ġinn":2335,"Ġplaced":2336,"here":2337,"Ġpriv":2338,"Ġcho":2339,"Ġach":2340,"ico":2341,"Ġrul":2342,"Ġphys":2343,"iff":2344,"Ġruns":2345,"Ġexample":2346,"Ġdark":2347,"Ġevents":2348,"aut":2349,"Ġcycl":2350,"Ġmagazine":2351,"aur":2352,"Ġchief":2353,"mp":2354,"Ġleng":2355,"Ġsummer":2356,"Ġrepublic":2357,"Ġboard":2358,"Ġder":2359,"antic":2360,"Ġinsp":2361,"ville":2362,"Ġbattal":2363,"Ġcred":2364,"Ġpaul":2365,"Ġwil":2366,"Ġstaff":2367,"Ġ2003":2368,"Ġparticip":2369,"ential":2370,"Ġunc":2371,"Ġdro":2372,"Ġgrad":2373,"Ġjoined":2374,"Ġdesigned":2375,"Ġsurf":2376,"uel":2377,"Ġregular":2378,"Ġhours":2379,"Ġquest":2380,"ike":2381,"Ġsquadron":2382,"Ġmiddle":2383,"Ġpie":2384,"Ġemploy":2385,"Ġdan":2386,"Ġspeed":2387,"Ġnine":2388,"Ġcondu":2389,"Ġspan":2390,"ells":2391,"Ġshot":2392,"Ġmedia":2393,"Ġthreat":2394,"ving":2395,"Ġopening":2396,"ka":2397,"Ġoperation":2398,"Ġbelieved":2399,"ude":2400,"Ġscore":2401,"Ġrelig":2402,"Ġregard":2403,"Ġ35":2404,"men":2405,"Ġcou":2406,"Ġcome":2407,"Ġmary":2408,"Ġbir":2409,"anks":2410,"Ġwinds":2411,"tim":2412,"aper":2413,"Ġflight":2414,"Ġox":2415,"han":2416,"ugh":2417,"Ġtransport":2418,"Ġreplaced":2419,"Ġmph":2420,"Ġprior":2421,"iction":2422,"Ġscen":2423,"Ġpay":2424,"Ġstone":2425,"Ġber":2426,"Ġben":2427,"Ġcaptain":2428,"oring":2429,"Ġdeter":2430,"imin":2431,"Ġsequ":2432,"Ġemp":2433,"Ġeuropean":2434,"Ġstop":2435,"Ġpolice":2436,"Ġlangu":2437,"Ġminutes":2438,"Ġinvolved":2439,"erous":2440,"ification":2441,"Ġearlier":2442,"fall":2443,"west":2444,"Ġinfant":2445,"Ġfinished":2446,"Ġresearch":2447,"Ġsociety":2448,"aled":2449,"Ġhop":2450,"ha":2451,"asion":2452,"utive":2453,"Ġlength":2454,"Ġcontrib":2455,"off":2456,"Ġpossible":2457,"Ġsaying":2458,"Ġroman":2459,"Ġindic":2460,"ago":2461,"lic":2462,"Ġimmedi":2463,"Ġcommerc":2464,"Ġchange":2465,"Ġpil":2466,"Ġassociation":2467,"Ġkeep":2468,"Ġtrib":2469,"Ġatl":2470,"reg":2471,"Ġadmin":2472,"Ġparticularly":2473,"Ġhighest":2474,"Ġboy":2475,"Ġfilms":2476,"Ġlargest":2477,"Ġfly":2478,"Ġremov":2479,"Ġny":2480,"Ġlower":2481,"Ġbeginning":2482,"Ġexist":2483,"Ġscott":2484,"Ġbad":2485,"Ġkey":2486,"Ġadm":2487,"Ġavailable":2488,"ishing":2489,"Ġvirgin":2490,"Ġpercent":2491,"pected":2492,"Ġforced":2493,"Ġrespons":2494,"Ġassist":2495,"Ġ2001":2496,"Ġplat":2497,"Ġbetter":2498,"Ġsection":2499,"Ġuk":2500,"Ġachie":2501,"wer":2502,"Ġdisp":2503,"Ġdeal":2504,"hib":2505,"Ġweak":2506,"Ġtaking":2507,"Ġanti":2508,"Ġlear":2509,"Ġoutside":2510,"anned":2511,"Ġmeas":2512,"Ġcommitte":2513,"Ġheart":2514,"Ġnovel":2515,"Ġcharles":2516,"aring":2517,"Ġgrant":2518,"ography":2519,"Ġthomas":2520,"mar":2521,"Ġmaint":2522,"ĠÂ°":2523,"Ġincreased":2524,"Ġturned":2525,"Ġended":2526,"Ġreason":2527,"of":2528,"ida":2529,"Ġfeel":2530,"Ġcalif":2531,"Ġreviews":2532,"sel":2533,"ases":2534,"Ġunits":2535,"Ġcommunity":2536,"ems":2537,"oke":2538,"Ġfuture":2539,"Ġnin":2540,"Ġcaliforn":2541,"Ġpassed":2542,"Ġacad":2543,"Ġpraised":2544,"oph":2545,"Ġmove":2546,"Ġhous":2547,"Ġgoing":2548,"Ġpan":2549,"heast":2550,"ipp":2551,"Ġadditional":2552,"Ġtex":2553,"Ġbeat":2554,"Ġ2002":2555,"Ġabove":2556,"iation":2557,"Ġappearance":2558,"Ġphot":2559,"Ġbird":2560,"key":2561,"Ġthus":2562,"Ġmcc":2563,"Ġguitar":2564,"Ġps":2565,"ios":2566,"for":2567,"Ġcanada":2568,"Ġtype":2569,"action":2570,"su":2571,"Ġcastle":2572,"itor":2573,"Ġlik":2574,"str":2575,"Ġenough":2576,"ership":2577,"Ġliter":2578,"aded":2579,"Ġsmith":2580,"Ġlake":2581,"Ġdaugh":2582,"Ġplot":2583,"Ġordered":2584,"Ġpun":2585,"Ġpreviously":2586,"Ġlat":2587,"tr":2588,"Ġpersonal":2589,"Ġmusical":2590,"ey":2591,"nal":2592,"Ġsigned":2593,"ocr":2594,"Ġminor":2595,"Ġinfantry":2596,"tt":2597,"Ġdoc":2598,"Ġterrit":2599,"ston":2600,"Ġrichard":2601,"Ġalex":2602,"Ġelements":2603,"Ġinstit":2604,"Ġmarket":2605,"Ġrights":2606,"Ġdig":2607,"Ġcalifornia":2608,"arily":2609,"Ġabs":2610,"Ġviol":2611,"agon":2612,"Ġpositive":2613,"pped":2614,"Ġtheat":2615,"ush":2616,"Ġpac":2617,"my":2618,"Ġcritical":2619,"Ġprob":2620,"Ġparts":2621,"Ġlord":2622,"Ġfood":2623,"Ġha":2624,"Ġaccess":2625,"ference":2626,"Ġdead":2627,"Ġgive":2628,"erson":2629,"Ġfemale":2630,"gen":2631,"Ġbackground":2632,"Ġtravel":2633,"Ġmoney":2634,"Ġpow":2635,"pper":2636,"Ġlines":2637,"Ġbat":2638,"sen":2639,"Ġspent":2640,"Ġbeg":2641,"Ġtold":2642,"Ġprinc":2643,"Ġoverall":2644,"itz":2645,"cts":2646,"Ġsubject":2647,"ique":2648,"clus":2649,"ilities":2650,"Ġmic":2651,"Ġtax":2652,"Ġblue":2653,"back":2654,"Ġcommittee":2655,"uter":2656,"Ġdirected":2657,"Ġflood":2658,"Ġfailed":2659,"Ġinterview":2660,"uation":2661,"Ġdeep":2662,"Ġchap":2663,"Ġ1990":2664,"elled":2665,"Ġvictor":2666,"Ġ60":2667,"Ġcorn":2668,"Ġdomin":2669,"Ġpoor":2670,"Ġsquare":2671,"nel":2672,"Ġrequired":2673,"mon":2674,"Ġdebut":2675,"Ġpet":2676,"Ġgroups":2677,"reng":2678,"Ġ45":2679,"ĠÃ":2680,"Ġmach":2681,"Ġbroadcast":2682,"Ġhapp":2683,"Ġscient":2684,"sc":2685,"Ġobject":2686,"Ġterm":2687,"bers":2688,"Ġclear":2689,"nes":2690,"Ġpeter":2691,"Ġkil":2692,"Ġconstit":2693,"Ġgermany":2694,"ening":2695,"Ġroll":2696,"Ġanal":2697,"ume":2698,"Ġenv":2699,"Ġindia":2700,"ga":2701,"Ġexc":2702,"Ġhealth":2703,"Ġitself":2704,"Ġdistrict":2705,"Ġevidence":2706,"Ġchristian":2707,"Ġsometimes":2708,"Ġwal":2709,"Ġstep":2710,"isl":2711,"Ġfrank":2712,"ibility":2713,"Ġprison":2714,"Ġreception":2715,"Ġbank":2716,"Ġcontract":2717,"Ġ185":2718,"Ġelection":2719,"berg":2720,"Ġstars":2721,"Ġoccup":2722,"Ġcommercial":2723,"Ġasked":2724,"Ġbattalion":2725,"Ġ?":2726,"ĠÂ£":2727,"Ġexcept":2728,"Ġparl":2729,"Ġinvestig":2730,"Ġlu":2731,"stand":2732,"erved":2733,"Ġtransfer":2734,"ii":2735,"ready":2736,"Ġdefend":2737,"Ġliving":2738,"ability":2739,"Ġour":2740,"Ġsov":2741,"Ġstreng":2742,"Ġadminist":2743,"edy":2744,"Ġze":2745,"Ġwhose":2746,"apt":2747,"aker":2748,"ays":2749,"Ġstudy":2750,"gar":2751,"onse":2752,"Ġmex":2753,"Ġnatural":2754,"airs":2755,"Ġcomplete":2756,"Ġclaimed":2757,"Ġalready":2758,"Ġchic":2759,"Ġapproxim":2760,"Ġgovernor":2761,"Ġclim":2762,"Ġbey":2763,"onna":2764,"Ġsoviet":2765,"ream":2766,"Ġintroduced":2767,"Ġflor":2768,"Ġwhom":2769,"Ġfrequ":2770,"Ġminister":2771,"Ġusually":2772,"Ġforest":2773,"Ġthink":2774,"Ġstudents":2775,"Ġwoman":2776,"Ġburn":2777,"igan":2778,"Ġeducation":2779,"Ġamb":2780,"Ġwild":2781,"Ġidea":2782,"bc":2783,"Ġbud":2784,"acted":2785,"Ġquickly":2786,"wor":2787,"Ġmuse":2788,"Ġlimited":2789,"enue":2790,"Ġfranc":2791,"ully":2792,"Ġmight":2793,"Ġeffects":2794,"Ġguard":2795,"Ġanc":2796,"Ġconcern":2797,"Ġrh":2798,"Ġmovement":2799,"Ġ32":2800,"Ġresponse":2801,"Ġlib":2802,"Ġissue":2803,"Ġcertain":2804,"Ġprevent":2805,"Ġqueen":2806,"Ġgro":2807,"Ġsyn":2808,"atory":2809,"Ġcentre":2810,"Ġsurface":2811,"Ġcommander":2812,"Ġslow":2813,"Ġyour":2814,"aint":2815,"Ġpolic":2816,"Ġplant":2817,"Ġlay":2818,"Ġtun":2819,"Ġself":2820,"Ġfifth":2821,"Ġ1970":2822,"Ġespec":2823,"Ġdepartment":2824,"bour":2825,"Ġsand":2826,"Ġarrived":2827,"Ġ1980":2828,"Ġespecially":2829,"pr":2830,"Ġhosp":2831,"Ġservices":2832,"ergy":2833,"Ġbritain":2834,"Ġdecision":2835,"Ġparliam":2836,"sec":2837,"Ġface":2838,"Ġvoice":2839,"Ġfer":2840,"Ġvillage":2841,"Ġbox":2842,"Ġteams":2843,"Ġshows":2844,"ump":2845,"Ġrac":2846,"Ġcongress":2847,"Ġlie":2848,"Ġstructure":2849,"Ġgard":2850,"anded":2851,"ties":2852,"Ġran":2853,"Ġindustry":2854,"Ġoperations":2855,"Ġlarger":2856,"Ġfest":2857,"Ġwalk":2858,"Ġscience":2859,"Ġmuseum":2860,"Ġwriter":2861,"ba":2862,"Ġlyric":2863,"Ġbecoming":2864,"Ġepisodes":2865,"Ġremaining":2866,"Ġparliament":2867,"Ġremain":2868,"Ġlatter":2869,"Ġ-":2870,"ises":2871,"Ġestimated":2872,"Ġheav":2873,"Ġgot":2874,"fl":2875,"Ġcarried":2876,"Ġmultip":2877,"Ġdefeated":2878,"Ġdraw":2879,"Ġnetwork":2880,"aries":2881,"Ġdiscuss":2882,"wh":2883,"Ġpressure":2884,"Ġultim":2885,"pre":2886,"Ġblood":2887,"Ġflag":2888,"Ġ1999":2889,"oor":2890,"Ġprogress":2891,"iron":2892,"Ġcm":2893,"Ġsurround":2894,"Ġconsider":2895,"ites":2896,"Ġol":2897,"Ġscenes":2898,"Ġbul":2899,"Ġbrief":2900,"Ġleaving":2901,"Ġvirginia":2902,"de":2903,"Ġcand":2904,"Ġchanges":2905,"Ġrunning":2906,"Ġacqu":2907,"ulf":2908,"ession":2909,"Ġcomplet":2910,"Ġ36":2911,"Ġjew":2912,"Ġmas":2913,"Ġsuggested":2914,"ror":2915,"val":2916,"Ġentered":2917,"porary":2918,"Ġnearly":2919,"Ġdom":2920,"outh":2921,"ining":2922,"Ġ80":2923,"Ġquarter":2924,"Ġwinning":2925,"Ġappointed":2926,"Ġinfluence":2927,"Ġfail":2928,"Ġnaval":2929,"ift":2930,"Ġdate":2931,"Ġtwent":2932,"orial":2933,"Ġapproximately":2934,"Ġdepression":2935,"Ġchall":2936,"Ġsize":2937,"Ġros":2938,"Ġleader":2939,"Ġcapital":2940,"Ġlanguage":2941,"Ġfant":2942,"erve":2943,"Ġshortly":2944,"Ġmeth":2945,"Ġestablish":2946,"Ġislands":2947,"ania":2948,"Ġjackson":2949,"Ġfavor":2950,"Ġequip":2951,"Ġcourse":2952,"Ġempire":2953,"Ġthr":2954,"Ġscript":2955,"Ġtoday":2956,"Ġbra":2957,"ta":2958,"Ġfinally":2959,"Ġscreen":2960,"Ġemb":2961,"Ġfederal":2962,"ander":2963,"Ġtracks":2964,"Ġunl":2965,"Ġoly":2966,"Ġmission":2967,"change":2968,"Ġregiment":2969,"Ġupper":2970,"Ġlouis":2971,"Ġproposed":2972,"Ġcann":2973,"Ġwide":2974,"Ġdaughter":2975,"ulated":2976,"Ġwing":2977,"Ġpurch":2978,"Ġproducer":2979,"Ġhigher":2980,"Ġolymp":2981,"Ġmanager":2982,"Ġdestroyed":2983,"abor":2984,"Ġarrang":2985,"king":2986,"Ġnature":2987,"Ġvan":2988,"Ġdistrib":2989,"Ġlad":2990,"Ġexperience":2991,"Ġcer":2992,"Ġcorps":2993,"Ġenviron":2994,"burg":2995,"Ġhorse":2996,"Ġprincip":2997,"Ġspanish":2998,"Ġ75":2999,"Ġprovide":3000,"Ġrailway":3001,"Ġbreed":3002,"ires":3003,"Ġsubsequently":3004,"Ġaltern":3005,"Ġprofessional":3006,"mitted":3007,"idents":3008,"Ġcompared":3009,"ension":3010,"Ġbrigade":3011,"Ġconcept":3012,"Ġparen":3013,"oid":3014,"Ġhero":3015,"iser":3016,"Ġmarried":3017,"Ġbattles":3018,"Ġdiss":3019,"Ġemerg":3020,"Ġimmediately":3021,"Ġintended":3022,"Ġsaf":3023,"Ġ184":3024,"Ġaw":3025,"Ġprivate":3026,"Ġdemocr":3027,"Ġjournal":3028,"Ġcomplex":3029,"Ġ1960":3030,"Ġfans":3031,"Ġcele":3032,"Ġtemper":3033,"Ġpict":3034,"Ġ300":3035,"Ġsupported":3036,"inese":3037,"ns":3038,"Ġspir":3039,"Ġstay":3040,"ÃŃ":3041,"Ġentertain":3042,"Ġagreed":3043,"Ġmodel":3044,"Ġdone":3045,"Ġshoot":3046,"Ġedward":3047,"alled":3048,"Ġgi":3049,"Ġliber":3050,"Ġmr":3051,"Ġfeature":3052,"Ġinitial":3053,"Ġawarded":3054,"Ġcompan":3055,"Ġchicago":3056,"Ġbord":3057,"gy":3058,"Ġincreasing":3059,"ria":3060,"Ġarchit":3061,"Ġdisplay":3062,"Ġwhether":3063,"Ġweap":3064,"Ġbor":3065,"Ġhelped":3066,"Ġrelated":3067,"Ġintens":3068,"Ġcard":3069,"Ġbooks":3070,"Ġlegisl":3071,"Ġarchitect":3072,"Ġplanned":3073,"Ġimm":3074,"ching":3075,"aph":3076,"Ġ1998":3077,"Ġchinese":3078,"Ġofficer":3079,"down":3080,"Ġmom":3081,"Ã¶":3082,"Ġcreate":3083,"Ġbring":3084,"Ġfair":3085,"Ġtrade":3086,"Ġartic":3087,"Ġmont":3088,"hem":3089,"Ġlonger":3090,"uk":3091,"Ġsoldiers":3092,"Ġwit":3093,"Ġhere":3094,"Ġattr":3095,"ores":3096,"atively":3097,"Ġcause":3098,"Ġgal":3099,"Ġvalley":3100,"Ġconserv":3101,"Ġple":3102,"thing":3103,"omm":3104,"Ġyet":3105,"Ġplans":3106,"Ġbuildings":3107,"teen":3108,"ban":3109,"Ġcaptured":3110,"ny":3111,"Ġcolor":3112,"inct":3113,"Ġchanged":3114,"Ġwinter":3115,"asy":3116,"Ġforward":3117,"Ġpenn":3118,"Ġq":3119,"Ġunit":3120,"Ġblock":3121,"Ġconclud":3122,"Ġfriends":3123,"Ġdance":3124,"chester":3125,"Ġsubst":3126,"Ġsomething":3127,"Ġinstr":3128,"Ġassociated":3129,"ien":3130,"Ġcoach":3131,"Ġofficers":3132,"Ġspring":3133,"Ġwithd":3134,"Ġsingles":3135,"selves":3136,"Ġremains":3137,"Ġbillboard":3138,"Ġjohnson":3139,"Ġmostly":3140,"Ġ33":3141,"Ġstandard":3142,"abit":3143,"Ġthemselves":3144,"Ġkore":3145,"Ġsev":3146,"Ġrat":3147,"Ġpacific":3148,"ronic":3149,"oms":3150,"Ġcountries":3151,"Ġ70":3152,"Ġtarget":3153,"Ġlyrics":3154,"Ġmixed":3155,"riage":3156,"hl":3157,"Ġexam":3158,"Ġiron":3159,"Ġreally":3160,"Ġprobably":3161,"Ġextended":3162,"Ġpu":3163,"Ġmethod":3164,"Ġray":3165,"ken":3166,"well":3167,"Ġmoving":3168,"Ġnumerous":3169,"Ġfinanc":3170,"Ġattend":3171,"Ã¼":3172,"Ġinformation":3173,"ena":3174,"Ġcopies":3175,"Ġportray":3176,"Ġscot":3177,"Ġgoals":3178,"leg":3179,"Ġcontem":3180,"Ġalways":3181,"Ġnation":3182,"Ġfit":3183,"Ġvisit":3184,"Ġrid":3185,"Ġbirth":3186,"Ġlocation":3187,"Ġrequest":3188,"Ġsales":3189,"Ġoce":3190,"isions":3191,"Ġindividual":3192,"Ġca":3193,"Ġcit":3194,"Ġfocus":3195,"Ġenergy":3196,"Ġ1997":3197,"Ġissued":3198,"Ġmess":3199,"Ġatlantic":3200,"rated":3201,"olic":3202,"Ġleave":3203,"Ġincludes":3204,"Ġcounter":3205,"Ġstatus":3206,"Ġartist":3207,"rd":3208,"Ġmale":3209,"Ġsinger":3210,"ili":3211,"andon":3212,"Ġconference":3213,"Ġvia":3214,"Ġ37":3215,"Ġadmir":3216,"Ġsuffered":3217,"can":3218,"Ġtraff":3219,"Ġjim":3220,"Ġtas":3221,"Ġmartin":3222,"Ġflorida":3223,"Ġtal":3224,"Ġhospital":3225,"ands":3226,"Ġalbums":3227,"Ġimpact":3228,"Ġedition":3229,"hood":3230,"Ġbene":3231,"Ġproblems":3232,"Ġmeeting":3233,"Ġmaxim":3234,"Ġdouble":3235,"Ġgall":3236,"Ġlikely":3237,"Ġtermin":3238,"Ġincrease":3239,"Ġindependent":3240,"Ġcarry":3241,"Ġassemb":3242,"Ġdog":3243,"bury":3244,"Ġcelebr":3245,"Ġmovie":3246,"Ġapproach":3247,"Ġchina":3248,"Ġremoved":3249,"Ġtexas":3250,"pan":3251,"Ġrevolution":3252,"bed":3253,"Ġinspired":3254,"Ġbond":3255,"Ġforeign":3256,"atives":3257,"Ġmaster":3258,"chan":3259,"Ġrang":3260,"Ġrefle":3261,"ole":3262,"Ġcompos":3263,"Ġterms":3264,"Ġprimary":3265,"Ġmajority":3266,"Ġsir":3267,"Ġkind":3268,"Ġdv":3269,"Ġast":3270,"lands":3271,"Ġice":3272,"Ġwa":3273,"Ġoffered":3274,"Ġtakes":3275,"Ġcreek":3276,"vin":3277,"ograph":3278,"Ġconsist":3279,"Ġvehic":3280,"vey":3281,"Ġqual":3282,"Ġminute":3283,"Ġstad":3284,"Ġinterse":3285,"Ġtons":3286,"ously":3287,"aily":3288,"Ġens":3289,"isc":3290,"Ġdrum":3291,"iter":3292,"Ġentertainment":3293,"Ġadop":3294,"Ġmakes":3295,"ari":3296,"Ġattacks":3297,"Ġut":3298,"ounted":3299,"Ġfox":3300,"Ġconfir":3301,"Ġign":3302,"Ġword":3303,"Ġcomposed":3304,"ounds":3305,"Ġ183":3306,"Ġraised":3307,"Ġenvironment":3308,"Ġoil":3309,"Ġcanadian":3310,"Ġdamaged":3311,"Ġcombat":3312,"etic":3313,"Ġranked":3314,"Ã³":3315,"Ġprec":3316,"Ġlog":3317,"Ġcarol":3318,"Ġafrica":3319,"het":3320,"Ġletter":3321,"aches":3322,"Ġconcert":3323,"Ġdaily":3324,"icted":3325,"Ġappears":3326,"Ġrevealed":3327,"Ġcyclone":3328,"Ġcateg":3329,"Ġshar":3330,"Ġund":3331,"Ġselected":3332,"light":3333,"Ġsimp":3334,"Ġtrain":3335,"Ġdiscovered":3336,"Ġmetal":3337,"ucle":3338,"Ġdeterm":3339,"Ġmountain":3340,"Ġfighting":3341,"oo":3342,"Ġactive":3343,"Ġwrest":3344,"Ġsar":3345,"ify":3346,"Ġdeg":3347,"Ġrussian":3348,"Ġtwenty":3349,"Ġ90":3350,"Ġconditions":3351,"Ġinside":3352,"Ġkent":3353,"Ġdemon":3354,"Ġmorning":3355,"uries":3356,"Ġschol":3357,"Ġgreater":3358,"Ġera":3359,"ails":3360,"Ġunable":3361,"Ġsports":3362,"era":3363,"Ġlaunched":3364,"ung":3365,"Ġrespectively":3366,"Ġven":3367,"Ġwr":3368,"umed":3369,"aland":3370,"Ġtv":3371,"ee":3372,"Ġwhole":3373,"Ġsched":3374,"Ġ1995":3375,"Ġsister":3376,"Ġissues":3377,"Ġnumbers":3378,"ste":3379,"Ġneeded":3380,"Ġincor":3381,"Ġangeles":3382,"Ġyard":3383,"Ġsmaller":3384,"Ġconnect":3385,"Ġlived":3386,"uth":3387,"Ġthir":3388,"Ġos":3389,"Ġcontains":3390,"ado":3391,"Ġ34":3392,"Ġtraditional":3393,"Ġtouch":3394,"Ġbelow":3395,"Ġbed":3396,"Ġadvance":3397,"ription":3398,"lor":3399,"Ġshown":3400,"Ġattempted":3401,"Ġnewsp":3402,"zz":3403,"Ġslight":3404,"Ġculture":3405,"Ġoccurred":3406,"Ġyards":3407,"Ġattacked":3408,"Ġreligious":3409,"Ġcart":3410,"Ġpick":3411,"Ġstra":3412,"uals":3413,"Ġiii":3414,"Ġsilver":3415,"uments":3416,"use":3417,"aj":3418,"Ġnick":3419,"aging":3420,"Ġcab":3421,"ortun":3422,"joy":3423,"iest":3424,"Ġ38":3425,"Ġtourn":3426,"Ġrein":3427,"Ġactor":3428,"Ġrare":3429,"Ġrecover":3430,"Ġlarg":3431,"Ġfestival":3432,"Ġring":3433,"Ġelected":3434,"Ġannual":3435,"Ġdefeat":3436,"anced":3437,"ech":3438,"Ġ2016":3439,"Ġiv":3440,"Ġ1996":3441,"Ġreform":3442,"aught":3443,"Ġreferred":3444,"Ġ1950":3445,"Ġpeace":3446,"Ġconstant":3447,"new":3448,"Ġneigh":3449,"izing":3450,"Ġfrancis":3451,"Ġmind":3452,"Ġbab":3453,"cting":3454,"uing":3455,"Ġdra":3456,"rial":3457,"vert":3458,"Ġbon":3459,"olk":3460,"Ġtheme":3461,"Ġsav":3462,"amb":3463,"Ġpsy":3464,"Ġaudience":3465,"Ġschools":3466,"Ġmagn":3467,"Ġlargely":3468,"Ġris":3469,"Ġprince":3470,"Ġresulted":3471,"Ġdun":3472,"urity":3473,"Ġjose":3474,"rian":3475,"Ġdar":3476,"Ġassigned":3477,"Ġlink":3478,"Ġcovered":3479,"enant":3480,"Ġocean":3481,"Ġath":3482,"Ġexpress":3483,"asc":3484,"Ġlisted":3485,"Ġvariety":3486,"Ġcollection":3487,"Ġitalian":3488,"Ġfast":3489,"Ġpurp":3490,"Ġglob":3491,"uated":3492,"Ġban":3493,"Ġguest":3494,"Ġcompetition":3495,"Ġ1994":3496,"Ġcath":3497,"hold":3498,"ya":3499,"mi":3500,"Ġash":3501,"Ġearned":3502,"Ġstadium":3503,"Ġexpected":3504,"Ġcontrovers":3505,"Ġcommented":3506,"Ġnames":3507,"Ġhaw":3508,"itude":3509,"ls":3510,"ãĥ":3511,"Ġstarting":3512,"Ġnucle":3513,"Ġclosed":3514,"tered":3515,"Ġattention":3516,"Ġdocument":3517,"Ġquestion":3518,"Ġperformances":3519,"Ġrapid":3520,"Ġenter":3521,"Ġsout":3522,"ental":3523,"Ġairport":3524,"quar":3525,"Ġaccount":3526,"Ġgiving":3527,"Ġlegal":3528,"Ġkar":3529,"Ġfigh":3530,"Ġextre":3531,"Ġrefused":3532,"Ġeconomic":3533,"Ġviet":3534,"Ġcust":3535,"Ġrepe":3536,"Ġcham":3537,"Ġimper":3538,"Ġcompl":3539,"Ġgreatest":3540,"Ġcrow":3541,"Ġmir":3542,"ounts":3543,"ij":3544,"Ġenjoy":3545,"Ġwaters":3546,"Ġsett":3547,"Ġelectric":3548,"Ġmichigan":3549,"aped":3550,"Ġstories":3551,"utions":3552,"Ġtower":3553,"ples":3554,"Ġability":3555,"nding":3556,"Ġnotes":3557,"Ġserious":3558,"Ġdirection":3559,"Ġdie":3560,"Ġstan":3561,"Ġmun":3562,"Ġrate":3563,"Ġmeant":3564,"Ġhund":3565,"Ġdeclared":3566,"Ġ1940":3567,"Ġwales":3568,"Ġpromin":3569,"bridge":3570,"Ġvocals":3571,"Ġod":3572,"Ġnative":3573,"Ġmatches":3574,"Ġthings":3575,"Ġpoll":3576,"Ġspl":3577,"Ġ49":3578,"isher":3579,"bre":3580,"pted":3581,"Ġhundred":3582,"Ġmention":3583,"Ġhus":3584,"Ġ180":3585,"Ġlevels":3586,"Ġswe":3587,"Ġwords":3588,"uff":3589,"uf":3590,"Ġabandon":3591,"Ġkh":3592,"gl":3593,"Ġmarriage":3594,"Ġnearby":3595,"Ġchann":3596,"ims":3597,"Ġproduce":3598,"Ġtext":3599,"Ġcry":3600,"ker":3601,"Ġpractice":3602,"Ġconstitution":3603,"ona":3604,"Ġnecess":3605,"Ġfill":3606,"Ġprep":3607,"Ġconstructed":3608,"Ġdefense":3609,"Ġsource":3610,"Ġfantasy":3611,"Ġlot":3612,"odies":3613,"Ġdoctor":3614,"win":3615,"ols":3616,"Ġcandid":3617,"iences":3618,"icient":3619,"Ġ1992":3620,"pass":3621,"wide":3622,"Ġ41":3623,"Ġdvd":3624,"gs":3625,"Ġvocal":3626,"Ġmatt":3627,"road":3628,"Ġemper":3629,"Ġseparate":3630,"Ġlabor":3631,"Ġhighly":3632,"Ġmeans":3633,"icated":3634,"Ġfarm":3635,"Ġwriters":3636,"Ġeth":3637,"Ġess":3638,"ette":3639,"Ġspot":3640,"itation":3641,"Ġexecutive":3642,"Ġmedical":3643,"Ġrow":3644,"ram":3645,"Ġcontroll":3646,"umn":3647,"ellow":3648,"Ġdirectly":3649,"Ġobserv":3650,"ging":3651,"Ġda":3652,"Ġsle":3653,"Ġexhib":3654,"Ġpresented":3655,"Ġweather":3656,"Ġpurs":3657,"ishop":3658,"Ġultimately":3659,"Ġcontinue":3660,"Ġreduced":3661,"Ġnorthwest":3662,"ping":3663,"Ġcub":3664,"Ġzealand":3665,"kin":3666,"Ġpositions":3667,"Ġeffort":3668,"Ġafrican":3669,"mas":3670,"Ġmultiple":3671,"Ġjer":3672,"Ġchem":3673,"Ġadmiral":3674,"writ":3675,"Ġbound":3676,"Ġmexico":3677,"Ġflow":3678,"Ġefforts":3679,"Ġ400":3680,"ibly":3681,"Ġanimals":3682,"Ġbrad":3683,"Ġmechan":3684,"Ġchris":3685,"Ġformation":3686,"Ġdism":3687,"Ġlieut":3688,"Åį":3689,"band":3690,"Ġ1930":3691,"Ġhouses":3692,"rical":3693,"ogue":3694,"ding":3695,"Ġtried":3696,"Ġattended":3697,"Ġlin":3698,"Ġgas":3699,"Ġsettle":3700,"Ġstrateg":3701,"Ġaccepted":3702,"Ġstudies":3703,"Ġdyn":3704,"kn":3705,"Ġwear":3706,"Ġbatter":3707,"Ġ55":3708,"Ġtalk":3709,"Ġfinancial":3710,"Ġstating":3711,"Ġrule":3712,"don":3713,"Ġparal":3714,"acher":3715,"Ġlibr":3716,"Ġspecific":3717,"Ġdepend":3718,"Ġsymb":3719,"Ġmemorial":3720,"Ġadvent":3721,"vement":3722,"Ġmadonna":3723,"Ġ1993":3724,"Ġseem":3725,"Ġoh":3726,"Ġpair":3727,"Ġbob":3728,"la":3729,"rie":3730,"Ġ1991":3731,"track":3732,"Ġsaint":3733,"Ġcerem":3734,"Ġincorpor":3735,"Ġhonor":3736,"rier":3737,"Ġbegins":3738,"Ġrecomm":3739,"Ġpilot":3740,"isation":3741,"Äĩ":3742,"Ġending":3743,"Ġscotland":3744,"Ġtrue":3745,"Ġthick":3746,"Ġcases":3747,"Ġram":3748,"Ġinch":3749,"Ġ179":3750,"Ġlif":3751,"Ġjones":3752,"anes":3753,"ruction":3754,"Ġorganization":3755,"Ġtraffic":3756,"Ġtheatre":3757,"Ġenemy":3758,"ners":3759,"house":3760,"rey":3761,"Ġrough":3762,"Ġbell":3763,"Ġpack":3764,"Ġsides":3765,"Ġdrive":3766,"oper":3767,"Ġarrest":3768,"Ġluc":3769,"Ġflying":3770,"Ġmob":3771,"Ġmanaged":3772,"Ġarab":3773,"Ġgreek":3774,"Ġconfl":3775,"Ġmeaning":3776,"Ġpath":3777,"illery":3778,"Ġ+":3779,"Ġkenn":3780,"Ġforms":3781,"Ġresponsible":3782,"Ġuses":3783,"Ġkept":3784,"Ġ39":3785,"Ġresulting":3786,"Ġtournament":3787,"Ġeye":3788,"Ġsoundtrack":3789,"Ġwound":3790,"Ġdropped":3791,"Ġacademy":3792,"Ġshowed":3793,"Ġlieutenant":3794,"Ġrose":3795,"Ġprotest":3796,"Ġauthority":3797,"Ġmos":3798,"Ġles":3799,"Ġprime":3800,"Ġpolicy":3801,"Ġ182":3802,"Ġquality":3803,"Ġbost":3804,"Ġwick":3805,"Ġfat":3806,"Ġedge":3807,"une":3808,"Ġ48":3809,"Ġstrugg":3810,"Ġhors":3811,"Ġexped":3812,"Ġapart":3813,"Ġdru":3814,"claim":3815,"uit":3816,"Ġ42":3817,"ceeded":3818,"Ġsecretary":3819,"Ġfounded":3820,"Ġspirit":3821,"Ġacting":3822,"Ġded":3823,"Ġell":3824,"Ġcombined":3825,"Ġadministration":3826,"Ġboat":3827,"Ġmarked":3828,"Ġproperty":3829,"Ġcontinues":3830,"Ġtrial":3831,"ada":3832,"ips":3833,"Ġsystems":3834,"Ġartillery":3835,"Ġwilliams":3836,"Ġpropos":3837,"Ġemperor":3838,"Ġbit":3839,"Ġinches":3840,"Ġsubsequent":3841,"Ġartists":3842,"Ġ181":3843,"Ġencoun":3844,"nam":3845,"Ġparis":3846,"Ġattempts":3847,"ex":3848,"Ġterritory":3849,"Ġcontemporary":3850,"Ġsearch":3851,"gypt":3852,"Ġdraft":3853,"iated":3854,"Ġextr":3855,"uge":3856,"thel":3857,"Ġviewers":3858,"Ġperf":3859,"Ġpotential":3860,"Ġmarsh":3861,"Ġstudios":3862,"ani":3863,"Ġplanet":3864,"Ġsteam":3865,"Ġthous":3866,"Ġcompanies":3867,"Ġrear":3868,"Ġnortheast":3869,"icip":3870,"ulations":3871,"Ġallowing":3872,"Ġpresence":3873,"Ġsixth":3874,"Ġscale":3875,"Ġrecent":3876,"Ġbehav":3877,"Ġprepar":3878,"Ġconducted":3879,"Ġofficials":3880,"Ġcoal":3881,"Ġegypt":3882,"Ġsuppl":3883,"je":3884,"thur":3885,"Ġpiece":3886,"Ġobt":3887,"Ġdigital":3888,"oe":3889,"Ġjob":3890,"Ġrespond":3891,"Ġmu":3892,"Ġseg":3893,"Ġ1942":3894,"Ġfilming":3895,"Ġamount":3896,"Ġcollabor":3897,"Ġlee":3898,"ket":3899,"Ġhyd":3900,"standing":3901,"Ġscoring":3902,"Ġcontrast":3903,"Ġmachine":3904,"olf":3905,"Ġyellow":3906,"Ġparents":3907,"Ġmetres":3908,"Ġopportun":3909,"ingu":3910,"Ġic":3911,"Ġcorpor":3912,"Ġlatin":3913,"Ġtransferred":3914,"Ġmaximum":3915,"Ġdise":3916,"Ġsenior":3917,"Ġheadquar":3918,"Ġstephen":3919,"rain":3920,"Ġdefence":3921,"Ġfigure":3922,"Ġcoming":3923,"Ġsac":3924,"Ġfeaturing":3925,"inem":3926,"Ġgeorg":3927,"cle":3928,"Ġtheory":3929,"Ġtemple":3930,"enge":3931,"Ġtherefore":3932,"Ġ47":3933,"Ġoxford":3934,"Ġprimarily":3935,"Ġallied":3936,"Ġstudent":3937,"Ġowned":3938,"Ġpeaked":3939,"Ġ65":3940,"Ġrelatively":3941,"Ġtorped":3942,"Ġelev":3943,"Ġbecomes":3944,"Ġtitled":3945,"Ġcold":3946,"aga":3947,"Ġrecommend":3948,"Ġactually":3949,"Ġtorpedo":3950,"Ġdistance":3951,"iance":3952,"Ġjoseph":3953,"ero":3954,"Ġcitiz":3955,"Ġbeaut":3956,"ersey":3957,"Ġportion":3958,"Ġconcluded":3959,"Ġcert":3960,"Ġmort":3961,"Ġstock":3962,"Ġpremi":3963,"Ġconver":3964,"Ġboston":3965,"Ġwrite":3966,"Ġmut":3967,"Ġmanchester":3968,"Ġton":3969,"Ġharrison":3970,"Ġbattleship":3971,"Ġchair":3972,"Ġjeff":3973,"Ġpsych":3974,"Ġtransl":3975,"Ġsituation":3976,"orter":3977,"Ġbass":3978,"Ġfunction":3979,"Ġshare":3980,"Ġobserved":3981,"Ġselling":3982,"Ġstrength":3983,"Ġswed":3984,"Ġphysical":3985,"osh":3986,"Ġinvasion":3987,"Ġbroke":3988,"Ġtree":3989,"Ġliver":3990,"Ġcommunic":3991,"arent":3992,"Ġresults":3993,"Ġplays":3994,"Ġdistinct":3995,"Ġalongside":3996,"ented":3997,"Ġdoll":3998,"ca":3999,"Ġ52":4000,"Ġconcent":4001,"Ġpaid":4002,"ini":4003,"Ġrating":4004,"istics":4005,"Ġcalling":4006,"Ġdivided":4007,"Ġsources":4008,"Ġseconds":4009,"Ġ46":4010,"Ġresist":4011,"Ġcities":4012,"ita":4013,"Ġ1944":4014,"Ġfred":4015,"Ġcolumb":4016,"Ġsecurity":4017,"Ġpersonnel":4018,"Ġreturning":4019,"Ġpowerful":4020,"Ġcontest":4021,"stein":4022,"Ġslightly":4023,"Ġott":4024,"Ġmanagement":4025,"Ġinh":4026,"Ġreject":4027,"Ġborder":4028,"Ġhistorian":4029,"Ġshell":4030,"Ġhistorical":4031,"Ġarts":4032,"Ġhan":4033,"Ġbirds":4034,"Ġ64":4035,"Ġminim":4036,"Ġnothing":4037,"Ġadj":4038,"Ġactions":4039,"Ġkg":4040,"Ġ43":4041,"Ġonto":4042,"Ġmile":4043,"aming":4044,"Ġbeach":4045,"Ġsust":4046,"Ġelse":4047,"Ġfear":4048,"ider":4049,"Ġtrust":4050,"Ġcanc":4051,"Ġplatform":4052,"Ġinfluenced":4053,"Ġvess":4054,"Ġfreed":4055,"Ġow":4056,"astic":4057,"Ġactivity":4058,"Ġinnings":4059,"ctive":4060,"Ġ44":4061,"unt":4062,"Ġimperial":4063,"ils":4064,"Ġfan":4065,"Ġsuc":4066,"Ġbbc":4067,"Ġcultural":4068,"Ġathlet":4069,"Ġcomedy":4070,"Ġnominated":4071,"Ġrod":4072,"Ġresidents":4073,"Ġpromoted":4074,"Ġire":4075,"Ġresc":4076,"Ġcrown":4077,"osaur":4078,"Ġdesignated":4079,"Ġcroat":4080,"force":4081,"Ġpassing":4082,"po":4083,"Ġproblem":4084,"Ġmis":4085,"stone":4086,"Ġlov":4087,"Ġorche":4088,"Ġcompletely":4089,"phy":4090,"ellig":4091,"Ġlane":4092,"Ġsubs":4093,"Ġconflict":4094,"Ġweight":4095,"Ġsexual":4096,"Ġheight":4097,"Ġmainly":4098,"Ġcharts":4099,"iced":4100,"Ġarms":4101,"istry":4102,"Ġpaper":4103,"Ġencour":4104,"Ġtrail":4105,"Ġrot":4106,"Ġavenue":4107,"Ġpoet":4108,"Ġsought":4109,"Ġcontent":4110,"Ġwebs":4111,"Ġstruck":4112,"Ġ1920":4113,"ault":4114,"Ġ1945":4115,"Ġreplac":4116,"Ġhands":4117,"Ġsense":4118,"Ġseasons":4119,"nds":4120,"lement":4121,"Ġfeed":4122,"Ġvari":4123,"mond":4124,"Ġdoub":4125,"za":4126,"Ġpul":4127,"Ġfish":4128,"Ġancient":4129,"Ġcharge":4130,"Ġconsec":4131,"Ġ1941":4132,"Ġwars":4133,"Ġreaching":4134,"Ġ150":4135,"Ġspect":4136,"zy":4137,"Ġfellow":4138,"ills":4139,"Ġinstrument":4140,"Ġcell":4141,"yer":4142,"iano":4143,"while":4144,"Ġitaly":4145,"Ġimage":4146,"Ġmit":4147,"Ġdang":4148,"Ġweapons":4149,"Ġchannel":4150,"Ġmedal":4151,"Ġsr":4152,"olved":4153,"Ġwidely":4154,"Ġgil":4155,"acts":4156,"Ġfavour":4157,"Ġry":4158,"Ġamericans":4159,"Ġappearances":4160,"Ġhabit":4161,"Ġemot":4162,"ques":4163,"Ġjersey":4164,"Ġalone":4165,"ura":4166,"Ġbaseball":4167,"Ġconfirmed":4168,"iber":4169,"Ġgained":4170,"Ġkr":4171,"ylv":4172,"Ġfres":4173,"Ġfiction":4174,"Ġintellig":4175,"Ġshel":4176,"Ġbeyond":4177,"adel":4178,"Ġcrick":4179,"Ġbrothers":4180,"Ġgra":4181,"Ġjoin":4182,"Ġchoice":4183,"Ġolder":4184,"Ġireland":4185,"Ġbru":4186,"ota":4187,"Ġelement":4188,"Ġversions":4189,"rative":4190,"Ġproved":4191,"Ġcarl":4192,"Ġanalys":4193,"roll":4194,"uled":4195,"Ġlibrary":4196,"oman":4197,"Ġexplained":4198,"cers":4199,"mans":4200,"Ġreign":4201,"Ġoffer":4202,"aling":4203,"Ġmurder":4204,"Ġsteel":4205,"Ġexpans":4206,"Ġahead":4207,"oration":4208,"Ġsays":4209,"Ġsens":4210,"ule":4211,"Ġdw":4212,"Ġnegot":4213,"Ġheadquarters":4214,"Ġ1989":4215,"Ġalt":4216,"Ġserve":4217,"known":4218,"Ġfloor":4219,"Ġopt":4220,"Ġcomes":4221,"Ġcausing":4222,"bon":4223,"Ġspeech":4224,"ican":4225,"Ġhotel":4226,"Ġrainfall":4227,"Ġ1943":4228,"Ġsant":4229,"Ġrequire":4230,"dy":4231,"Ġsuit":4232,"Ġcatholic":4233,"Ġfal":4234,"Ġvictoria":4235,"Ġhorses":4236,"Ġrecon":4237,"Ġworkers":4238,"Ġexpressed":4239,"town":4240,"ety":4241,"Ġ51":4242,"Ġcharl":4243,"Ġsplit":4244,"Ġequipment":4245,"Ġarticle":4246,"ares":4247,"ees":4248,"Ġapparent":4249,"Ġgrowth":4250,"Ġreports":4251,"Ġroads":4252,"Ġbowl":4253,"Ġoccasion":4254,"Ġexperiment":4255,"ancy":4256,"Ġgross":4257,"Ġdrama":4258,"Ġadvanced":4259,"Ġprominent":4260,"Ġoffensive":4261,"Ġpap":4262,"Ġbranch":4263,"Ġhusband":4264,"Ġofficially":4265,"Ġcapture":4266,"Ġidentified":4267,"Ġworldwide":4268,"Ġcategory":4269,"Ġsoft":4270,"Ġsetting":4271,"usion":4272,"ufact":4273,"gu":4274,"Ġarmed":4275,"Ġsurre":4276,"Ġtells":4277,"Ġsport":4278,"Ġcomputer":4279,"Ġjustice":4280,"ighth":4281,"Ġcricket":4282,"oured":4283,"Ġmanufact":4284,"iÄĩ":4285,"Ġpattern":4286,"Ġmatter":4287,"Ġescape":4288,"Ġextra":4289,"Ġbott":4290,"Ġheavily":4291,"Ġtrees":4292,"Ġreserve":4293,"Ġspread":4294,"Ġrepresented":4295,"Ġsnow":4296,"Ġactivities":4297,"mark":4298,"iring":4299,"Ġtreatment":4300,"Ġunf":4301,"Ġadapt":4302,"Ġleaves":4303,"bit":4304,"Ġplaces":4305,"Ġpieces":4306,"Ġactress":4307,"Ġsenate":4308,"Ġleaders":4309,"Ġmeanwhile":4310,"Ġavoid":4311,"Ġtay":4312,"Ġjul":4313,"Ġfigures":4314,"Ġwhy":4315,"Ġbelieve":4316,"Ġduke":4317,"Ġfired":4318,"bi":4319,"Ġagreement":4320,"Ġinjury":4321,"abeth":4322,"Ġexpedition":4323,"Ġdutch":4324,"ube":4325,"ylvania":4326,"Ġdata":4327,"Ġprin":4328,"Ġlives":4329,"Ġalbert":4330,"Ġtoward":4331,"Ġillust":4332,"Ġeliz":4333,"Ġsupply":4334,"Ġunknown":4335,"Ġdoing":4336,"where":4337,"Ġanth":4338,"Ġunlike":4339,"Ġcouple":4340,"Ġeditor":4341,"Ġlaid":4342,"Ġdebuted":4343,"Ġkilomet":4344,"hire":4345,"Ġdin":4346,"essions":4347,"acity":4348,"pool":4349,"Ġpin":4350,"Ġconsisted":4351,"Ġri":4352,"ours":4353,"Ġcasual":4354,"Ġmig":4355,"Ġwalls":4356,"Ġaired":4357,"Ġstrike":4358,"Ġid":4359,"Ġargued":4360,"Ġstations":4361,"Ġopin":4362,"Ġbart":4363,"Ġwatch":4364,"Ġtypically":4365,"Ġspin":4366,"Ġimag":4367,"Ġopposition":4368,"Ġhomer":4369,"more":4370,"Ġstore":4371,"osen":4372,"Ġsevere":4373,"Ġreference":4374,"Ġmoment":4375,"Ġpolish":4376,"Ġdream":4377,"Ġtwice":4378,"ushed":4379,"Ġaffected":4380,"Ġclaims":4381,"Ġmounted":4382,"Ġdescription":4383,"Ġanimal":4384,"oty":4385,"iles":4386,"Ġaspect":4387,"Ġcra":4388,"bn":4389,"Ġnations":4390,"Ġpowers":4391,"inson":4392,"Ġactors":4393,"Ġindustrial":4394,"lines":4395,"ads":4396,"Ġsky":4397,"Ġtechnology":4398,"Ġjon":4399,"Ġsher":4400,"Ġnotable":4401,"Ġ600":4402,"Ġsupre":4403,"elle":4404,"Ġfaced":4405,"Ġmaintained":4406,"Ġaccident":4407,"Ġvalue":4408,"Ġemph":4409,"Ġtrying":4410,"Ġtable":4411,"Ġknight":4412,"Ġvisited":4413,"ifying":4414,"Ġdaniel":4415,"Ġconvers":4416,"Ġorders":4417,"Ġprotection":4418,"Ġcriticized":4419,"Ġconne":4420,"Ġmotor":4421,"gers":4422,"Ġfuel":4423,"Ġdelay":4424,"Ġflu":4425,"Ġcarolina":4426,"Ġholly":4427,"worth":4428,"Ġlanding":4429,"Ġba":4430,"Ġbroken":4431,"Ġgrowing":4432,"Ġfully":4433,"Ġsom":4434,"ockey":4435,"Ġresident":4436,"har":4437,"emic":4438,"Ġmotion":4439,"Ġchosen":4440,"Ġmul":4441,"Ġtwel":4442,"Ġet":4443,"Ġinstitute":4444,"enger":4445,"ruit":4446,"Ġscottish":4447,"gian":4448,"Ġsail":4449,"Ġ53":4450,"Ġcooper":4451,"Ġ1987":4452,"Ġlabel":4453,"Ġhat":4454,"Ġdur":4455,"Ġproducers":4456,"Ġcriticism":4457,"Ġtwelve":4458,"Ġdemonstr":4459,"Ġcompar":4460,"Ġsolo":4461,"Ġ1988":4462,"Ġfrequently":4463,"ocks":4464,"Ġyouth":4465,"Ġphilos":4466,"Ġbol":4467,"Ġurban":4468,"Ġseventh":4469,"Ġentr":4470,"Ġnest":4471,"Ġcondition":4472,"clusion":4473,"Ġjoint":4474,"Ġta":4475,"Ġlands":4476,"Ġmd":4477,"Ġpenns":4478,"Ġ85":4479,"Ġbenef":4480,"Ġinte":4481,"Ġaccompan":4482,"agn":4483,"Ġtra":4484,"Ġgolden":4485,"Ġnewspaper":4486,"ayer":4487,"Ġlooking":4488,"Ġchor":4489,"Ġnuclear":4490,"Ġvice":4491,"Ġoppos":4492,"Ġindependence":4493,"Ġlew":4494,"Ġbillion":4495,"Ġdegree":4496,"Ġcomposition":4497,"ala":4498,"Ġbudget":4499,"Ġcomic":4500,"Ġsurrounding":4501,"Ġregister":4502,"Ġwounded":4503,"rael":4504,"ola":4505,"ordin":4506,"Ġmoon":4507,"Ġassembly":4508,"Ġperfect":4509,"Ġbarb":4510,"izes":4511,"Ġrepublican":4512,"Ġhip":4513,"Ġoperated":4514,"Ġcreation":4515,"Ġserving":4516,"Ġgrew":4517,"Ġsimply":4518,"Ġdry":4519,"uous":4520,"Ġexpansion":4521,"Ġfollows":4522,"Ġchampion":4523,"Ġvote":4524,"Ġcool":4525,"Ġrisk":4526,"ano":4527,"Ġrival":4528,"Ġfamous":4529,"Ġcontained":4530,"ias":4531,"Ġincident":4532,"Ġherself":4533,"Ġagric":4534,"Ġnewly":4535,"Ġlosing":4536,"Ġweekly":4537,"Ġcontact":4538,"Ġsoutheast":4539,"under":4540,"wise":4541,"Ġkilling":4542,"Ġandrew":4543,"Ġoppon":4544,"Ġindividuals":4545,"Ġbc":4546,"yle":4547,"Ġcaval":4548,"Ġends":4549,"mission":4550,"Ġpasses":4551,"wall":4552,"Ġnormal":4553,"Ġcinem":4554,"Ġpros":4555,"Ġapplic":4556,"Ġchristmas":4557,"Ġjac":4558,"urb":4559,"ivity":4560,"Ġsin":4561,"Ã¨":4562,"Ġgh":4563,"hew":4564,"Ġ54":4565,"cul":4566,"Ġheard":4567,"Ġattrib":4568,"Ġwilson":4569,"Ġbac":4570,"Ġchronic":4571,"ote":4572,"rid":4573,"Ġconsecutive":4574,"Ġtam":4575,"Ġeyes":4576,"isters":4577,"Ġorchest":4578,"Ġhomes":4579,"Ġaer":4580,"Ġnav":4581,"Ġwebsite":4582,"Ġemphas":4583,"Ġmeasure":4584,"Ġtaylor":4585,"Ġcannot":4586,"ucky":4587,"pton":4588,"Ġelizabeth":4589,"Ġthing":4590,"Ġ1986":4591,"Ġsupporting":4592,"Ġopposed":4593,"Ġchose":4594,"Ġperman":4595,"Ġnarrow":4596,"illy":4597,"Ġvolume":4598,"ographer":4599,"Ġalexander":4600,"Ġconsequ":4601,"ults":4602,"Ġpoly":4603,"Ġcrossing":4604,"Ġjoe":4605,"fully":4606,"Ġagricult":4607,"Ġnote":4608,"Ġ95":4609,"Ġskin":4610,"Ġvon":4611,"Ġsequence":4612,"Ġwave":4613,"Ġ56":4614,"Ġdub":4615,"Ġleadership":4616,"water":4617,"Ġthemes":4618,"Ġ97":4619,"Ġparticipated":4620,"Ġrise":4621,"jo":4622,"yr":4623,"Ġadopted":4624,"Ġdisease":4625,"cend":4626,"Ġeld":4627,"ãĤ":4628,"Ġcapacity":4629,"Ġhair":4630,"Ġhistoric":4631,"prise":4632,"Ġextend":4633,"estic":4634,"Ġstanding":4635,"Ġdefin":4636,"Ġcolonel":4637,"ancing":4638,"Ġfresh":4639,"Ã¤":4640,"Ġmax":4641,"Ġplants":4642,"Ġtry":4643,"Ġfamil":4644,"Ġvisual":4645,"Ġfilmed":4646,"Ġadvant":4647,"Ġabandoned":4648,"Ġnegative":4649,"lam":4650,"imens":4651,"Ġevac":4652,"Ġbasis":4653,"Ġpennsylvania":4654,"Ġdemocratic":4655,"Ġegg":4656,"uting":4657,"Ġstraight":4658,"Ġlic":4659,"greg":4660,"Ġtall":4661,"Ġpier":4662,"iled":4663,"Ġfailure":4664,"Ġdrop":4665,"Ġmike":4666,"Ġrand":4667,"Ġappl":4668,"Ġgameplay":4669,"Ġcreating":4670,"kins":4671,"Ġregarded":4672,"Ġchalleng":4673,"Ġ177":4674,"Ġsund":4675,"Ġpossibly":4676,"Ġlap":4677,"uses":4678,"Ġarc":4679,"Ġclin":4680,"ko":4681,"Ġtreaty":4682,"Ġirish":4683,"tery":4684,"Ġdeploy":4685,"Ġgirls":4686,"Ġbodies":4687,"ev":4688,"Ġpalace":4689,"isers":4690,"Ġtrip":4691,"Ġharry":4692,"Ġcanal":4693,"Ġfoundation":4694,"Ġdistingu":4695,"Ġseat":4696,"Ġlady":4697,"ux":4698,"Ġlege":4699,"Ġcore":4700,"Ġadult":4701,"rane":4702,"Ġtend":4703,"Ġkid":4704,"Ġkick":4705,"Ġmerch":4706,"Ġeag":4707,"Ġideas":4708,"Ġspain":4709,"Ġreact":4710,"Ġinterchange":4711,"Ġadvert":4712,"Ġlind":4713,"Ġdismiss":4714,"Ġparalle":4715,"onc":4716,"Ġsel":4717,"Ġretired":4718,"Ġzone":4719,"amm":4720,"Ġmist":4721,"Ġtank":4722,"Ġwel":4723,"Ġped":4724,"Ġsurrender":4725,"tv":4726,"azz":4727,"gal":4728,"Ġtell":4729,"Ġhockey":4730,"Ġextensive":4731,"Ġ178":4732,"Ġdeliver":4733,"rol":4734,"Ġyounger":4735,"Ġ76":4736,"Ġdeck":4737,"Ġnob":4738,"Ġscholars":4739,"Ġdial":4740,"Ġaid":4741,"ruct":4742,"Ġroles":4743,"Ġhope":4744,"Ġgarden":4745,"Ġatm":4746,"ato":4747,"Ġexplos":4748,"Ġanalysis":4749,"Ġfranch":4750,"Ġopera":4751,"ledge":4752,"Ġ1939":4753,"Ġworth":4754,"Ġrailroad":4755,"Ġgate":4756,"Ġbishop":4757,"Ġga":4758,"Ġridge":4759,"anda":4760,"Ġachieved":4761,"Ġimproved":4762,"Ġrepeated":4763,"Ġdrew":4764,"icks":4765,"Ġlem":4766,"Ġaim":4767,"Ġsoul":4768,"uls":4769,"Ġeconomy":4770,"Ġeffective":4771,"Ġclassic":4772,"Ġbasket":4773,"Ġpiano":4774,"Ġbom":4775,"Ġbanks":4776,"mes":4777,"Ġthor":4778,"Ġbriefly":4779,"Ġwed":4780,"Ġchamber":4781,"orters":4782,"Ġglass":4783,"Ġhay":4784,"iana":4785,"Ġdip":4786,"Ġisrael":4787,"Ġsche":4788,"ienced":4789,"Ġhousehold":4790,"Ġtrou":4791,"rich":4792,"Ġsouthwest":4793,"hol":4794,"Ġunsu":4795,"Ġgranted":4796,"Ġvehicles":4797,"Ġcurrently":4798,"Ġpurpose":4799,"Ġcitizens":4800,"Ġnecessary":4801,"Ġrejected":4802,"Ġfame":4803,"Ġsud":4804,"Ġregional":4805,"Ġ61":4806,"Ġarthur":4807,"Ġdefensive":4808,"arked":4809,"Ġ1968":4810,"Ġroof":4811,"Ġ1985":4812,"Ġcaught":4813,"Ġrecently":4814,"Ġturns":4815,"Ġtypes":4816,"Ġ66":4817,"Ġorganized":4818,"Ġreceive":4819,"resp":4820,"Ġcorre":4821,"Ġsell":4822,"Ġexpanded":4823,"Ġgenus":4824,"Ġatmosp":4825,"Ġspeak":4826,"Ġsecondary":4827,"Ġauthorities":4828,"Ġprovince":4829,"Ġcommissioned":4830,"Ġflooding":4831,"Ġdidn":4832,"Ġonline":4833,"Ġkilometres":4834,"ja":4835,"station":4836,"Ġkir":4837,"Ġjes":4838,"Ġbraz":4839,"Ġble":4840,"Ġfro":4841,"Ġrhy":4842,"Ġcavalry":4843,"Ġohio":4844,"onic":4845,"Ġletters":4846,"iments":4847,"lers":4848,"Ġori":4849,"Ġfamilies":4850,"Ġperforming":4851,"Ġtransform":4852,"Ġdivers":4853,"Ġsuccessfully":4854,"Ġliterature":4855,"Ġweb":4856,"Ġfreedom":4857,"Ġmarine":4858,"Ġwhit":4859,"Ġdetermined":4860,"Ġalle":4861,"Ġdescribes":4862,"utation":4863,"Ġtowns":4864,"Ġsafety":4865,"Å¡":4866,"Ġassistant":4867,"adelph":4868,"Ġtail":4869,"Ġagent":4870,"iday":4871,"Ġdram":4872,"uate":4873,"Ġfought":4874,"Ġcustom":4875,"Ġpicture":4876,"Ġhydro":4877,"Ġgoes":4878,"Ġunus":4879,"Ġprefer":4880,"Ġsinging":4881,"Ġ1984":4882,"Ġphiladelph":4883,"Ġacquired":4884,"Ġtitles":4885,"Ġhorn":4886,"umber":4887,"iate":4888,"Ġcommonly":4889,"Ġ800":4890,"Ġupgr":4891,"stream":4892,"oln":4893,"Ġfreeway":4894,"Ġgives":4895,"Ġsuggests":4896,"set":4897,"alty":4898,"Ġcenturies":4899,"Ġmicro":4900,"rif":4901,"Ġsupreme":4902,"Ġvac":4903,"Ġdistribution":4904,"ading":4905,"Ġplanning":4906,"Ġgeorgia":4907,"oted":4908,"illa":4909,"Ġtrains":4910,"inn":4911,"Ġmentioned":4912,"ifications":4913,"Ġconvention":4914,"Ġclou":4915,"Ġcambridge":4916,"Ġron":4917,"ope":4918,"Ġmyth":4919,"aven":4920,"Ġrevol":4921,"Ġcontain":4922,"Ġalternative":4923,"Ġscheduled":4924,"Ġ57":4925,"Ġphiladelphia":4926,"Ġsets":4927,"Ġcontrolled":4928,"Ġkel":4929,"Ġ120":4930,"Ġcook":4931,"Ġclar":4932,"Ġsimple":4933,"attle":4934,"Ġprotect":4935,"isf":4936,"Ġchance":4937,"Ġshooting":4938,"Ġka":4939,"Ġunique":4940,"Ġgraph":4941,"haps":4942,"Ġwithdraw":4943,"Ġregarding":4944,"Ġss":4945,"Ġsie":4946,"Ġprincipal":4947,"Ġperhaps":4948,"Ġvirt":4949,"Ġfix":4950,"Ġdecre":4951,"hi":4952,"Ġfinds":4953,"Ġ1967":4954,"Ġsave":4955,"Ġrussia":4956,"Ġkit":4957,"Ġmoder":4958,"Ġreading":4959,"umes":4960,"een":4961,"Ġestate":4962,"Ġscientific":4963,"Ġreaction":4964,"Ġcrime":4965,"Ġfacilities":4966,"Ġwitness":4967,"amin":4968,"20":4969,"ĠÎ":4970,"Ġrules":4971,"Ġwrestling":4972,"Ġmedic":4973,"Ġdemand":4974,"Ġsession":4975,"Ġlis":4976,"Ġaz":4977,"Ġscout":4978,"Ġarrival":4979,"Ġgain":4980,"Ġsubmar":4981,"Ġexchange":4982,"Ġpublication":4983,"Ġcontaining":4984,"Ġteach":4985,"Ġceremony":4986,"Ġliverpool":4987,"Ġtag":4988,"tic":4989,"oul":4990,"Ġaccompanied":4991,"Ġrated":4992,"Ġprice":4993,"Ġbelong":4994,"Ġnintend":4995,"mouth":4996,"Ġfighter":4997,"Ġbrook":4998,"Ġuns":4999,"Ġlocations":5000,"Ġanne":5001,"Ġrub":5002,"Ġquite":5003,"Ġfinish":5004,"Ġtact":5005,"pa":5006,"Ġselection":5007,"Ġbrid":5008,"Ġnintendo":5009,"Ġmap":5010,"Ġmand":5011,"Ġlinc":5012,"Ġtouchdown":5013,"Ġhits":5014,"Ġmouth":5015,"Ġcolumbia":5016,"da":5017,"Ġentirely":5018,"Ġevening":5019,"unk":5020,"Ġgri":5021,"Ġconcer":5022,"ington":5023,"shire":5024,"Ġfirm":5025,"Ġexisting":5026,"Ġpy":5027,"Ġasia":5028,"rupt":5029,"Ġsingap":5030,"Ġdedicated":5031,"Ġjean":5032,"Ġcd":5033,"Ġfash":5034,"och":5035,"Ġgrey":5036,"Ġlegacy":5037,"Ġbrand":5038,"Ġcontributed":5039,"Ġrum":5040,"Ġkorean":5041,"Ġkings":5042,"Ġprovides":5043,"Ġcrowd":5044,"oma":5045,"Ġremix":5046,"Ġpage":5047,"Ġken":5048,"Ġboats":5049,"Ġpurchased":5050,"Ġbrazil":5051,"Ġwindows":5052,"etts":5053,"rising":5054,"Ġ1983":5055,"Ġok":5056,"inger":5057,"Ġresemb":5058,"Ġcampus":5059,"Ġ58":5060,"Ġax":5061,"Ġ74":5062,"Ġthrow":5063,"ables":5064,"Ġadap":5065,"Ġjewish":5066,"Ġbattery":5067,"sey":5068,"room":5069,"agan":5070,"Ġintensity":5071,"Ġproduct":5072,"inity":5073,"Ġfrancisco":5074,"Ġadvantage":5075,"Ġresistance":5076,"Ġsingapore":5077,"Ġsites":5078,"respond":5079,"Ġlincoln":5080,"Ġcorrespond":5081,"kes":5082,"Ġoccupied":5083,"Ġboys":5084,"Ġcode":5085,"Ġ1964":5086,"Ġeighth":5087,"Ġcasualties":5088,"Ġ1969":5089,"Ġholding":5090,"oses":5091,"Ġbright":5092,"Ġpromotion":5093,"Ġmiller":5094,"Ġcarey":5095,"Ġgay":5096,"Ġbes":5097,"Ġgulf":5098,"Ġelimin":5099,"Ġprotected":5100,"Ġdrawn":5101,"Ġmerc":5102,"Ġresour":5103,"Ġregions":5104,"Ġgill":5105,"Ġstructures":5106,"Ġplaystation":5107,"ĠâĪ":5108,"ection":5109,"Ġmarc":5110,"Ġdisney":5111,"fort":5112,"Ġconqu":5113,"Ġlaws":5114,"Ġnap":5115,"Ġ1914":5116,"Ġcoastal":5117,"Ġclosely":5118,"Ġcars":5119,"Ġreceiving":5120,"Ġbasketball":5121,"Ġspr":5122,"cript":5123,"Ġ1918":5124,"Ġopportunity":5125,"itled":5126,"Ġhms":5127,"Ġlewis":5128,"gn":5129,"Ġgib":5130,"Ġ1982":5131,"Ġjudge":5132,"rons":5133,"Ġturning":5134,"Ġcalls":5135,"Ġgeneration":5136,"Ġ1971":5137,"Ġsteve":5138,"Ġconsists":5139,"Ġheads":5140,"Ġbyz":5141,"Ġgrade":5142,"Ġ1966":5143,"iny":5144,"iger":5145,"burgh":5146,"Ġanderson":5147,"ware":5148,"Ġ1972":5149,"Ġacts":5150,"Ġroughly":5151,"Ġcorner":5152,"Ġbrian":5153,"Ġ1979":5154,"Ġdefined":5155,"Ġjr":5156,"Ġ59":5157,"wick":5158,"Ġsymbol":5159,"Ġreserv":5160,"Ġolympic":5161,"Ġneighbor":5162,"Ġextrem":5163,"Ġstrengt":5164,"Ġfashion":5165,"verse":5166,"Ġhyp":5167,"Ġexperienced":5168,"Ġrolling":5169,"Ġbyzant":5170,"Ġtenn":5171,"Ġanything":5172,"Ġheat":5173,"otic":5174,"box":5175,"Ġlosses":5176,"ocated":5177,"Ġbands":5178,"garian":5179,"Ġretire":5180,"Ġsurvey":5181,"ek":5182,"Ġhind":5183,"Ġ1965":5184,"Ġassault":5185,"awa":5186,"Ġviewed":5187,"Ġ#":5188,"mann":5189,"Ġengaged":5190,"Ġnhl":5191,"Ġproviding":5192,"Ġpolitics":5193,"Ġfocused":5194,"Ġtask":5195,"rate":5196,"Ġflat":5197,"Ġ99":5198,"Ġ1975":5199,"Ġreligion":5200,"engers":5201,"Ġdeveloping":5202,"Ġsemi":5203,"Ġrelief":5204,"Ġuncle":5205,"Ġappeal":5206,"ua":5207,"rant":5208,"Ġmales":5209,"Ġdomestic":5210,"Ã¸":5211,"Ġwond":5212,"Ġshared":5213,"Ġshall":5214,"Ġoak":5215,"Ġhired":5216,"Ġdisapp":5217,"Ġbottom":5218,"Ġtow":5219,"Ġguy":5220,"Ġintelligence":5221,"Ġhighlight":5222,"Ġphase":5223,"Ġgermans":5224,"Ġcredits":5225,"Ġtemperature":5226,"Ġhollywood":5227,"Ġenl":5228,"Ġgram":5229,"Ġsolid":5230,"Ġrapidly":5231,"Ġans":5232,"Ġwalter":5233,"Ġmyster":5234,"Ġfaith":5235,"Ġinvestigation":5236,"Ġeverything":5237,"Ġrecognized":5238,"Ġlaunch":5239,"Ġ1974":5240,"Ġmissing":5241,"Ġdavis":5242,"cles":5243,"Ġjunior":5244,"Ġintroduction":5245,"Ã¡n":5246,"ifically":5247,"Ġbelief":5248,"Ġ62":5249,"Ġappoint":5250,"heim":5251,"Ġhart":5252,"Ġ1973":5253,"Ġjourney":5254,"bound":5255,"opher":5256,"Ġhell":5257,"Ġpainting":5258,"Ġgetting":5259,"active":5260,"Ġfolk":5261,"Ġvent":5262,"iat":5263,"Ġgord":5264,"Ġserb":5265,"Ġsubstant":5266,"Ġisol":5267,"Ġ63":5268,"Ġprepared":5269,"Ġtick":5270,"Ġ77":5271,"Ġmountains":5272,"Ġfranchise":5273,"essed":5274,"Ġfalls":5275,"ilton":5276,"Ġshape":5277,"Ġ73":5278,"Ġopinion":5279,"Ġknew":5280,"Ġglobal":5281,"Ġamend":5282,"Ġthin":5283,"Ġlb":5284,"Ġcens":5285,"Ġsignificantly":5286,"Ġ1976":5287,"Ġsort":5288,"Ġexact":5289,"Ġapproved":5290,"enc":5291,"Ġauth":5292,"Ġrome":5293,"Ġprojects":5294,"Ġconve":5295,"Ġadding":5296,"friend":5297,"Ġliterary":5298,"Ġintersection":5299,"Ġlas":5300,"Ġwings":5301,"eper":5302,"wart":5303,"Ġpenins":5304,"Ġreasons":5305,"Ġarchae":5306,"Ġknowledge":5307,"oncÃ©":5308,"Ġconfeder":5309,"ographic":5310,"Ġhung":5311,"Ġmusl":5312,"Ġplayoff":5313,"Ġraid":5314,"Ġnaz":5315,"rence":5316,"ishes":5317,"Ġunsuccess":5318,"Ġchallenge":5319,"iful":5320,"ologist":5321,"Ġsab":5322,"Ġcabin":5323,"Ġwheel":5324,"Ġvic":5325,"ulate":5326,"Ġsyd":5327,"tar":5328,"Ġstages":5329,"Ġviews":5330,"Ġescort":5331,"erted":5332,"Ġward":5333,"Ġevolution":5334,"Ġ250":5335,"va":5336,"Ġsettlement":5337,"Ġexerc":5338,"Ġcris":5339,"Ġstoryline":5340,"Ġequal":5341,"ocked":5342,"Ġtyph":5343,"ĠbeyoncÃ©":5344,"lav":5345,"Ġinternal":5346,"Ġoperating":5347,"achus":5348,"Ġpoem":5349,"break":5350,"eman":5351,"Ġshut":5352,"Ġreputation":5353,"Ġ67":5354,"Ġrenamed":5355,"Ġexpect":5356,"eds":5357,"Ġwatched":5358,"Ġsed":5359,"ients":5360,"Ġshaped":5361,"Ġrebu":5362,"Ġbaby":5363,"ira":5364,"Ġproceed":5365,"Ġhumans":5366,"unte":5367,"Ġpopularity":5368,"Ġfemales":5369,"Ġneverthel":5370,"Ġlimit":5371,"Ġnevertheless":5372,"Ġfine":5373,"asty":5374,"Ġautom":5375,"Ġemployed":5376,"Ġthirty":5377,"Ġallies":5378,"itan":5379,"Ġshore":5380,"Ġguide":5381,"Ġbull":5382,"Ġprofessor":5383,"Ġneut":5384,"Ġinjured":5385,"Ġcape":5386,"eme":5387,"Ġvolunte":5388,"Ġcited":5389,"Ġincreasingly":5390,"hens":5391,"Ġbern":5392,"ador":5393,"aver":5394,"Ġmodels":5395,"Ġblues":5396,"Ġkentucky":5397,"Ġwealth":5398,"Ġgrav":5399,"Ġtriple":5400,"Ġ1946":5401,"Ġheaded":5402,"Ġpaint":5403,"zen":5404,"Ġfinding":5405,"Ġneither":5406,"Ġ1981":5407,"appe":5408,"see":5409,"Ġjam":5410,"istan":5411,"Ġcollected":5412,"Ġdeclined":5413,"Ġraf":5414,"Ġconnected":5415,"arm":5416,"Ġhills":5417,"Ġviolence":5418,"Ġdiam":5419,"Ġdetails":5420,"Ġscul":5421,"ĠâĪĴ":5422,"antly":5423,"Ġlabour":5424,"Ġexistence":5425,"Ġ96":5426,"Ġdepth":5427,"Ġenjoyed":5428,"Ġentry":5429,"inum":5430,"onym":5431,"Ġtorn":5432,"Ġconverted":5433,"mod":5434,"Ġnorway":5435,"Ġconsum":5436,"Ġ68":5437,"Ġlearned":5438,"Ġbron":5439,"Ġcontroversy":5440,"Ġsustained":5441,"Ġvolcan":5442,"Ġimpl":5443,"Ġ72":5444,"Ġouter":5445,"Ġari":5446,"Ġ1917":5447,"Ġolympics":5448,"Ġchampionships":5449,"Ġapplied":5450,"Ġsad":5451,"rec":5452,"ella":5453,"ceived":5454,"Ġmassachus":5455,"bl":5456,"aka":5457,"iform":5458,"Ġallows":5459,"istol":5460,"hr":5461,"Ġcells":5462,"Ġcrimin":5463,"Ġteacher":5464,"Ġcamera":5465,"Ġmassachusetts":5466,"Ġswim":5467,"Ġinterp":5468,"nic":5469,"Ġclark":5470,"Ġpear":5471,"Ġsynt":5472,"Ġ87":5473,"Ġvel":5474,"ava":5475,"Ġways":5476,"Ġpremier":5477,"Ġoccas":5478,"Ġarsen":5479,"Ġtests":5480,"Ġdecade":5481,"Ġapproached":5482,"Ġaware":5483,"Ġeasily":5484,"Ġentrance":5485,"Ġgang":5486,"osis":5487,"apes":5488,"Ġgree":5489,"Ġ160":5490,"atures":5491,"ropri":5492,"Ġdesigns":5493,"Ġdownlo":5494,"Ġfoss":5495,"Ġduty":5496,"Ġcarrying":5497,"Ġgray":5498,"Ġtechnical":5499,"Ġresponded":5500,"Ġdiscovery":5501,"rel":5502,"Ġmine":5503,"Ġconfron":5504,"Ġnic":5505,"omy":5506,"Ġchairman":5507,"Ġts":5508,"Ġsax":5509,"Ġloy":5510,"Ġ1948":5511,"psons":5512,"Ġpitch":5513,"Ġindu":5514,"Ġbreeding":5515,"Ġburied":5516,"eral":5517,"Ġextension":5518,"Ġgradually":5519,"Ġsucceeded":5520,"Ġ700":5521,"Ġprograms":5522,"Ġhang":5523,"Ġnas":5524,"Ġconvoy":5525,"Ġspecifically":5526,"Ġhug":5527,"Ġmode":5528,"Ġprize":5529,"Ġjay":5530,"Ġacres":5531,"ati":5532,"una":5533,"aine":5534,"Ġastron":5535,"Äģ":5536,"Ġsons":5537,"Ġshowing":5538,"Ġdoor":5539,"Ġlev":5540,"Ġmayor":5541,"ima":5542,"Ġitems":5543,"tical":5544,"Ġbush":5545,"Ġmunicip":5546,"ignment":5547,"Ġsimpsons":5548,"ÅĤ":5549,"Ġinstall":5550,"Ġsections":5551,"Ġprisoners":5552,"Ġstret":5553,"Ġgenre":5554,"Ġexclus":5555,"Ġarranged":5556,"Ġcredited":5557,"Ġgone":5558,"Ġhull":5559,"iro":5560,"Ġlegend":5561,"Ġraw":5562,"Ġaddress":5563,"Ġnone":5564,"Ġ69":5565,"Ġteen":5566,"Ġ1978":5567,"Ġstatement":5568,"Ġcad":5569,"wa":5570,"Ġsimilarly":5571,"Ġcryst":5572,"Ġproducing":5573,"Ġwinner":5574,"Ġross":5575,"itors":5576,"Ġparties":5577,"Ġseems":5578,"Ġimprove":5579,"Ġshop":5580,"Ġadditionally":5581,"Ġutil":5582,"Ġvietnam":5583,"Ġ91":5584,"Ġpresidential":5585,"Ġearliest":5586,"come":5587,"put":5588,"Ġ78":5589,"Ġweakened":5590,"Ġthreatened":5591,"Ġlandfall":5592,"Ġwarning":5593,"Ġrural":5594,"Ġcandidate":5595,"Ġottoman":5596,"ss":5597,"Ġroutes":5598,"Ġsounds":5599,"ogen":5600,"Ġbear":5601,"Ġplac":5602,"Ġfields":5603,"Ġengineer":5604,"Ġadam":5605,"Ġ1915":5606,"entions":5607,"Ġinner":5608,"Ġmoore":5609,"Ġdivisions":5610,"Ġpoland":5611,"Ġcombination":5612,"Ġretained":5613,"Ġspok":5614,"Ġbrain":5615,"Ġsydney":5616,"Ġ1977":5617,"Ġproducts":5618,"Ġmaryland":5619,"Ġlasted":5620,"ipe":5621,"Ġmtv":5622,"now":5623,"Ġkim":5624,"Ġdress":5625,"Ġhear":5626,"Ġ94":5627,"inking":5628,"Ġchemical":5629,"Ġsha":5630,"Ġevil":5631,"Ġones":5632,"ctors":5633,"Ġinstru":5634,"Ġanimated":5635,"Ġreplace":5636,"onia":5637,"Ġot":5638,"Ġintegr":5639,"met":5640,"Ġbasic":5641,"athan":5642,"ivered":5643,"Ġinterior":5644,"Ġadapted":5645,"Ġinspir":5646,"eless":5647,"issance":5648,"Ġmagic":5649,"Ġgrounds":5650,"Ġsupplies":5651,"Ġfrag":5652,"Ġengines":5653,"Ġ1963":5654,"Ġcul":5655,"Ġafterwards":5656,"Ġspeaking":5657,"Ġpeninsula":5658,"Ġmessage":5659,"Ġ81":5660,"Ġfilled":5661,"Ġmaintain":5662,"math":5663,"Ġdelivered":5664,"Ġcalc":5665,"Ġequival":5666,"Ġagency":5667,"Ġcow":5668,"Ġ98":5669,"Ġsupporters":5670,"Ġcrash":5671,"oli":5672,"Ġkur":5673,"Ġentitled":5674,"rets":5675,"Ġclean":5676,"Ġaffairs":5677,"Ġpermanent":5678,"Ġindicated":5679,"Ġclimate":5680,"aly":5681,"Ġdowntown":5682,"Ġstopped":5683,"Ġengineering":5684,"Ġextremely":5685,"Ġsurviv":5686,"Ġ1916":5687,"Ġsusp":5688,"Ġaffect":5689,"Ġarchitecture":5690,"Ġalien":5691,"Ġcauses":5692,"Ġdiamond":5693,"ali":5694,"Ġsole":5695,"mun":5696,"Ġbath":5697,"Ġwides":5698,"izations":5699,"Ġdeaths":5700,"Ġproposal":5701,"Ġgreg":5702,"Ġdrug":5703,"Ġmulder":5704,"Ġfruit":5705,"Ġrestaur":5706,"Ġmars":5707,"Ġimportance":5708,"Ġbuff":5709,"ushing":5710,"Ġsecure":5711,"sp":5712,"apped":5713,"Ġ71":5714,"lee":5715,"time":5716,"Ġspons":5717,"Ġreturns":5718,"Ġgordon":5719,"othes":5720,"Ġratings":5721,"Ġches":5722,"Ġdeleg":5723,"Ġtel":5724,"Ġcomposer":5725,"Ġphilip":5726,"Ġrhodes":5727,"Ġpig":5728,"Ġbos":5729,"Ġacid":5730,"Ġko":5731,"Ġharv":5732,"Ġ1919":5733,"itt":5734,"Ġimplement":5735,"cks":5736,"book":5737,"Ġknots":5738,"emies":5739,"Ġ1962":5740,"Ġjur":5741,"Ġmans":5742,"leton":5743,"Ġconsc":5744,"Ġ89":5745,"Ġclassical":5746,"Ġbure":5747,"Ġswit":5748,"pective":5749,"Ġkat":5750,"Ġsurvived":5751,"Ġgiant":5752,"osa":5753,"Ġstreets":5754,"Ġreferences":5755,"Ġcompon":5756,"Ġmah":5757,"Ġaftermath":5758,"Ġdescribing":5759,"Ġcolour":5760,"bourne":5761,"Ġfict":5762,"Ġholy":5763,"Ġwrites":5764,"Ġclassification":5765,"ropol":5766,"chers":5767,"inois":5768,"Ġsongwrit":5769,"Ġconvin":5770,"Ġalf":5771,"Ġtypical":5772,"Ġeric":5773,"Ġmedie":5774,"oles":5775,"iversary":5776,"Ġprint":5777,"Ġbought":5778,"Ġ82":5779,"Ġack":5780,"Ġll":5781,"Ġsomeone":5782,"Ġ1938":5783,"Ġvul":5784,"Ġconcerns":5785,"Ġenvironmental":5786,"Ġmes":5787,"Ġimages":5788,"Ġna":5789,"Ġremember":5790,"Ġ88":5791,"Ġgy":5792,"Ġflo":5793,"Ġentering":5794,"Ġrivers":5795,"Ġstudied":5796,"ante":5797,"Ġruled":5798,"Ġuniverse":5799,"Ġportrayed":5800,"entially":5801,"Ġarrested":5802,"Ġscar":5803,"Ġcruiser":5804,"Ġpreced":5805,"Ġvoted":5806,"Ġtanks":5807,"mus":5808,"Ġsale":5809,"Ġreduce":5810,"Ġdecline":5811,"Ġrecalled":5812,"Ġeleven":5813,"Ġago":5814,"Ġretreat":5815,"Ġjane":5816,"Ġrab":5817,"Ġshr":5818,"Ġira":5819,"Ġsiege":5820,"Ġmedieval":5821,"Ġarmor":5822,"Ġpurchase":5823,"Ġcorporation":5824,"cop":5825,"aki":5826,"zer":5827,"Ġactual":5828,"Ġowner":5829,"Ġquant":5830,"Ġfeeling":5831,"Ġobjects":5832,"Ġalliance":5833,"ansas":5834,"Ġtyphoon":5835,"Ġcapable":5836,"Ġliberal":5837,"Ġpav":5838,"Ġbang":5839,"Ġchapter":5840,"Ġnomination":5841,"Ġsessions":5842,"Ġnel":5843,"adow":5844,"Ġphilipp":5845,"Ġalan":5846,"Ġobl":5847,"Ġtony":5848,"Ġrecognition":5849,"Ġmarg":5850,"Ġacademic":5851,"ela":5852,"Ġsufficient":5853,"Ġidentity":5854,"Ġthousands":5855,"Ġcamer":5856,"Ġhunting":5857,"Ġfunds":5858,"Ġdriving":5859,"Ġ1956":5860,"Ġoffers":5861,"Ġconnection":5862,"Ġmeters":5863,"Ġ130":5864,"Ġconcerned":5865,"Ġprincess":5866,"Ġbry":5867,"Ġ175":5868,"Ġnoting":5869,"Ġequipped":5870,"Ġkong":5871,"Ġpassage":5872,"Ġsculpt":5873,"hus":5874,"Ġanniversary":5875,"Ġadmitted":5876,"Ġdebate":5877,"Ġcolonial":5878,"Ġfinals":5879,"Ġdecades":5880,"Ġhistorians":5881,"inal":5882,"Ġrecommended":5883,"Ġker":5884,"Ġinterested":5885,"Ġ79":5886,"Ġplate":5887,"Ġdetect":5888,"Ġinvited":5889,"Ġconsisting":5890,"Ġsight":5891,"Ġjord":5892,"Ġadams":5893,"Ġarsenal":5894,"Ġhou":5895,"eller":5896,"right":5897,"Ġprogramme":5898,"Ġthunder":5899,"Ġuniversal":5900,"Ġdipl":5901,"Ġdougl":5902,"Ġeat":5903,"Ġinstalled":5904,"Ġcrossed":5905,"uct":5906,"Ġbreaking":5907,"Ġmaria":5908,"wich":5909,"aked":5910,"Ġwarm":5911,"Ġ1936":5912,"Ġconsiderable":5913,"Ġcolony":5914,"Ġgam":5915,"Ġundert":5916,"Ġsequel":5917,"Ġcourts":5918,"oir":5919,"Ġsimon":5920,"Ġstarts":5921,"Ġhamilton":5922,"iques":5923,"Ġestablishment":5924,"Ġdates":5925,"Ġcharged":5926,"Ġenemies":5927,"Ġimprov":5928,"Ġbou":5929,"acks":5930,"Ġveter":5931,"Ġduties":5932,"Ġremainder":5933,"ora":5934,"uan":5935,"Ġmanner":5936,"ranean":5937,"Ġak":5938,"Ġtruth":5939,"Ġdecor":5940,"Ġparallel":5941,"Ġjump":5942,"Ġstyles":5943,"Ġpure":5944,"oked":5945,"Ġready":5946,"Ġsharp":5947,"Ġnegoti":5948,"heas":5949,"Ġutc":5950,"Ġsalt":5951,"Ġshield":5952,"pread":5953,"Ġcommunist":5954,"Ġalleg":5955,"Ġconservative":5956,"Ġwidespread":5957,"eland":5958,"Ġpromote":5959,"Ġpictures":5960,"Ġnether":5961,"Ġpound":5962,"Ġ1961":5963,"osaurus":5964,"ilation":5965,"Ġmole":5966,"Ġbid":5967,"Ġdean":5968,"Ġ84":5969,"Ġbehavior":5970,"Ġthro":5971,"Ġdiet":5972,"Ġherit":5973,"Ġpad":5974,"Ġoccasionally":5975,"ingly":5976,"Ġclasses":5977,"Ġdeparture":5978,"igation":5979,"Ġaspects":5980,"Ġcos":5981,"Ġslowly":5982,"Ġindones":5983,"Ġanimation":5984,"Ġcontinuing":5985,"Ġnba":5986,"Ġelectronic":5987,"Ġargent":5988,"Ġtransition":5989,"Ġ1953":5990,"Ġkennedy":5991,"eb":5992,"Ġbeautiful":5993,"Ġresources":5994,"Ġromantic":5995,"Ġorchestra":5996,"Ġwearing":5997,"Ġhappy":5998,"Ġmonument":5999,"Ġacclaim":6000,"Ġrhyth":6001,"Ġlam":6002,"Ġdestruction":6003,"Ġemergency":6004,"akers":6005,"Ġdisappo":6006,"iling":6007,"Ġ93":6008,"Ġsunday":6009,"Ġsweet":6010,"Ġride":6011,"Ġassistance":6012,"Ġhoward":6013,"Ġposted":6014,"Ġindiana":6015,"ione":6016,"Ġleon":6017,"Ġnorwe":6018,"Ġsenator":6019,"Ġformal":6020,"Ġoccurs":6021,"Ġtransportation":6022,"Ġscully":6023,"Ġtreas":6024,"Ġcarbon":6025,"hetic":6026,"Ġrug":6027,"ashed":6028,"Ġaccur":6029,"atch":6030,"Ġcertified":6031,"Ġbot":6032,"aken":6033,"Ġpopulations":6034,"Ġcredit":6035,"Ġhitler":6036,"Ġvessels":6037,"Ġsuperior":6038,"Ġmemory":6039,"Ġincome":6040,"Ġdated":6041,"outs":6042,"Ġ1947":6043,"Ġproperties":6044,"Ġattached":6045,"Ġconservation":6046,"Ġchorus":6047,"bey":6048,"Ġmathem":6049,"Ġ1958":6050,"Ġportug":6051,"Ġdemol":6052,"Ġequivalent":6053,"Ġpassengers":6054,"ophy":6055,"Ġancest":6056,"Ġadventure":6057,"Ġshots":6058,"after":6059,"Ġwwe":6060,"Ġpriest":6061,"Ġinvolving":6062,"Ġcant":6063,"Ġcircum":6064,"Ġturk":6065,"Ġchapel":6066,"Ġ86":6067,"oard":6068,"icide":6069,"Ġheritage":6070,"Ġ1957":6071,"Ġ1910":6072,"aware":6073,"Ġexpand":6074,"Ġtunnel":6075,"no":6076,"Ġoldest":6077,"Ġacknow":6078,"veland":6079,"Ġsettled":6080,"Ġryan":6081,"Ġsleep":6082,"Ġ110":6083,"Ġpink":6084,"Ġcatch":6085,"Ġterminus":6086,"Ġfisher":6087,"Ġ1937":6088,"Ġrig":6089,"Ġpope":6090,"Ġobtained":6091,"Ġrescue":6092,"Ġbombard":6093,"Ġauthors":6094,"Ġwins":6095,"Ġworst":6096,"Ġderived":6097,"icit":6098,"Ġninth":6099,"Ġcircuit":6100,"Ġaccused":6101,"agues":6102,"Ġfinishing":6103,"Ġeu":6104,"regon":6105,"Ġincorporated":6106,"Ġcleveland":6107,"ivals":6108,"Ġreviewers":6109,"rus":6110,"Ġoregon":6111,"Ġfavorite":6112,"Ġillinois":6113,"Ġdouglas":6114,"Ġcolumn":6115,"Ġprede":6116,"lying":6117,"Ġprey":6118,"Ġcharges":6119,"Ġcrisis":6120,"Ġmoves":6121,"Ġjunction":6122,"Ġsword":6123,"hered":6124,"etime":6125,"Ġreplacement":6126,"Ġdynasty":6127,"heastern":6128,"Ġbringing":6129,"Ġvehicle":6130,"Ġ<":6131,"Ġmissions":6132,"Ġhosted":6133,"Ġgrass":6134,"Ġbelt":6135,"Ġcommitted":6136,"Ġandy":6137,"Ġsegment":6138,"aret":6139,"Ġaudio":6140,"Ġlenn":6141,"Ġassumed":6142,"Ġsupposed":6143,"western":6144,"inary":6145,"bar":6146,"Ġdenied":6147,"Ġstanley":6148,"Ġjordan":6149,"wan":6150,"Ġ1959":6151,"pir":6152,"Ġrooms":6153,"ĠâĢĿ":6154,"Ġinterpret":6155,"oes":6156,"Ġrecre":6157,"Ġmediter":6158,"Ġclubs":6159,"Ġunp":6160,"Ġcirculation":6161,"Ġrebell":6162,"Ġweeke":6163,"Ġrepresentatives":6164,"Ġfictional":6165,"Ġmusicians":6166,"Ġunusual":6167,"Ġdens":6168,"agonist":6169,"Ġintercept":6170,"Ġshear":6171,"Ġroger":6172,"Ġbeatles":6173,"Ġmediterranean":6174,"Ġoutstanding":6175,"Ġdeput":6176,"Ġtheater":6177,"Ġseeing":6178,"Ġstrongly":6179,"Ġbruce":6180,"Ġkevin":6181,"eline":6182,"Ġmexican":6183,"Ġcommanded":6184,"Ġreality":6185,"Ġnorwegian":6186,"Ġmonarch":6187,"Ġ1954":6188,"Ġcompletion":6189,"Ġwickets":6190,"Ġ1955":6191,"Ġsolar":6192,"Ġbegun":6193,"Ġbristol":6194,"Ġcathed":6195,"Ġmol":6196,"Ġconte":6197,"Ġcosts":6198,"Ġcharacteristics":6199,"Ġmaterials":6200,"Ġpersu":6201,"ĠâĢľ":6202,"ran":6203,"Ġdeem":6204,"Ġlanc":6205,"ician":6206,"Ġexception":6207,"Ġwet":6208,"Ġmethods":6209,"ooth":6210,"Ġgust":6211,"ji":6212,"Ġalleged":6213,"Ġtied":6214,"Ġpossibility":6215,"Ġisbn":6216,"Ġhaz":6217,"Ġsurviving":6218,"Ġdescend":6219,"Ġpassenger":6220,"Ġsailed":6221,"Ġeveryone":6222,"Ġpraise":6223,"Ġbah":6224,"Ġcancer":6225,"Ġvision":6226,"Ġresponsibility":6227,"Ġattor":6228,"Ġreconst":6229,"lets":6230,"ami":6231,"Ġopposite":6232,"Ġford":6233,"Ġatmosphere":6234,"ager":6235,"Ġdriven":6236,"Ġdifferences":6237,"Ġeru":6238,"Ġlisa":6239,"borne":6240,"works":6241,"Ġcarrier":6242,"Ġhabitat":6243,"state":6244,"Ġaggress":6245,"Ġmissed":6246,"Ġintention":6247,"Ġthereafter":6248,"ĠÃĹ":6249,"uv":6250,"Ġvoy":6251,"Ġbuy":6252,"Ġrepresentative":6253,"Ġscheme":6254,"Ġrif":6255,"Ġotherwise":6256,"Ġdesire":6257,"char":6258,"con":6259,"onto":6260,"Ġvary":6261,"Ġorange":6262,"Ġdragon":6263,"Ġwrong":6264,"burn":6265,"Ġplatinum":6266,"Ġnich":6267,"Ġfunding":6268,"Ġkorea":6269,"organ":6270,"Ġrecovered":6271,"Ġmassive":6272,"itable":6273,"arian":6274,"Ġphill":6275,"ucks":6276,"Ġthrone":6277,"Ġstrategy":6278,"Ġattributed":6279,"erged":6280,"Ġske":6281,"Ġretirement":6282,"Ġeffectively":6283,"Ġstayed":6284,"Ġcommunities":6285,"Ġdisappe":6286,"Ġshif":6287,"Ġwarri":6288,"Ġserves":6289,"Ġreinforce":6290,"Ġmorris":6291,"Ġemerged":6292,"Ġinse":6293,"Ġ83":6294,"Ġ1952":6295,"Ġministry":6296,"Ġweapon":6297,"Ġille":6298,"Ġadults":6299,"weight":6300,"Ġoutbreak":6301,"Ġpunk":6302,"Ġtwin":6303,"Ġaboard":6304,"Ġmorgan":6305,"alf":6306,"Ġnorman":6307,"Ġaccommod":6308,"Ġrobinson":6309,"Ġclassified":6310,"Ġtoll":6311,"Ġregularly":6312,"Ġdocumentary":6313,"Ġnelson":6314,"Ġpartn":6315,"Ġmobile":6316,"bell":6317,"Ġaccounts":6318,"Ġelections":6319,"Ġtownship":6320,"ez":6321,"elsh":6322,"Ġpleas":6323,"Ġpremiere":6324,"Ġ92":6325,"Ġhawai":6326,"Ġwonder":6327,"Ġunderground":6328,"rell":6329,"Ġ1933":6330,"Ġstrengthen":6331,"Ġstead":6332,"Ġinspiration":6333,"oslav":6334,"Ġpir":6335,"isms":6336,"Ġ176":6337,"Ġcrosses":6338,"Ġfalling":6339,"Ġdissip":6340,"Ġattracted":6341,"Ġlun":6342,"Ġcrop":6343,"Ġneck":6344,"Ġforming":6345,"Ġcircle":6346,"Ġlies":6347,"riers":6348,"Ġstood":6349,"Ġfactor":6350,"Ġsatisf":6351,"Ġlith":6352,"Ġcha":6353,"Ġpret":6354,"Ġtrials":6355,"aza":6356,"Ġsubmarine":6357,"Ġparks":6358,"Ġbatting":6359,"rett":6360,"Ġlyn":6361,"Ġcriminal":6362,"Ġraces":6363,"Ġdor":6364,"Ġracing":6365,"Ġmovements":6366,"Ġpull":6367,"anth":6368,"Ġrenew":6369,"Ġinjuries":6370,"enses":6371,"Ġneeds":6372,"pping":6373,"Ġsid":6374,"Ġraise":6375,"Ġvotes":6376,"Ġsweden":6377,"Ġjenn":6378,"Ġimmig":6379,"Ġmck":6380,"Ġ1935":6381,"sole":6382,"Ġanton":6383,"Ġseparated":6384,"oking":6385,"Ġconduct":6386,"Ġshark":6387,"Ġwy":6388,"abled":6389,"Ġadvis":6390,"Ġchain":6391,"Ġcommem":6392,"Ġceme":6393,"Ġrelative":6394,"Ġcla":6395,"Ġallen":6396,"Ġpublisher":6397,"Ġgarrison":6398,"Ġphotograph":6399,"Ġpredecess":6400,"aug":6401,"Ġsudden":6402,"Ġpatrick":6403,"Ġbattleships":6404,"uts":6405,"Ġearn":6406,"Ġ1951":6407,"Ġsymph":6408,"idden":6409,"Ġ1949":6410,"Ġnom":6411,"Ġtemporary":6412,"Ġrecru":6413,"Ġdistinguished":6414,"Ġpale":6415,"Ġtoronto":6416,"Ġwelsh":6417,"Ġhem":6418,"Ġbag":6419,"Ġstandards":6420,"Ġdifficulty":6421,"Ġech":6422,"Ġsoph":6423,"Ġplane":6424,"Ġpartner":6425,"Ġorb":6426,"Ġqueens":6427,"bing":6428,"Ġdesert":6429,"Ġports":6430,"Ġbyzantine":6431,"Ġfacility":6432,"Ġsurrounded":6433,"Ġseemed":6434,"Ġdelayed":6435,"Ġatom":6436,"Ã³n":6437,"Ġdepict":6438,"Ġgets":6439,"teenth":6440,"ogy":6441,"Ġeggs":6442,"Ġom":6443,"Ġscr":6444,"Ġharm":6445,"coming":6446,"Ġhoped":6447,"Ġremn":6448,"Ġelder":6449,"Ġrestored":6450,"Ġbarr":6451,"imate":6452,"Ġshir":6453,"Ġchildhood":6454,"Ġrequested":6455,"Ġangle":6456,"Ġcurt":6457,"Ġpenalty":6458,"Ġflank":6459,"Ġnetherlands":6460,"rad":6461,"Ġhin":6462,"Ġuss":6463,"Ġmetropol":6464,"Ġclaiming":6465,"Ġmatthew":6466,"Ġinternet":6467,"Ġali":6468,"Ġamaz":6469,"Ġtu":6470,"oyd":6471,"oral":6472,"Ġtemperatures":6473,"Ġbridges":6474,"Ġsend":6475,"Ġages":6476,"Ġreviewer":6477,"Ġelsewhere":6478,"abil":6479,"Ġwolf":6480,"Ġgreatly":6481,"Ġpublishing":6482,"Ġconvinced":6483,"Ġrud":6484,"Ġmoderate":6485,"Ġcathedral":6486,"Ġmurd":6487,"Ġdangerous":6488,"Ġstands":6489,"Ġjazz":6490,"Ġframe":6491,"Ġcycle":6492,"Ġjacob":6493,"Ġjews":6494,"Ġmeets":6495,"Ġexamples":6496,"Ġkiss":6497,"rations":6498,"Ġconvection":6499,"Ġappropri":6500,"Ġpainted":6501,"Ġtub":6502,"Ġadaptation":6503,"Ġaccompl":6504,"Ġrit":6505,"Ġdrag":6506,"Ġalco":6507,"Ġspoke":6508,"Ġye":6509,"Ġattract":6510,"Ġrecordings":6511,"Ġlearn":6512,"Ġwright":6513,"Ġeasy":6514,"Ġhundreds":6515,"Ġiraq":6516,"oz":6517,"Ġinvolvement":6518,"Ġarn":6519,"Ġere":6520,"pson":6521,"yard":6522,"Ġah":6523,"Ġ1900":6524,"erto":6525,"Ġimmediate":6526,"iley":6527,"Ġfled":6528,"Ġleaf":6529,"Ġparish":6530,"Ġlock":6531,"Ġcoin":6532,"Ġexcell":6533,"Ġanyone":6534,"Ġtries":6535,"Ġtechniques":6536,"Ġstrip":6537,"Ġcheck":6538,"Ġsumm":6539,"omot":6540,"Ġsatell":6541,"bro":6542,"war":6543,"Ġbureau":6544,"Ġsalv":6545,"Ġencouraged":6546,"Ġappearing":6547,"Ġlearning":6548,"uther":6549,"berts":6550,"what":6551,"Ġsomewhat":6552,"Ġsafe":6553,"Ġarmen":6554,"reck":6555,"imet":6556,"Ġip":6557,"Ġprohib":6558,"Ġwooden":6559,"Ġrick":6560,"Ġpel":6561,"Ġsuffering":6562,"Ġlegislation":6563,"Ġchur":6564,"Ġrussell":6565,"Ġgraphics":6566,"Ġthompson":6567,"sex":6568,"Ġdispl":6569,"Ġcroatian":6570,"Ġsynthes":6571,"Ġdetermine":6572,"Ġflash":6573,"Ġhorror":6574,"Ġveget":6575,"Ġjournalist":6576,"Ġdismissed":6577,"agement":6578,"Ġbears":6579,"Ġislam":6580,"Ġpak":6581,"Ġhub":6582,"Ġpatri":6583,"Ġinsur":6584,"Ġmeasures":6585,"Ġgor":6586,"iva":6587,"Ġmargin":6588,"Ġensure":6589,"Ġassass":6590,"Ġinterests":6591,"Ġabsor":6592,"Ġkelly":6593,"Ġtan":6594,"Ġdating":6595,"Ġupd":6596,"formula":6597,"Ġwhereas":6598,"Ġnickn":6599,"Ġbuck":6600,"Ġfighters":6601,"bra":6602,"Ġhud":6603,"Ġcarter":6604,"going":6605,"Ġattempting":6606,"Ġkl":6607,"Ġusa":6608,"Ġfacing":6609,"Ġ06":6610,"Ġnfl":6611,"agre":6612,"Ġtrophy":6613,"Ġpuerto":6614,"Ġholds":6615,"igg":6616,"Ġthousand":6617,"Ġhend":6618,"Ġdod":6619,"Ġpoetry":6620,"Ġquestions":6621,"Ġgent":6622,"Ġbats":6623,"Ġdepos":6624,"Ġscrap":6625,"Ġspears":6626,"Ġbypass":6627,"Ġformerly":6628,"body":6629,"eld":6630,"Ġbiggest":6631,"Ġextreme":6632,"Ġfitted":6633,"iant":6634,"Ġvisible":6635,"Ġconclusion":6636,"Ġtip":6637,"Ġniel":6638,"ighter":6639,"Ġstarred":6640,"Ġattacking":6641,"itzer":6642,"Ġinfluences":6643,"Ġcloser":6644,"Ġabsence":6645,"Ġproductions":6646,"apping":6647,"Ġbatman":6648,"fe":6649,"Ġcommonwe":6650,"encies":6651,"Ã±":6652,"Ġhungarian":6653,"Ġwes":6654,"real":6655,"Ġmodified":6656,"Ġlion":6657,"Ġmete":6658,"Ġreprodu":6659,"Ġinstruments":6660,"Ġpremiered":6661,"Ġcloth":6662,"Ġhonour":6663,"Ġdeemed":6664,"Ġ1913":6665,"Ġbronze":6666,"Ġcommonwealth":6667,"ito":6668,"Ġscand":6669,"Ġnovels":6670,"á»":6671,"Ġlaboratory":6672,"Ġprosec":6673,"Ġparker":6674,"Ġapparently":6675,"Ġnarrative":6676,"Ġfu":6677,"Ġcontroversial":6678,"Ġdiplom":6679,"Ġlandsc":6680,"Ġmurray":6681,"night":6682,"Ġlocomot":6683,"Ġharris":6684,"Ġdistributed":6685,"Ġdre":6686,"Ġoverse":6687,"Ġlongest":6688,"Ġterritories":6689,"Ġgather":6690,"Ġfiles":6691,"Ġleads":6692,"Ġ1926":6693,"alo":6694,"Ġharbor":6695,"Ġunderstand":6696,"Ġalph":6697,"rete":6698,"Ġoperate":6699,"Ġlanded":6700,"Ġjoy":6701,"Ġlaure":6702,"Ġ1927":6703,"ameter":6704,"Ġgallery":6705,"Ġcreative":6706,"Ġdiscip":6707,"Ġrestoration":6708,"Ġarrangement":6709,"Ġacknowled":6710,"Ġmamm":6711,"Ġtrained":6712,"Ġ1921":6713,"Ġrhythm":6714,"chang":6715,"Ġmainstream":6716,"Ġvictims":6717,"Ġvisitors":6718,"Ġ1934":6719,"owa":6720,"Ġreleases":6721,"Ġdna":6722,"Ġuniform":6723,"Ġstor":6724,"Ġcoins":6725,"Ġrepresenting":6726,"Ġunsuccessful":6727,"vis":6728,"Ġdynam":6729,"Ġsees":6730,"Ġliqu":6731,"Ġsubstit":6732,"Ġweekend":6733,"Ġresolution":6734,"Ġrefuge":6735,"hanna":6736,"Ġexcess":6737,"ĠâĤ":6738,"Ġowners":6739,"Ġbelieves":6740,"Ġcloud":6741,"Ġinfluential":6742,"Ġhouston":6743,"ixon":6744,"Ġlooked":6745,"apers":6746,"dd":6747,"ivan":6748,"Ġyan":6749,"Ġdepicted":6750,"Ġfinn":6751,"Ġberlin":6752,"agu":6753,"Ġ08":6754,"Ġconcur":6755,"Äį":6756,"Ġvideos":6757,"ici":6758,"Ġbasin":6759,"Ġattorney":6760,"Ġsor":6761,"Ġwag":6762,"Ġcomics":6763,"chen":6764,"Ġyug":6765,"Ġsecured":6766,"Ġ900":6767,"entional":6768,"Ġinformed":6769,"Ġkw":6770,"Ġdominated":6771,"Ġchurches":6772,"tz":6773,"Ġwol":6774,"eler":6775,"Ġ1912":6776,"Ġnotably":6777,"Ġexpos":6778,"roit":6779,"Ġcasting":6780,"Ġreun":6781,"Ġexit":6782,"Ġgiants":6783,"illing":6784,"aws":6785,"Ġlegs":6786,"Ġsanta":6787,"Ġwatching":6788,"Ġlod":6789,"Ġdriver":6790,"using":6791,"Ġswedish":6792,"pany":6793,"Ġroberts":6794,"Ġsimpson":6795,"Ġhut":6796,"Ġresear":6797,"Ġlanguages":6798,"Ġrelationships":6799,"Ġguardian":6800,"atically":6801,"oster":6802,"Ġneighbour":6803,"Ġbehavi":6804,"aya":6805,"Ġ1932":6806,"Ġindians":6807,"ultane":6808,"ture":6809,"Ġsimultane":6810,"Ġoffices":6811,"Ġtone":6812,"Ġterror":6813,"Ġdevice":6814,"aska":6815,"Ġcabinet":6816,"Ġimposs":6817,"Ġhousing":6818,"Ġtie":6819,"Ġskills":6820,"Ġdies":6821,"acent":6822,"Ġtesting":6823,"illed":6824,"Ġcov":6825,"ication":6826,"Ġdiagn":6827,"eenth":6828,"Ġdick":6829,"Ġcock":6830,"Ġpregn":6831,"Ġraaf":6832,"Ġachieve":6833,"Ġopponents":6834,"Ġkne":6835,"Ġabd":6836,"Ġcemetery":6837,"Ġliz":6838,"Ġhearing":6839,"Ġfreder":6840,"Ġemotional":6841,"Ġfactors":6842,"li":6843,"Ġwarner":6844,"Ġdeployed":6845,"Ġsang":6846,"apse":6847,"Ġjason":6848,"Ġintense":6849,"Ġincom":6850,"Ġmeteor":6851,"Ġdialogue":6852,"Ġbapt":6853,"Ġimpressed":6854,"Ġyugoslav":6855,"rig":6856,"Ġnbc":6857,"Ġ09":6858,"Ġoperational":6859,"Ġgenerated":6860,"Ġreportedly":6861,"Ġdownload":6862,"Ġau":6863,"Ġformat":6864,"Ġdetail":6865,"Ġdrums":6866,"Ġagents":6867,"Ġrender":6868,"iously":6869,"Ġhappened":6870,"Ġanthony":6871,"ructure":6872,"Ġwindow":6873,"Ġmainten":6874,"Ġagricultural":6875,"Ġfootage":6876,"Ġexperiences":6877,"Ġtrek":6878,"Ġemployees":6879,"Ġmaintenance":6880,"ternal":6881,"Ġsomers":6882,"Ġbh":6883,"Ġgaga":6884,"fare":6885,"Ġabbey":6886,"Ġsatur":6887,"arts":6888,"Ġsuccessor":6889,"olph":6890,"Ġmud":6891,"Ġscientists":6892,"udes":6893,"ci":6894,"Ġlose":6895,"Ġrising":6896,"Ġfiring":6897,"Ġcroatia":6898,"Ġhu":6899,"Ġclay":6900,"Ġcommemor":6901,"ache":6902,"Ġdetroit":6903,"Ġbun":6904,"otype":6905,"Ġcu":6906,"Ġzero":6907,"Ġnegotiations":6908,"mate":6909,"Ġlowest":6910,"icial":6911,"Ġark":6912,"Ġfishing":6913,"Ġ1929":6914,"Ġsure":6915,"Ġcod":6916,"Ġfried":6917,"Ġpersonality":6918,"Ġdefended":6919,"Ġrevolutionary":6920,"Ġgilbert":6921,"ctic":6922,"Ġbelg":6923,"Ġ1911":6924,"Ġteeth":6925,"Ġcollect":6926,"fire":6927,"Ġmedium":6928,"Ġdiscussed":6929,"Ġtreated":6930,"Ġrecur":6931,"Ġexecuted":6932,"Ġay":6933,"Ġnormally":6934,"aints":6935,"Ġstem":6936,"Ġsic":6937,"Ġseas":6938,"Ġku":6939,"anny":6940,"Ġsympt":6941,"tw":6942,"Ġfeud":6943,"Ġ140":6944,"Ġstewart":6945,"Ġasian":6946,"Ġresign":6947,"Ġ1931":6948,"Ġ1922":6949,"Ġtenth":6950,"Ġradar":6951,"Ġdrawing":6952,"Ġdj":6953,"Ġcarib":6954,"Ġtribute":6955,"Ġjesus":6956,"30":6957,"ontin":6958,"Ġcher":6959,"Ġenters":6960,"Ġtornado":6961,"Ġbreat":6962,"Ġinterstate":6963,"igen":6964,"Ġresigned":6965,"achment":6966,"Ġadvoc":6967,"Ġmelbourne":6968,"Ġdifference":6969,"Ġflew":6970,"Ġdetailed":6971,"Ġevans":6972,"Ġaccompany":6973,"Ġnielsen":6974,"Ġorigins":6975,"Ġgoods":6976,"Ġportra":6977,"Ġboil":6978,"Ġlob":6979,"Ġclinton":6980,"Ġpartnership":6981,"ih":6982,"noon":6983,"Ġbudd":6984,"iliar":6985,"Ġresidential":6986,"Ġformally":6987,"Ġpointed":6988,"Ġethnic":6989,"Ġaged":6990,"Ġsynd":6991,"Ġvessel":6992,"Ġxbox":6993,"Ġafternoon":6994,"Ġpreferred":6995,"Ġglac":6996,"ois":6997,"Ġstorms":6998,"Ġinhabit":6999,"Ġloop":7000,"Ġmilitia":7001,"Ġreveals":7002,"Ġinnov":7003,"oen":7004,"Ġhuge":7005,"Ġraj":7006,"Ġinstitution":7007,"vens":7008,"Ġannounce":7009,"Ġkeeping":7010,"Ġprevented":7011,"Ġstable":7012,"Ġdirectors":7013,"Ġatlant":7014,"Ġneighborhood":7015,"orous":7016,"Ġforb":7017,"Ġtempor":7018,"arf":7019,"Ġapprec":7020,"ni":7021,"sk":7022,"Ġpushed":7023,"Ġarriving":7024,"Ġmuslim":7025,"Ġsubstantial":7026,"Ġforty":7027,"Ġ05":7028,"Ġsisters":7029,"Ġtechnique":7030,"Ġmarshall":7031,"Ġisolated":7032,"ila":7033,"Ġhanded":7034,"Ġorganizations":7035,"Ġmoments":7036,"Ġmetro":7037,"Ġfounder":7038,"Ġdisturb":7039,"Ġsamuel":7040,"Ġexposed":7041,"Ġsevent":7042,"lie":7043,"Ġphen":7044,"Ġpartly":7045,"Ġlinked":7046,"Ġenthus":7047,"Ġturkish":7048,"Ġhans":7049,"mad":7050,"vere":7051,"Ġfactory":7052,"Ġsarah":7053,"Ġherald":7054,"Ġanaly":7055,"pet":7056,"Ġdesigner":7057,"Ġcontinental":7058,"Ġoxy":7059,"Ġbenn":7060,"Ġimprison":7061,"Ġdeparted":7062,"Ġcorrect":7063,"Ġlennon":7064,"Ġexisted":7065,"Ġinstrumental":7066,"bean":7067,"Ġpione":7068,"otes":7069,"Ġproced":7070,"Ġcomplic":7071,"Ġmeg":7072,"Ġwedding":7073,"Ġassess":7074,"Ġperiods":7075,"Ġbaltim":7076,"Ġfrequent":7077,"Ġmanh":7078,"Ġfifteen":7079,"Ġdramatic":7080,"Ġranking":7081,"Ġsuspend":7082,"Ġgreece":7083,"Ġmack":7084,"Ġavo":7085,"Ġextent":7086,"Ġbaltimore":7087,"rees":7088,"Ġ170":7089,"Ġmoral":7090,"Ġshock":7091,"Ġaustria":7092,"sa":7093,"Ġinher":7094,"Ġimpossible":7095,"iner":7096,"rome":7097,"rose":7098,"Ġparticipate":7099,"Ġsymp":7100,"Ġoccupation":7101,"stic":7102,"Ġinstance":7103,"Ġconcerts":7104,"inder":7105,"Ġscholar":7106,"Ġiniti":7107,"Ġseeking":7108,"Ġcatal":7109,"Ġdeputy":7110,"Ġalter":7111,"Ġanticip":7112,"Ġmail":7113,"lev":7114,"Ġgrace":7115,"Ġapple":7116,"Ġtaught":7117,"olis":7118,"Ġload":7119,"Ġcolorado":7120,"Ġfinale":7121,"Ġspecimens":7122,"Ġtru":7123,"Ġpatrol":7124,"imb":7125,"Ġcruisers":7126,"usted":7127,"Ġarmament":7128,"Ġturb":7129,"mat":7130,"Ġseek":7131,"Ġgates":7132,"Ġmanus":7133,"Ġghost":7134,"music":7135,"Ġern":7136,"Ġhunt":7137,"Ġimpress":7138,"Ġfab":7139,"Ġverse":7140,"Ġcreator":7141,"Ġnewspapers":7142,"Ġrarely":7143,"Ġamendment":7144,"fr":7145,"arn":7146,"Ġmalays":7147,"Ġspending":7148,"ullivan":7149,"Ġaqu":7150,"Ġrepair":7151,"Ġsmooth":7152,"gate":7153,"Ġdave":7154,"Ġdir":7155,"Ġfriendly":7156,"Ġdoesn":7157,"ologists":7158,"mal":7159,"Ġgene":7160,"cope":7161,"Ġmetropolitan":7162,"Ġabsol":7163,"Ġsem":7164,"Ġchase":7165,"Ġlisten":7166,"lyn":7167,"Ġarena":7168,"Ġhelic":7169,"Ġprecip":7170,"Ġ1928":7171,"Ġnag":7172,"Ġalab":7173,"Ġdivor":7174,"Ġdiameter":7175,"Ġuncertain":7176,"Ġmathemat":7177,"Ġpip":7178,"ras":7179,"Ġpounds":7180,"Ġstro":7181,"iller":7182,"Ġrelie":7183,"iami":7184,"Ġobser":7185,"Ġtimber":7186,"Ġfrederick":7187,"Ġpoison":7188,"boy":7189,"obi":7190,"Ġwithdrew":7191,"Ġexhibition":7192,"umin":7193,"Ġlect":7194,"icians":7195,"Ġpermission":7196,"Ġpicked":7197,"Ġchanc":7198,"Ġjoining":7199,"Ġsomerset":7200,"Ġrates":7201,"Ġupgraded":7202,"Ġchanging":7203,"Ġencountered":7204,"Ġpolicies":7205,"Ġcous":7206,"Ġinaug":7207,"Ġ1925":7208,"Ġdifficulties":7209,"Ġcovers":7210,"Ġmario":7211,"Ġgab":7212,"Ġanna":7213,"Ġplus":7214,"Ġconsult":7215,"Ġrefere":7216,"Ġinqu":7217,"Ġrestrict":7218,"Ġcollaps":7219,"idae":7220,"borough":7221,"Ġmulti":7222,"ĠÃ¦":7223,"Ġschedule":7224,"die":7225,"sea":7226,"Ġlegislature":7227,"Ġsuicide":7228,"Ġovers":7229,"anium":7230,"ski":7231,"chell":7232,"Ġanglo":7233,"Ġadvice":7234,"Ġmiami":7235,"aria":7236,"Ġmerchant":7237,"Ġpartially":7238,"Ġfran":7239,"Ġ1890":7240,"Ġsank":7241,"Ġseattle":7242,"Ġfederation":7243,"Ġpilots":7244,"Ġanch":7245,"Ġdisaster":7246,"Ġbombers":7247,"Ġadjacent":7248,"Ġathletic":7249,"Ġboss":7250,"Ġrestric":7251,"Ġturrets":7252,"Ġ1924":7253,"Ġric":7254,"Ġdal":7255,"Ġcomments":7256,"Ġtraveled":7257,"Ġbenefit":7258,"Ġgap":7259,"olas":7260,"Ġseed":7261,"Ġskull":7262,"Ġphilosophy":7263,"Ġrefers":7264,"Ġgardens":7265,"Ġwaves":7266,"Ġmines":7267,"Ġexplo":7268,"Ġagree":7269,"Ġloan":7270,"Ġaffair":7271,"Ġseats":7272,"Ġsigns":7273,"col":7274,"Ġkal":7275,"Ġmarry":7276,"amese":7277,"Ġproport":7278,"Ġmeat":7279,"Ã©e":7280,"Ġsector":7281,"Ġworship":7282,"Ġshakes":7283,"Ġeagle":7284,"Ġiowa":7285,"Ġcriticised":7286,"Ġian":7287,"Ġsoldier":7288,"Ġrebellion":7289,"Ġplain":7290,"Ġpref":7291,"Ġphr":7292,"ti":7293,"Ġsoil":7294,"Ġmint":7295,"Ġ07":7296,"Ġminimum":7297,"Ġpc":7298,"Ġcoordin":7299,"sters":7300,"Ġremove":7301,"Ġswift":7302,"Ġcompete":7303,"Ġmunicipal":7304,"Ġrepr":7305,"gery":7306,"Ġmissou":7307,"Ġalabama":7308,"Ġion":7309,"Ġstruggle":7310,"Ġprompted":7311,"Ġmississ":7312,"Ġindicate":7313,"Ġoverl":7314,"usal":7315,"Ġbases":7316,"Ġcaribbean":7317,"Ġsi":7318,"Ġwhil":7319,"Ġpitched":7320,"inction":7321,"Ġdanc":7322,"Ġhalo":7323,"Ġdestroyers":7324,"Ġmedicine":7325,"Ġmanuscript":7326,"Ġrav":7327,"Ġsurprise":7328,"attan":7329,"Ġcommunication":7330,"Ġnapole":7331,"Ġneutral":7332,"iot":7333,"Ġspiritual":7334,"Ġlawrence":7335,"Ġstring":7336,"Ġcollapse":7337,"Ġgrown":7338,"power":7339,"Ġparent":7340,"Ġenterprise":7341,"pie":7342,"enh":7343,"Ġum":7344,"Ġcopy":7345,"Ġteaching":7346,"isd":7347,"esis":7348,"Ġ1923":7349,"Ġpowered":7350,"Ġcollaboration":7351,"Ġyanke":7352,"Ġbros":7353,"gi":7354,"Ġgat":7355,"uster":7356,"Ġindeed":7357,"Ġwalker":7358,"Ġcharlie":7359,"Ġrestaurant":7360,"Ġwhilst":7361,"Ġblow":7362,"Ġprotagonist":7363,"Ġmarketing":7364,"Ġminnes":7365,"Ġciting":7366,"Ġdesignation":7367,"Ġstream":7368,"attered":7369,"Ġforcing":7370,"Ġelectron":7371,"Ġfifty":7372,"Ġcapit":7373,"Ġvalues":7374,"Ġpaintings":7375,"nings":7376,"Ġappointment":7377,"Ġkhan":7378,"Ġyor":7379,"Ġbranc":7380,"Ġpossession":7381,"gas":7382,"Ġsatellite":7383,"Ġhelicop":7384,"Ġwreck":7385,"Ġapproval":7386,"Ġprovinc":7387,"Ġdescribe":7388,"Ġarmored":7389,"mont":7390,"Ġjen":7391,"Ġformula":7392,"Ġcovering":7393,"Ġsurvivors":7394,"Ġpretty":7395,"Ġcandidates":7396,"Ġdepending":7397,"ika":7398,"mates":7399,"rum":7400,"Ġrounds":7401,"Ġabb":7402,"Ġmane":7403,"Ġunderstanding":7404,"Ġharbour":7405,"Ġencounter":7406,"Ġdispute":7407,"Ġcharter":7408,"Ġfortress":7409,"Ġorbit":7410,"Ġbrill":7411,"Ġbalance":7412,"Ġcyl":7413,"Ġbowling":7414,"Ġbenj":7415,"Ġhungary":7416,"Ġoxygen":7417,"Ġdim":7418,"Ġvillages":7419,"Ġarticles":7420,"Ġnazi":7421,"Ġsituated":7422,"Ġtravelled":7423,"Ġdollars":7424,"mo":7425,"Ġpic":7426,"Ġpine":7427,"Ġdisplayed":7428,"Ġlisting":7429,"Ġhamp":7430,"icate":7431,"Ġprompt":7432,"lan":7433,"ception":7434,"Ġvictories":7435,"ascar":7436,"Ġmall":7437,"Ġminimal":7438,"Ġsurvive":7439,"Ġviolent":7440,"Ġwake":7441,"Ġfemin":7442,"Ġdock":7443,"Ġfel":7444,"Ġpole":7445,"Ġaustralians":7446,"Ġsoftware":7447,"Ġbelgium":7448,"Ġserial":7449,"10":7450,"Ġplayoffs":7451,"Ġoption":7452,"Ġchristopher":7453,"Ġsymptoms":7454,"Ġcot":7455,"Ġclosing":7456,"Ġlegislative":7457,"Ġprol":7458,"Ġreconna":7459,"Ġtelling":7460,"Ġdiff":7461,"Ġdiego":7462,"Ġdancing":7463,"Ġfuneral":7464,"Ġearthqu":7465,"Ġjar":7466,"Ġassisted":7467,"Ġamongst":7468,"Ġshakespe":7469,"Ġforests":7470,"Ġhelping":7471,"Ġalive":7472,"Ġinterpre":7473,"Ġpublications":7474,"Ġsugar":7475,"Ġriders":7476,"Ġnam":7477,"Ġacted":7478,"Ġski":7479,"Ġbrun":7480,"Ġcargo":7481,"Ġeliminated":7482,"esh":7483,"Ġmarks":7484,"Ġmonster":7485,"ãģ":7486,"Ġ*":7487,"Ġnad":7488,"Ġasks":7489,"Ġguil":7490,"Ġdegrees":7491,"Ġpoems":7492,"Ġbattalions":7493,"nie":7494,"odore":7495,"Ġrugby":7496,"oren":7497,"Ġdrivers":7498,"Ġreconnaissance":7499,"phone":7500,"Ġmichel":7501,"Ġpurposes":7502,"anna":7503,"Ġcolonies":7504,"velt":7505,"Ġalfred":7506,"Ġmys":7507,"Ġdisl":7508,"Ġ1905":7509,"Ġ1908":7510,"imeter":7511,"Ġ1909":7512,"Ġtomb":7513,"Ġadministrative":7514,"Ġpron":7515,"Ġfatal":7516,"Ġcircumst":7517,"Ġmason":7518,"Ġroose":7519,"Ġbenjamin":7520,"Ġoccasions":7521,"Ġcompilation":7522,"Ġrepairs":7523,"Ġsimpl":7524,"Ã§":7525,"Ġtrouble":7526,"Ġstatue":7527,"Ġjok":7528,"Ġvietn":7529,"Ġblind":7530,"Ġalcohol":7531,"orted":7532,"Ġvietnamese":7533,"Ġcrus":7534,"Ġinteract":7535,"Ġrout":7536,"Ġlists":7537,"Ġconcrete":7538,"Ġattendance":7539,"Ġminnesota":7540,"Ġinland":7541,"atus":7542,"Ġvoiced":7543,"Ġmental":7544,"inals":7545,"Ġabilities":7546,"Ġpreserved":7547,"Ġcannon":7548,"Ġgrammy":7549,"Ġanime":7550,"Ġpublicly":7551,"Ġpant":7552,"Ġconsole":7553,"Ġsick":7554,"rupted":7555,"Ġmanhattan":7556,"Ġtang":7557,"Ġillness":7558,"Ġfranklin":7559,"ographical":7560,"Ġpreparation":7561,"Ġdefeating":7562,"Ġargument":7563,"Ġwider":7564,"Ġcommunications":7565,"eing":7566,"uman":7567,"Ġorganisation":7568,"Ġbusinesses":7569,"fted":7570,"Ġhoriz":7571,"Ġ105":7572,"Ġsignal":7573,"forced":7574,"jan":7575,"Ġhong":7576,"Ġtouring":7577,"Ġramp":7578,"Ġjet":7579,"Ġ125":7580,"Ġroosevelt":7581,"agen":7582,"Ġelabor":7583,"Ġ04":7584,"uda":7585,"Ġpool":7586,"Ġcole":7587,"Ġresidence":7588,"Ġhighways":7589,"Ġ1907":7590,"Ġcoff":7591,"Ġvs":7592,"ng":7593,"Ġsurge":7594,"Ġdollar":7595,"ivated":7596,"Ġammun":7597,"Ġprel":7598,"Ġbacking":7599,"Ġfallen":7600,"opes":7601,"Ġresumed":7602,"atherine":7603,"Ġalignment":7604,"Ġsas":7605,"acle":7606,"Ġthinking":7607,"Ġkansas":7608,"Ġ164":7609,"Ġarchb":7610,"Ġflights":7611,"Ġcompeted":7612,"Ġmississipp":7613,"Ġbelieving":7614,"Ġopponent":7615,"Ġunderst":7616,"Ġing":7617,"ishment":7618,"Ġnash":7619,"Ġcounties":7620,"Ġsigning":7621,"Ġcrews":7622,"iable":7623,"ounced":7624,"Ġintensified":7625,"Ġammunition":7626,"Ġdocuments":7627,"Ġsubjects":7628,"Ġrib":7629,"Ġassists":7630,"Ġamate":7631,"Ġgenetic":7632,"Ġportland":7633,"Ġalternate":7634,"Ġwilling":7635,"Ġbiographer":7636,"din":7637,"Ġfriendship":7638,"Ġwalking":7639,"Ġinteresting":7640,"Ġusual":7641,"Ġaudiences":7642,"Ġexcav":7643,"Ġceremon":7644,"Ġatomic":7645,"Ġusd":7646,"Ġnoble":7647,"Ġstrategic":7648,"Ġdeliber":7649,"Ġsib":7650,"Ġnit":7651,"Ġdoubt":7652,"Ġsuitable":7653,"Ġfeelings":7654,"Ġabol":7655,"Ġengineers":7656,"Ġrush":7657,"Ġspar":7658,"Ġsaturday":7659,"Ġprovincial":7660,"orph":7661,"Ġradical":7662,"ensions":7663,"Ġpeters":7664,"Ġchand":7665,"Ġairborne":7666,"Ġwoods":7667,"Ġstu":7668,"à¤":7669,"Ġtribes":7670,"Ġguards":7671,"Ġcompleting":7672,"Ġownership":7673,"Ġpercentage":7674,"Ġ165":7675,"Ġfunctions":7676,"Ġwarren":7677,"Ġsubmitted":7678,"Ġwaiting":7679,"Ġ1880":7680,"donald":7681,"Ġautobi":7682,"Ġexplosion":7683,"Ġasking":7684,"Ġdc":7685,"Ġcob":7686,"Ġunderw":7687,"Ġloyal":7688,"Ġalexand":7689,"Ġpor":7690,"Ġtast":7691,"Ġdisord":7692,"Ġcharity":7693,"itated":7694,"iveness":7695,"Ġbehalf":7696,"Ġartistic":7697,"Ġhook":7698,"Ġadopt":7699,"Ġstick":7700,"Ġshakespeare":7701,"Ġtab":7702,"Ġvinc":7703,"Ġtennes":7704,"utor":7705,"Ġpolar":7706,"Ġlex":7707,"Ġhindu":7708,"Ġretail":7709,"Ġchronicle":7710,"Ġevolved":7711,"Ġcampbell":7712,"Ġquad":7713,"Ġchest":7714,"Ġcinema":7715,"Ġrip":7716,"ifer":7717,"Ġsteven":7718,"Ġrevenue":7719,"Ġted":7720,"Ġfrust":7721,"onymous":7722,"Ġwire":7723,"Ġregistered":7724,"Ġrice":7725,"Ġfalse":7726,"cular":7727,"Ġbirthday":7728,"ader":7729,"ods":7730,"Ġgoth":7731,"Ġcartoon":7732,"Ġsullivan":7733,"Ġobv":7734,"Ġtargets":7735,"dale":7736,"Ġremark":7737,"Ġhole":7738,"Ġastronom":7739,"Ġlucas":7740,"Ġsuspended":7741,"Äĥ":7742,"Ġdimens":7743,"ige":7744,"pecies":7745,"Ġpok":7746,"ses":7747,"Ġborough":7748,"Ġreluct":7749,"Ġmovies":7750,"Ġ01":7751,"Ġpoorly":7752,"Ġfavorable":7753,"father":7754,"Ġnep":7755,"Ġpup":7756,"Ġegyptian":7757,"Ġmississippi":7758,"Ġhob":7759,"Ġrecip":7760,"Ġheading":7761,"Ġcass":7762,"Ġforth":7763,"Ġguer":7764,"Ġcomfort":7765,"Ġpace":7766,"icts":7767,"Ġstevens":7768,"Ġcivilian":7769,"Ġmush":7770,"Ġguilty":7771,"Ġquiet":7772,"Ġfrig":7773,"Ġideal":7774,"Ġmeasured":7775,"Ġreplacing":7776,"Ġkin":7777,"Ġcliff":7778,"Ġmargaret":7779,"Ġliked":7780,"Ġsolution":7781,"Ġboundary":7782,"Ġoffering":7783,"Ġmissouri":7784,"Ġtennessee":7785,"Ġjosh":7786,"Ġlakes":7787,"oto":7788,"sky":7789,"Ġretrie":7790,"Ġaimed":7791,"ËĪ":7792,"Ġarmies":7793,"Ġlouisiana":7794,"Ġexpensive":7795,"Ġprovision":7796,"Ġ1906":7797,"lah":7798,"Ġacceler":7799,"Ġmontreal":7800,"Ġprospect":7801,"pes":7802,"inations":7803,"eston":7804,"inea":7805,"Ġjos":7806,"Ġpalest":7807,"Ġengagement":7808,"Ġ360":7809,"Ġshells":7810,"Ġsimultaneously":7811,"Ġrocks":7812,"Ġclearly":7813,"Ġ1904":7814,"Ġbehaviour":7815,"Ġtemporarily":7816,"Ġgalax":7817,"Ġfiled":7818,"Ġshipping":7819,"Ġrecognised":7820,"Ġsequences":7821,"uable":7822,"Ġcraw":7823,"Ġbilly":7824,"Ġgear":7825,"Ġmonaster":7826,"Ġ1870":7827,"Ġwore":7828,"Ġaviation":7829,"Ġphilippines":7830,"cel":7831,"Ġtox":7832,"Ġesp":7833,"Ġrepresents":7834,"Ġvulner":7835,"Ġreaders":7836,"Ġsaved":7837,"Ġagriculture":7838,"Ġbrick":7839,"zech":7840,"crib":7841,"Ġcoverage":7842,"Ġmitchell":7843,"Ġwants":7844,"Ġsubt":7845,"Ġstorage":7846,"Ġfra":7847,"Ġgran":7848,"Ġbutter":7849,"Ġcontext":7850,"Ġessential":7851,"Ġremnants":7852,"Ġsket":7853,"iac":7854,"oh":7855,"Ġstores":7856,"Ġpars":7857,"Ġphoen":7858,"Ġtalent":7859,"Ġcoinc":7860,"wned":7861,"Ġerr":7862,"Ġcancelled":7863,"Ġpatterns":7864,"Ġmining":7865,"Ġphone":7866,"Ġpropag":7867,"Ġcomparison":7868,"Ġblocks":7869,"rix":7870,"Ġkirk":7871,"Ġsurgery":7872,"Ġtight":7873,"Ġspotted":7874,"Ġil":7875,"Ġfaster":7876,"Ġperspective":7877,"Ġmatters":7878,"Ġinstitutions":7879,"Ġgraham":7880,"Ġaside":7881,"Ġarmour":7882,"Ġcontinu":7883,"Ġczech":7884,"Ġprotein":7885,"Ġreflected":7886,"Ġ03":7887,"Ġdogs":7888,"ylan":7889,"Ġpractices":7890,"Ġfamiliar":7891,"Ġsuggesting":7892,"Ġfurn":7893,"Ġwasn":7894,"issions":7895,"Ġcontributions":7896,"mn":7897,"Ġther":7898,"Ġcoc":7899,"Ġcarn":7900,"life":7901,"Ġlesser":7902,"Ġmaneu":7903,"Ġbare":7904,"Ġnotice":7905,"Ġfastest":7906,"Ġoverseas":7907,"Ġthirteen":7908,"Ġglobe":7909,"Ġhunter":7910,"Ġbeauty":7911,"Ġapplication":7912,"Ġroots":7913,"Ġariz":7914,"Ġsubspecies":7915,"Ġrebuilt":7916,"Ġranks":7917,"Ġvertical":7918,"Ġdestroyer":7919,"Ġpulled":7920,"rator":7921,"Ġpredomin":7922,"Ġdrugs":7923,"Ġcrystal":7924,"Ġfurthermore":7925,"Ġshadow":7926,"Ġjobs":7927,"Ġcuba":7928,"rants":7929,"Ġforg":7930,"Ġarchbishop":7931,"rim":7932,"unes":7933,"Ġexclud":7934,"Ġescaped":7935,"Ġsult":7936,"Ġstrict":7937,"Ġamounts":7938,"Ġdecides":7939,"Ġflagship":7940,"Ġslaves":7941,"Ġintelle":7942,"Ġwicket":7943,"iy":7944,"storm":7945,"Ġempt":7946,"Ġoliv":7947,"Ġcave":7948,"Ġosc":7949,"tha":7950,"Ġallmusic":7951,"Ġtriang":7952,"Ġsummit":7953,"Ġintellect":7954,"net":7955,"car":7956,"Ġpanel":7957,"Ġlacked":7958,"vereign":7959,"Ġspider":7960,"Ġsovereign":7961,"Ġdrove":7962,"Ġquarterback":7963,"osing":7964,"Ġbombs":7965,"Ġconfederate":7966,"Ġtoy":7967,"Ġexpression":7968,"Ġunex":7969,"Ġsubur":7970,"Ġtamil":7971,"Ġsq":7972,"kshire":7973,"Ġconspir":7974,"Ġbadly":7975,"ori":7976,"urally":7977,"Ġtoky":7978,"Ġamph":7979,"Ġseverely":7980,"Ġautumn":7981,"Ġcontrols":7982,"Ġargues":7983,"Ġbiography":7984,"Ġportions":7985,"artney":7986,"Ġdistinctive":7987,"Ġindies":7988,"Ġprinted":7989,"Ġcrest":7990,"Ġbulk":7991,"Ġstriking":7992,"Ġcoron":7993,"Ġarizona":7994,"Ġstarring":7995,"Ġgodd":7996,"Ġml":7997,"Ġearning":7998,"Ġobservations":7999,"Ġsony":8000,"Ġfo":8001,"Ġpersian":8002,"Ġtort":8003,"Ġtale":8004,"Ġcharacterized":8005,"Ġcondem":8006,"Ġrestricted":8007,"urer":8008,"Ġorth":8009,"Ġplanets":8010,"Ġliberty":8011,"Ġinhabitants":8012,"Ġtack":8013,"Ġwish":8014,"Ġbald":8015,"Ġdylan":8016,"Ġconstitutional":8017,"Ãº":8018,"Ġstern":8019,"Ġspend":8020,"lings":8021,"Ġclock":8022,"Ġmarie":8023,"Ġmainland":8024,"ieties":8025,"Ġguitarist":8026,"Ġbonus":8027,"Ġphenom":8028,"cru":8029,"yon":8030,"Ġnik":8031,"Ġflower":8032,"Ġvisiting":8033,"Ġexcellent":8034,"Ġchick":8035,"Ġranging":8036,"Ġdefinition":8037,"idency":8038,"Ġrevival":8039,"Ġsitting":8040,"Ġwilhel":8041,"Ġferry":8042,"Ġplut":8043,"athy":8044,"Ġ115":8045,"Ġfixed":8046,"Ġpearl":8047,"rog":8048,"Ġlt":8049,"Ġcurren":8050,"Ġholiday":8051,"Ġwait":8052,"Ġtiss":8053,"Ġexplain":8054,"Ġsquadrons":8055,"Ġwine":8056,"Ġmik":8057,"Ġvib":8058,"Ġsig":8059,"Ġjury":8060,"Ġcommanding":8061,"Ġvast":8062,"Ġexplains":8063,"Ġmeetings":8064,"Ġthrew":8065,"fish":8066,"Ġacou":8067,"Ġnominations":8068,"Ġdominant":8069,"Ġmultipl":8070,"Ġstatistics":8071,"oga":8072,"Ġparliamentary":8073,"Ġultimate":8074,"olid":8075,"Ġrings":8076,"Ġathletes":8077,"Ġoklah":8078,"Ġamateur":8079,"Ġmarvel":8080,"Ġdanger":8081,"equ":8082,"Ġdy":8083,"Ġbombing":8084,"Ġambass":8085,"Ġtig":8086,"Ġartific":8087,"Ġpill":8088,"Ġmetall":8089,"Ġdemonstrated":8090,"Ġillegal":8091,"unction":8092,"Ġeducational":8093,"ract":8094,"Ġbroadway":8095,"Ġmrs":8096,"Ġticket":8097,"Ġbone":8098,"Ġarrive":8099,"Ġarist":8100,"Ġcoat":8101,"Ġmaur":8102,"Ġfounding":8103,"Ġ174":8104,"vo":8105,"Ġhidden":8106,"Ġyield":8107,"Ġswitzer":8108,"anian":8109,"Ġlen":8110,"Ġcarriers":8111,"Ġmurphy":8112,"Ġrook":8113,"Ġorn":8114,"Ġabund":8115,"Ġstere":8116,"owed":8117,"Ġartwork":8118,"Ġharvey":8119,"Ġwarship":8120,"Ġpredicted":8121,"Ġexperimental":8122,"Ġdust":8123,"Ġpm":8124,"Ġtalking":8125,"Ġaerial":8126,"Ġswitzerland":8127,"Ġrever":8128,"estone":8129,"Ġnorthward":8130,"Ġreaches":8131,"ested":8132,"Ġanat":8133,"Ġslave":8134,"Ġamy":8135,"hu":8136,"Ġbarry":8137,"Ġprepare":8138,"Ġcensus":8139,"Ġpush":8140,"Ġbeam":8141,"thy":8142,"Ġgrave":8143,"Ġberg":8144,"Ġovert":8145,"Ġpeaking":8146,"Ġ1901":8147,"Ġdeclar":8148,"ulating":8149,"Ġfeeding":8150,"Ġconscious":8151,"di":8152,"emen":8153,"Ġabc":8154,"Ġchel":8155,"Ġvii":8156,"orer":8157,"away":8158,"Ġdread":8159,"Ġapartment":8160,"Ġaccum":8161,"grad":8162,"Ġnut":8163,"Ġforecast":8164,"Ġconversion":8165,"Ġhouseholds":8166,"Ġliquid":8167,"Ġdisagre":8168,"Ġoklahoma":8169,"Ġaustrian":8170,"Ġcruc":8171,"uations":8172,"Ġseriously":8173,"Ġbach":8174,"Ġbaker":8175,"Ġsteps":8176,"asts":8177,"Ġfeels":8178,"bec":8179,"orship":8180,"Ġaudition":8181,"Ġlanes":8182,"Ġjoh":8183,"Ġinnoc":8184,"Ġmate":8185,"Ġoverw":8186,"Ġchoose":8187,"Ġsymphony":8188,"Ġdelaware":8189,"Ġva":8190,"Ġuseful":8191,"Ġlayer":8192,"Ġswimming":8193,"Ġrepeatedly":8194,"Ġpredecessor":8195,"Ġ1903":8196,"Ġcopper":8197,"Ġwells":8198,"Ġpatron":8199,"Ġobtain":8200,"Ġlaugh":8201,"Ġwestward":8202,"Ġlon":8203,"Ġinterf":8204,"Ġ155":8205,"Ġ1902":8206,"Ġgw":8207,"Ġthanks":8208,"Ġconsidering":8209,"Ġphysics":8210,"Ġperry":8211,"Ġmini":8212,"Ġmembership":8213,"Ġbod":8214,"Ġfeather":8215,"Ġbacked":8216,"Ġninet":8217,"Ġcircumstances":8218,"Ġni":8219,"imen":8220,"Ġrico":8221,"elli":8222,"Ġ02":8223,"Ġattained":8224,"Ġtodd":8225,"Ġpreserv":8226,"Ġdelivery":8227,"Ġshaw":8228,"Ġleslie":8229,"Ġfasc":8230,"umps":8231,"Ġperceived":8232,"Ġmemor":8233,"Ġconsequently":8234,"icut":8235,"Ġmadag":8236,"Ġlooks":8237,"Ġcongreg":8238,"Ġeve":8239,"Ġmelody":8240,"Ġpages":8241,"Ġballad":8242,"Ġbernard":8243,"cs":8244,"Ġvig":8245,"Ġmillenn":8246,"Ġrevers":8247,"Ġduo":8248,"Ġsubsid":8249,"Ġrevolt":8250,"Ġbones":8251,"Ġcomed":8252,"Ġstones":8253,"Ġask":8254,"Ġvaluable":8255,"Ġimprovements":8256,"Ġhav":8257,"rast":8258,"ridge":8259,"Äĳ":8260,"Ġsunk":8261,"Ġflowers":8262,"Ġcompens":8263,"Ġremarked":8264,"Ġdenmark":8265,"Ġairlines":8266,"Ġjonathan":8267,"Ġtokyo":8268,"isp":8269,"Ġtowers":8270,"Å«":8271,"oned":8272,"Ġbour":8273,"iders":8274,"Ġkurt":8275,"uma":8276,"Ġpersonally":8277,"Ġbattlecru":8278,"Ġrihanna":8279,"Ġatlanta":8280,"Ġpossess":8281,"Ġpatt":8282,"Ġhog":8283,"eton":8284,"Ġengage":8285,"Ġpromised":8286,"ym":8287,"Ġspart":8288,"Ġguar":8289,"Ġretain":8290,"Ġedwards":8291,"Ġmusician":8292,"Ġtactics":8293,"Ġlandscape":8294,"Ġkam":8295,"Ġkids":8296,"Ġjohnny":8297,"Ġrenov":8298,"Ġdawn":8299,"Ġnixon":8300,"Ġtheatrical":8301,"Ġexecution":8302,"angel":8303,"Ġobst":8304,"rating":8305,"Ġmanga":8306,"Ġ101":8307,"Ġsung":8308,"itter":8309,"Ġment":8310,"onomy":8311,"Ġtravels":8312,"Ġstrengthened":8313,"fa":8314,"mingham":8315,"Ġenlisted":8316,"vi":8317,"Ġdemands":8318,"Ġexplan":8319,"low":8320,"Ġral":8321,"Ġisa":8322,"apolis":8323,"Ġmechanical":8324,"inian":8325,"Ġsixteen":8326,"Ġprofile":8327,"Ġqualified":8328,"Ġjuan":8329,"Ġfunny":8330,"Ġ168":8331,"Ġarnold":8332,"ruption":8333,"Ġraising":8334,"Ġpitts":8335,"Ġrede":8336,"Ġcampaigns":8337,"uded":8338,"Ġaggreg":8339,"Ġairfield":8340,"Ġsuccession":8341,"Ġburns":8342,"Ġpapers":8343,"Ġillustrated":8344,"Ġdemanded":8345,"Ġturret":8346,"bard":8347,"Ġms":8348,"arr":8349,"Ġcompound":8350,"Ġinterpretation":8351,"ele":8352,"Ġwaste":8353,"estyle":8354,"Ġspa":8355,"ova":8356,"Ġcompounds":8357,"Ġelevation":8358,"mith":8359,"rows":8360,"bird":8361,"yt":8362,"Ġstress":8363,"Ġinsisted":8364,"Ġclothing":8365,"Ġelectricity":8366,"asa":8367,"Ġkeith":8368,"Ġjimmy":8369,"Ġbak":8370,"Ġruling":8371,"Ġmirror":8372,"Ġsak":8373,"Ġjudg":8374,"Ġphoenix":8375,"Ġbaron":8376,"abs":8377,"Ġenroll":8378,"Ġmeter":8379,"Ġcanter":8380,"Ġglee":8381,"Ġgentle":8382,"Ġbeats":8383,"Ġtales":8384,"Ġcarp":8385,"Ġdressed":8386,"Ġhood":8387,"Ġruth":8388,"Ġrachel":8389,"nik":8390,"Ġstruggled":8391,"Ġprost":8392,"Ġfewer":8393,"Ġlying":8394,"Ġsettlers":8395,"ghan":8396,"uki":8397,"esty":8398,"Ġhybr":8399,"ĠÏ":8400,"Ġpassion":8401,"Ġtrading":8402,"Ġinsects":8403,"Ġmong":8404,"Ġparas":8405,"Ġincreases":8406,"Ġconquest":8407,"Ġriding":8408,"Ġencl":8409,"Ġpersons":8410,"Ġcoup":8411,"Ġdemolished":8412,"Ġyankees":8413,"Ġfis":8414,"Ġshift":8415,"ulty":8416,"Ġdecisions":8417,"Ġstronger":8418,"acked":8419,"Ġwatershed":8420,"Ġsucceed":8421,"Ġ166":8422,"Ġcutting":8423,"Ġvik":8424,"odox":8425,"ensis":8426,"Ġsurpass":8427,"Ġfourteen":8428,"Ġdaughters":8429,"utt":8430,"Ġbirmingham":8431,"Ġcompliment":8432,"nat":8433,"Ġtracy":8434,"Ġremoval":8435,"Ġhugh":8436,"jection":8437,"Ġmills":8438,"Ġdevelopers":8439,"Ġadvertising":8440,"acre":8441,"Ġobama":8442,"Ġexactly":8443,"avery":8444,"Ġculmin":8445,"Ġexternal":8446,"Ġblu":8447,"Ġ109":8448,"Ġgriff":8449,"omp":8450,"Ġbacter":8451,"gie":8452,"xual":8453,"Ġlights":8454,"Ġobjective":8455,"Ġfossil":8456,"Ġmant":8457,"Ġpursue":8458,"Ġconcentration":8459,"folk":8460,"Ġfate":8461,"lock":8462,"Ġdenn":8463,"Ġresol":8464,"Ġkiller":8465,"Ġdiscovers":8466,"kh":8467,"aro":8468,"Ġlip":8469,"Ġsuperst":8470,"Ġbuddh":8471,"eled":8472,"Ġelectrical":8473,"Ġaltered":8474,"Ġmagazines":8475,"Ġdeterior":8476,"erb":8477,"Ġvenue":8478,"Ġbobby":8479,"Ġmercury":8480,"Ġerected":8481,"Ġoverwhel":8482,"Ġcomprom":8483,"Ġwarfare":8484,"Ġdefences":8485,"Ġdebt":8486,"Ġranges":8487,"Ġloved":8488,"Ġhydrogen":8489,"Ġspur":8490,"Ġwealthy":8491,"Ġhudson":8492,"fts":8493,"Ġgosp":8494,"Ġexercise":8495,"Ġeval":8496,"Ġdefending":8497,"Ġadventures":8498,"Ġemployment":8499,"Ġorganised":8500,"Ġkarl":8501,"Ġbog":8502,"ctr":8503,"cha":8504,"Ġhearts":8505,"Ġburial":8506,"Ġexposure":8507,"Ġdall":8508,"Ġshak":8509,"Ġapproaching":8510,"Ġfold":8511,"season":8512,"Ġwayne":8513,"Ġinvestment":8514,"Ġjurisd":8515,"Ġmadagascar":8516,"Ġprofit":8517,"Ġestablishing":8518,"Ġconnecticut":8519,"Ġced":8520,"Ġmood":8521,"rises":8522,"Ġhence":8523,"Ġlimits":8524,"Ġgods":8525,"Ġvanc":8526,"Ġselect":8527,"Ġconnecting":8528,"mund":8529,"Ġmccartney":8530,"Ġmorrison":8531,"Ġtong":8532,"Ġontar":8533,"Ġjup":8534,"Ġepic":8535,"Ġqualifying":8536,"zzle":8537,"Ġpartial":8538,"Ġcenters":8539,"iden":8540,"Ġoutd":8541,"Ġmature":8542,"Ġliv":8543,"Ġtrick":8544,"Ġcommentary":8545,"Ġontario":8546,"Ġlor":8547,"Ġfriday":8548,"Ġraids":8549,"Ġaggressive":8550,"Ġisot":8551,"Ġprove":8552,"Ġexter":8553,"Ġdetermin":8554,"Ġdwarf":8555,"Ġcanterbury":8556,"rams":8557,"Ġtraveling":8558,"Ġarchitectural":8559,"Ġslip":8560,"Ġradiation":8561,"Ġmarkets":8562,"Ġannouncement":8563,"Ġshorter":8564,"Ġarrangements":8565,"Ġtheore":8566,"ouver":8567,"Ġimprovement":8568,"Ġunless":8569,"Ġedited":8570,"aux":8571,"Ġleonard":8572,"Ġsultan":8573,"py":8574,"Ġongoing":8575,"Ġpruss":8576,"Ġparach":8577,"Ġpredict":8578,"Ġindicating":8579,"Ġtube":8580,"Ġvolumes":8581,"Ġwithdrawal":8582,"Ġacoustic":8583,"Ġdict":8584,"Ġhoney":8585,"Ġpermitted":8586,"ensively":8587,"Ġslavery":8588,"Ġsurvival":8589,"Ġcelebrated":8590,"Ġgren":8591,"Ġcler":8592,"Ġarmoured":8593,"Ġnurs":8594,"Ġsciences":8595,"Ġappropriate":8596,"Ġacknowledged":8597,"ifies":8598,"Ġprecipitation":8599,"Ġbomber":8600,"Ġrend":8601,"Ġsilent":8602,"rous":8603,"efa":8604,"Ġgraduated":8605,"Ġdiscussion":8606,"Ġpreparations":8607,"Ġnapoleon":8608,"Ġstationed":8609,"Ġputting":8610,"Ġextrat":8611,"Ġrecovery":8612,"bow":8613,"Ġcort":8614,"anger":8615,"Ġkills":8616,"Ġdubbed":8617,"Ġdissipated":8618,"lain":8619,"iph":8620,"Ġinitiated":8621,"Ġrealized":8622,"Ġdisappoint":8623,"adi":8624,"Ġevacuated":8625,"Ġvoices":8626,"Ġphotographs":8627,"Ġwis":8628,"Ġuefa":8629,"Ġhosts":8630,"Ġtranslation":8631,"Ġgraduate":8632,"Ġextratropical":8633,"Ġhardy":8634,"Ġhypothes":8635,"Ġfleming":8636,"Ġplacing":8637,"oons":8638,"Ġterr":8639,"Ġparam":8640,"uese":8641,"itis":8642,"ulous":8643,"shore":8644,"Ġindustries":8645,"Ġvoyage":8646,"Ġvancouver":8647,"Ġgary":8648,"Ġrequires":8649,"Ġrehe":8650,"Ġkon":8651,"Ġattitude":8652,"Ġtruck":8653,"Ġ152":8654,"Ġharmon":8655,"Ġvamp":8656,"Ġoriginated":8657,"Ġmcm":8658,"Ġreporter":8659,"Ġyoungest":8660,"Ġburning":8661,"itudes":8662,"amental":8663,"aser":8664,"Ġstol":8665,"caa":8666,"Ġedin":8667,"Ġconfront":8668,"Ġjupiter":8669,"hard":8670,"Ġaffili":8671,"Ġpotter":8672,"hips":8673,"Ġexclusive":8674,"Ã©t":8675,"Ġstrongest":8676,"Ġspecimen":8677,"Ġconventional":8678,"Ġreferring":8679,"Ġtubes":8680,"Ġrp":8681,"Ġtransit":8682,"Ã¦":8683,"Ġtours":8684,"pled":8685,"Ġecho":8686,"Ġpakistan":8687,"Ġsupplement":8688,"Ġcolleagues":8689,"Ġendors":8690,"Ġdonated":8691,"Ġestimates":8692,"Ġminority":8693,"oven":8694,"Ġexpert":8695,"Ġdevast":8696,"itively":8697,"Ġrus":8698,"Ġexha":8699,"Ġparody":8700,"Ġmonte":8701,"Ġtna":8702,"Ġknock":8703,"Ġ173":8704,"Ġpromotional":8705,"autical":8706,"ĠÃ¦thel":8707,"ingham":8708,"Ġindicates":8709,"Ġdecide":8710,"Ġclosest":8711,"Ġbradman":8712,"Ġwool":8713,"Ġkap":8714,"Ġaxis":8715,"Ġportuguese":8716,"Ġlac":8717,"Ġdrinking":8718,"Ġmanor":8719,"Ġtrough":8720,"Ġeug":8721,"Ġvisits":8722,"cr":8723,"Ġbearing":8724,"Ġrecall":8725,"Ġluke":8726,"Ġearthquake":8727,"hous":8728,"Ġoutf":8729,"Ġ104":8730,"Ġheaven":8731,"rep":8732,"Ġcord":8733,"Ġusers":8734,"Ġalice":8735,"Ġguinea":8736,"Ġattending":8737,"Ġsoutheastern":8738,"Ġgathered":8739,"Ġsignature":8740,"Ġdensity":8741,"à¸":8742,"ivation":8743,"Ġcraft":8744,"Ġscattered":8745,"Ġmorph":8746,"Ġterritorial":8747,"pers":8748,"Ġlegit":8749,"Ġlawyer":8750,"inces":8751,"Ġprogramming":8752,"Ġsupplied":8753,"Ġdwight":8754,"Ġchallenged":8755,"Ġartificial":8756,"case":8757,"Ġbeng":8758,"Ġ1860":8759,"Ġtraditionally":8760,"Ġhanna":8761,"Ġcousin":8762,"Ġpam":8763,"Ġbarn":8764,"Ġmerely":8765,"Ġ1893":8766,"Ġidentify":8767,"Ġcruise":8768,"Ġachievement":8769,"Ġdevil":8770,"Ġemphasis":8771,"Ġov":8772,"Ġconcentrated":8773,"mers":8774,"uration":8775,"Ġscreenplay":8776,"Ġcollapsed":8777,"adier":8778,"Ġcotton":8779,"Ġcash":8780,"Ġprinciples":8781,"Ġdemocrats":8782,"Ġoverlo":8783,"Ġgovernments":8784,"ello":8785,"Ġannually":8786,"Ġ1896":8787,"Ġstal":8788,"Ġhey":8789,"Ġphotography":8790,"soft":8791,"Ġalpha":8792,"graph":8793,"Ġelectro":8794,"Ġuncom":8795,"Ġpredators":8796,"Ġprices":8797,"Ġhampshire":8798,"Ġedinburgh":8799,"bal":8800,"nia":8801,"Ġncaa":8802,"Ġoptim":8803,"Ġcelt":8804,"ulted":8805,"Ġoffense":8806,"claimed":8807,"Ġapplications":8808,"Ġdoctr":8809,"Ġprovinces":8810,"Ġsacrif":8811,"Ġfed":8812,"Ġboom":8813,"Ġoliver":8814,"otte":8815,"Ġprisoner":8816,"Ġlawsu":8817,"Ġseized":8818,"Ġchemistry":8819,"Ġcoalition":8820,"Ġcompeting":8821,"Ġdeclaration":8822,"Ġuranium":8823,"Ġfailing":8824,"Ġaccompanying":8825,"Ġdale":8826,"Ġreverse":8827,"andy":8828,"Ġpond":8829,"Ġafghan":8830,"Ġportrayal":8831,"Ġig":8832,"Ġmosc":8833,"Ġtopped":8834,"Ġindigen":8835,"Ġglen":8836,"Ġstuff":8837,"Ġsending":8838,"Ġrangers":8839,"feld":8840,"agger":8841,"Ġsmart":8842,"Ġportrait":8843,"Ġuniversities":8844,"Ġ1898":8845,"Ġinvestigate":8846,"Ġveloc":8847,"Ġchord":8848,"Ġtenure":8849,"Ġtalks":8850,"Ġoutput":8851,"Ġ172":8852,"Ġbroadcasting":8853,"Ġterrain":8854,"Ġchoir":8855,"Ġreinforcements":8856,"Ġcros":8857,"imp":8858,"Ġrevenge":8859,"Ġheir":8860,"Ġtai":8861,"Ġregime":8862,"Ġexperiments":8863,"Ġcertainly":8864,"Ġgoddess":8865,"Ġsonic":8866,"Ġkan":8867,"Ġ350":8868,"Ġbeneath":8869,"Ġsharks":8870,"Ġspy":8871,"bu":8872,"Ġprofession":8873,"Ġguid":8874,"Ã¼r":8875,"Ġtroub":8876,"imetres":8877,"Ġrecurring":8878,"Ġdual":8879,"Ġhitting":8880,"aks":8881,"Ġconsolid":8882,"Ġlords":8883,"Ġralph":8884,"Ġindigenous":8885,"Ġtap":8886,"Ġibn":8887,"Ġapoll":8888,"Ġjuven":8889,"Ġflooded":8890,"Ġvoting":8891,"Ġvictorian":8892,"Ġterminal":8893,"Ġargentina":8894,"Ġreconstruction":8895,"Ġyam":8896,"Ġspaces":8897,"ieth":8898,"Ġ111":8899,"Ġsuspect":8900,"Ġpenet":8901,"Ġbranches":8902,"Ã°":8903,"itch":8904,"Ġnu":8905,"Ġlav":8906,"Ġjama":8907,"Ġredes":8908,"Ġmasters":8909,"Ġvolunteers":8910,"Ġhyper":8911,"Ġquestioned":8912,"Ġyorkshire":8913,"iti":8914,"Ġnerv":8915,"ellation":8916,"Ġgender":8917,"Ġhistorically":8918,"Ġceased":8919,"Ġhes":8920,"Ġ127":8921,"Ġobsc":8922,"owski":8923,"Ġdors":8924,"idal":8925,"Ġtexts":8926,"Ġdecay":8927,"Ġstrange":8928,"Ġvirus":8929,"Ġcontribution":8930,"Ġcable":8931,"Ġjerry":8932,"Ġrio":8933,"Ġsmoke":8934,"Ġassembled":8935,"Ġcraig":8936,"Ġsongwriter":8937,"Ġhast":8938,"Ġconce":8939,"Ġchristianity":8940,"Ġimpression":8941,"Ġrevised":8942,"Ġtribe":8943,"Ġcomponents":8944,"cribed":8945,"Ġelig":8946,"Ġcommenting":8947,"Ġstops":8948,"Ġmaya":8949,"Ã©s":8950,"Ġimagery":8951,"Ġgaz":8952,"Ġreduction":8953,"Ġdrummer":8954,"pin":8955,"Ġdevices":8956,"oviÄĩ":8957,"Ġinfrast":8958,"Ġturner":8959,"Ġnice":8960,"Ġreorgan":8961,"Ġreducing":8962,"Ġunclear":8963,"iary":8964,"irm":8965,"Ġreflect":8966,"Ġmillennium":8967,"Ġserge":8968,"Ġmend":8969,"Ġunderwent":8970,"Ġreward":8971,"Ġstamp":8972,"Ġreplied":8973,"hammad":8974,"Ġdestroying":8975,"Ġduration":8976,"onian":8977,"Ġenforce":8978,"Ġ1899":8979,"Ġcomponent":8980,"rh":8981,"Ġmultiplayer":8982,"Ġandre":8983,"Ġturnp":8984,"Ġcollins":8985,"Ġtrium":8986,"Ġconsistent":8987,"Ġfulf":8988,"pler":8989,"Ġsurve":8990,"atra":8991,"Ġmarge":8992,"Ġhowe":8993,"ayan":8994,"ologies":8995,"Ġpatients":8996,"Ġidentical":8997,"Ġgarn":8998,"unc":8999,"Ġfinland":9000,"Ġapproaches":9001,"Ġproposals":9002,"Ġgaming":9003,"Ġsamples":9004,"gle":9005,"Ġrena":9006,"Ġreveal":9007,"Ġruler":9008,"Ġpartis":9009,"Ġrequirements":9010,"Ġtraded":9011,"Ġlloyd":9012,"Ġcorrid":9013,"Ġchess":9014,"Ġsings":9015,"mania":9016,"Ġ108":9017,"Ġhumor":9018,"Ġfrequency":9019,"Ġarrives":9020,"Ġlifetime":9021,"Ġbuffalo":9022,"Ġsurrendered":9023,"Ġqueensland":9024,"Ġfier":9025,"Ġmond":9026,"Ġreed":9027,"atever":9028,"Ġwinners":9029,"Ġspoken":9030,"itary":9031,"rawn":9032,"ensed":9033,"Ġintervention":9034,"Ġbub":9035,"oting":9036,"Ġresearchers":9037,"Ġdak":9038,"Ġwii":9039,"Ġwhatever":9040,"Ġromance":9041,"Ġunw":9042,"Ġnorfolk":9043,"Ġplatforms":9044,"Ġconceived":9045,"Ġ169":9046,"Ġrobin":9047,"Ġturkey":9048,"Ġclimb":9049,"rates":9050,"Ġasc":9051,"Ġconflic":9052,"Ġburton":9053,"Ġrepresentation":9054,"Ġhawaii":9055,"Ġrejo":9056,"Ġdistant":9057,"cott":9058,"Ġbench":9059,"Ġwarriors":9060,"Ġbelgian":9061,"Ġchore":9062,"Ġpractical":9063,"Ġnicholas":9064,"gom":9065,"Ġbanned":9066,"uras":9067,"Ġconnections":9068,"Ġexclusively":9069,"place":9070,"Ġcelebration":9071,"Ġbennett":9072,"Ġsuddenly":9073,"Ġcommanders":9074,"Ġtape":9075,"Ġfinance":9076,"Ġdavies":9077,"Ġsprings":9078,"Ġfaces":9079,"Ġsubm":9080,"Ġ1850":9081,"illes":9082,"Ġcrimes":9083,"Ġambassador":9084,"Ġcontinuous":9085,"Ġcollections":9086,"Ġrebels":9087,"run":9088,"Ġresur":9089,"Ġvaried":9090,"Ġpraising":9091,"Ġvincent":9092,"Ġmarines":9093,"Ġflames":9094,"ricts":9095,"Ġcompetitive":9096,"Ġprogressive":9097,"Ġbast":9098,"ibilities":9099,"Ġstyl":9100,"Ġmanif":9101,"Ġinvent":9102,"Ġburned":9103,"Ġthorough":9104,"Ġmansion":9105,"Ġcatherine":9106,"ista":9107,"Ġlighting":9108,"Ġshoulder":9109,"Ġlux":9110,"Ġabuse":9111,"Ġprix":9112,"nell":9113,"Ġsample":9114,"Ġpod":9115,"Ġprest":9116,"Ġspeaker":9117,"Ġconfidence":9118,"Ġreviewed":9119,"Ġsignificance":9120,"nda":9121,"Ġlauren":9122,"Ġpon":9123,"icy":9124,"Ġplaza":9125,"Ġtaxes":9126,"gam":9127,"Ġworn":9128,"Ġcamps":9129,"Ġdarwin":9130,"Ġtranslated":9131,"Ġhughes":9132,"Ġguild":9133,"Ġadvised":9134,"Ġconsiders":9135,"ugu":9136,"Ġdonald":9137,"dles":9138,"phal":9139,"Ġreactions":9140,"Ġweigh":9141,"Ġ163":9142,"oly":9143,"Ġpresidency":9144,"Ġdispers":9145,"ethel":9146,"Ġdistricts":9147,"itarian":9148,"Ġgirlfriend":9149,"Ġwitch":9150,"iciency":9151,"Ġboilers":9152,"born":9153,"Ġfern":9154,"Ġshares":9155,"Ġdischar":9156,"Ġtrig":9157,"Ġshep":9158,"Ġsailing":9159,"Ġvulnerable":9160,"hs":9161,"Ġcompr":9162,"Ġmedals":9163,"Ġ1897":9164,"ffield":9165,"Ġeleph":9166,"wing":9167,"Ġproceeded":9168,"Ġhandled":9169,"Ġjudges":9170,"Ġscores":9171,"Ġopportunities":9172,"ded":9173,"acles":9174,"terly":9175,"Ġunderstood":9176,"Ġpall":9177,"Ġpresentation":9178,"Ġharvard":9179,"ellor":9180,"Ġfilmm":9181,"Ġministers":9182,"Ġoslo":9183,"Ġpas":9184,"Ġpairs":9185,"Ġds":9186,"Ġcompanion":9187,"Ġintersects":9188,"Ġsaxon":9189,"Ġgeoff":9190,"Ġbind":9191,"point":9192,"Ġphrase":9193,"Ġracial":9194,"Ġcrops":9195,"Ġenthusi":9196,"zh":9197,"Ġfoster":9198,"Ġgif":9199,"Ġkate":9200,"Ġflows":9201,"Ġswiss":9202,"Ġfairly":9203,"Ġpeng":9204,"Ġobservation":9205,"Ġinfrastructure":9206,"uating":9207,"itely":9208,"Ġnautical":9209,"Ġ106":9210,"Ġbombardment":9211,"igs":9212,"Ġexceed":9213,"Ġdescent":9214,"Ġcameron":9215,"Ġproof":9216,"Ġrocky":9217,"Ġtraditions":9218,"Ġmarshal":9219,"Ġrivalry":9220,"Ġcards":9221,"ĠâĢ¦":9222,"Ġassum":9223,"Ġmanufacturing":9224,"Ġmoscow":9225,"Ġgrap":9226,"Ġpetition":9227,"Ã¶n":9228,"Ġexile":9229,"Ġoutl":9230,"Ġcleared":9231,"Ġpittsburgh":9232,"roph":9233,"Ġvital":9234,"Ġrespective":9235,"Ġgrossing":9236,"Ġrehears":9237,"sts":9238,"Ġexplicit":9239,"Ġnumbered":9240,"Ġcommissioner":9241,"Ġprotests":9242,"Ġextending":9243,"Ġteles":9244,"Ġindonesia":9245,"Ġmim":9246,"Ġvl":9247,"Ġ167":9248,"Ġhide":9249,"Ġtransported":9250,"strong":9251,"Ġknights":9252,"Ġfee":9253,"Ġunlik":9254,"Ġreinforced":9255,"Ġrandom":9256,"Ġintermedi":9257,"Ġ154":9258,"vant":9259,"Ġdrink":9260,"Ġtrend":9261,"encing":9262,"Ġdrain":9263,"Ġcuts":9264,"Ġtoured":9265,"Ġterry":9266,"Ġelite":9267,"Ġcharacteristic":9268,"Ġstructural":9269,"Ġmystery":9270,"Ġseal":9271,"Ġkane":9272,"Ġnonethel":9273,"Ġnonetheless":9274,"Ã«":9275,"Ġexists":9276,"Ġparticipation":9277,"Ġtiger":9278,"Ġtoler":9279,"Ġalaska":9280,"Ġnur":9281,"Ġtonnes":9282,"Ġtheories":9283,"Ġrivals":9284,"Ġcommenced":9285,"Ġrelatives":9286,"Ġcyclones":9287,"Ġdil":9288,"Ġsteep":9289,"Ġantonio":9290,"Ġdri":9291,"Ġmaintaining":9292,"Ġnavigation":9293,"Ġanswer":9294,"Ġturnpike":9295,"erce":9296,"Ġdaw":9297,"Ġtroop":9298,"Ġfert":9299,"Ġgift":9300,"berry":9301,"Ġclan":9302,"Ġcanyon":9303,"hum":9304,"Ġrestore":9305,"Ġwallace":9306,"Ġcel":9307,"Ġeating":9308,"Ġgest":9309,"Ġrelocated":9310,"Ġairline":9311,"Ġvictim":9312,"Ġtested":9313,"Ġabsent":9314,"cules":9315,"Ġcosm":9316,"Ġcolum":9317,"Ġreforms":9318,"Ġtoxic":9319,"oa":9320,"Ġmp":9321,"Ġspong":9322,"Ġskill":9323,"Ġsenators":9324,"Ġinquir":9325,"Ġstef":9326,"Ġpreparing":9327,"Ġmicrosoft":9328,"Ġhonours":9329,"Ġbib":9330,"Ġeis":9331,"Ġmonthly":9332,"Ġnord":9333,"Ġjtw":9334,"cester":9335,"Ġwithdrawn":9336,"Ġjtwc":9337,"Ġpse":9338,"Ġhollow":9339,"Ġwarnings":9340,"Ġdecorated":9341,"inge":9342,"Ġsyria":9343,"minster":9344,"itious":9345,"Ġbin":9346,"Ġdum":9347,"anche":9348,"Ġempty":9349,"world":9350,"hers":9351,"oria":9352,"illo":9353,"Ġupset":9354,"Ġunexpected":9355,"ashes":9356,"Ġclothes":9357,"Ġmixing":9358,"Ġrepublicans":9359,"Ġmagnitude":9360,"Ġconcerning":9361,"Ġdisplaced":9362,"Ġwritings":9363,"Ġamazing":9364,"aha":9365,"Ġsheffield":9366,"ario":9367,"Ġmanip":9368,"Ġmythology":9369,"Ġcoaches":9370,"Ġblo":9371,"Ġinterviews":9372,"Ġfitz":9373,"Ġbert":9374,"Ġdying":9375,"Ġlarry":9376,"Ġhurricanes":9377,"Ġsusan":9378,"Ġisraeli":9379,"Ġansw":9380,"Ġww":9381,"Ġlightning":9382,"Ġidol":9383,"rooms":9384,"Ġmilk":9385,"Ġ1895":9386,"Ġjefferson":9387,"Ġvariations":9388,"Ġinteraction":9389,"Ġtelegraph":9390,"Ġlearns":9391,"Ġarchaeological":9392,"Ġjohnston":9393,"ashi":9394,"Ġcommercially":9395,"olds":9396,"Ġadvertis":9397,"Ġemmy":9398,"Ġdisplays":9399,"isive":9400,"Ġjess":9401,"Ġdoors":9402,"Ġinterpreted":9403,"Ġdreadn":9404,"aman":9405,"Ġcourses":9406,"Ġconfusion":9407,"Ġarguing":9408,"Ġessentially":9409,"Ġclarke":9410,"hal":9411,"Ġvit":9412,"Ġairing":9413,"Ġflex":9414,"Ġcorporate":9415,"Ġdallas":9416,"Ġpseud":9417,"yan":9418,"Ġpock":9419,"Ġdesper":9420,"Ġsalary":9421,"Ġchambers":9422,"aired":9423,"Ġdemo":9424,"Ġparkway":9425,"Ġconstitu":9426,"Ġtooth":9427,"avia":9428,"Ġaft":9429,"Ġ171":9430,"Ġvilla":9431,"adesh":9432,"Ġuncon":9433,"Ġblocked":9434,"Ġbryan":9435,"Ġgolf":9436,"Ġnev":9437,"Ġcarries":9438,"Ġlover":9439,"Ġcyrus":9440,"Ġfaculty":9441,"Ġloud":9442,"Ġguerr":9443,"Ġvariation":9444,"Ġheroes":9445,"Ġdinner":9446,"Ġvolcanic":9447,"Ġreleg":9448,"Ġgrandfather":9449,"Ġmeteorological":9450,"beat":9451,"Ġcolors":9452,"Ġeditions":9453,"Ġswing":9454,"Ġsegments":9455,"Ġowen":9456,"pot":9457,"Ġduch":9458,"Ġaustin":9459,"Ġcostume":9460,"Ġmalaysia":9461,"Ġinternation":9462,"Ġcolours":9463,"Ġmyc":9464,"Ġub":9465,"Ġshifted":9466,"Ġneil":9467,"Ġemotion":9468,"Ġparsons":9469,"Ġacre":9470,"Ġcircular":9471,"Ġaccurate":9472,"haw":9473,"eted":9474,"Ġsega":9475,"Ã¥":9476,"Ġreh":9477,"Ġregiments":9478,"Ġsponsored":9479,"Ġfbi":9480,"Ġcorp":9481,"Ġvalid":9482,"Ġbreaks":9483,"Ġsculpture":9484,"Ġunlikely":9485,"Ã¢":9486,"Ġstall":9487,"prised":9488,"Ġshallow":9489,"Ġsuspic":9490,"oda":9491,"Ġangry":9492,"Ġopposing":9493,"Ġ102":9494,"Ġdanish":9495,"Ġchelsea":9496,"Ġ121":9497,"Ġboulev":9498,"Ġpent":9499,"leans":9500,"Ġwished":9501,"Ġworlds":9502,"Ġlasting":9503,"Ġcattle":9504,"abe":9505,"Ġties":9506,"icing":9507,"Ġarmstrong":9508,"Ġquebec":9509,"Ġaber":9510,"Ġgon":9511,"Ġrebel":9512,"Ġbrazilian":9513,"Ġmckin":9514,"Ġbible":9515,"keeper":9516,"Ġembr":9517,"Ġsurprised":9518,"Ġheavyweight":9519,"onium":9520,"hell":9521,"rot":9522,"Ġgru":9523,"Ġcommerce":9524,"Ġprinciple":9525,"Ġdancers":9526,"lete":9527,"Ġsustain":9528,"Ġxx":9529,"Ġsnake":9530,"Ġnewton":9531,"Ġtickets":9532,"Ġwart":9533,"Ġmacar":9534,"Ġdiverse":9535,"Ġkaiser":9536,"Ġrecreation":9537,"nan":9538,"agi":9539,"Ġdiplomatic":9540,"eness":9541,"asters":9542,"Ġefficient":9543,"Ġdeeply":9544,"isons":9545,"Ġnorthwestern":9546,"Ġexamination":9547,"Ġcott":9548,"atched":9549,"Ġhd":9550,"Ġgamb":9551,"ussion":9552,"Ġhammer":9553,"Ġferr":9554,"Ġcrazy":9555,"Ġtension":9556,"Ġbiological":9557,"fc":9558,"Ġstim":9559,"Ġliner":9560,"Ġprosper":9561,"Ġcav":9562,"Ġinclusion":9563,"Ġrevel":9564,"Ġfi":9565,"Ġnaming":9566,"ortion":9567,"Ġopens":9568,"Ġpursuit":9569,"Ġreich":9570,"Ġtir":9571,"Ġtravelling":9572,"Ġconstantin":9573,"Ġdrafted":9574,"Ġrebuild":9575,"Ġwilhelm":9576,"Ġstolen":9577,"Ġplum":9578,"Ġsheep":9579,"Ġadvancing":9580,"Ġdioc":9581,"Ġrifle":9582,"Ġdisturbance":9583,"Ġine":9584,"Ġwhale":9585,"arsh":9586,"Ġcaes":9587,"Ġdreams":9588,"Ġdivorce":9589,"enon":9590,"Ġorleans":9591,"Ġhoping":9592,"Ġhappen":9593,"wright":9594,"Ġalg":9595,"castle":9596,"Ġsporting":9597,"Ġnavig":9598,"Ġorient":9599,"Ġinfer":9600,"Ġbeating":9601,"Ġbeck":9602,"Ġprocesses":9603,"Ġmg":9604,"ules":9605,"Ġemer":9606,"Ġdirections":9607,"Ġblacks":9608,"Ġratio":9609,"Ġutah":9610,"nor":9611,"Ġlag":9612,"osexual":9613,"Ġpromise":9614,"uri":9615,"Ġkilome":9616,"Ġsettlements":9617,"Ġparachute":9618,"asha":9619,"Ġsubstitute":9620,"Ġmild":9621,"abilities":9622,"Ġharold":9623,"Ġserbian":9624,"Ġinsurance":9625,"Ġmonastery":9626,"Ġ158":9627,"Ġvillain":9628,"Ġhamlet":9629,"Ġcivilians":9630,"Ġconcurrent":9631,"Ġparad":9632,"Ġlocally":9633,"iko":9634,"Ġquarters":9635,"Ġtaste":9636,"Ġrichmond":9637,"Ġfifa":9638,"Ġchallenges":9639,"Ġyout":9640,"Ġcharted":9641,"iqu":9642,"lane":9643,"inis":9644,"Ġpump":9645,"Ġstreak":9646,"Ġpotentially":9647,"Ġfunded":9648,"Ġbeaten":9649,"itate":9650,"Ġ1861":9651,"Ġrocket":9652,"Ġchile":9653,"Ġbenefits":9654,"itted":9655,"Ġrect":9656,"Ġenzy":9657,"Ġintr":9658,"Ġknows":9659,"Ġ1889":9660,"Ġcox":9661,"Ġcanon":9662,"Ġsentence":9663,"Ġmuhammad":9664,"Ġaltitude":9665,"Ġmanage":9666,"Ġscandal":9667,"Ġproportion":9668,"Ġmerged":9669,"Ġlift":9670,"Ġkeys":9671,"Ġrookie":9672,"master":9673,"rin":9674,"Ġdelta":9675,"Ġdense":9676,"Ġabu":9677,"Ġequally":9678,"bri":9679,"Ġbore":9680,"Ġafford":9681,"Ġdisb":9682,"Ġevident":9683,"Ġparticipants":9684,"Ġcolumns":9685,"Ġrains":9686,"chi":9687,"Ġoffshore":9688,"Ġ161":9689,"Ġextinct":9690,"Ġerror":9691,"Ġ1894":9692,"Ġoptions":9693,"rehens":9694,"Ġcbs":9695,"landers":9696,"Ġcaps":9697,"Ġtill":9698,"Ġsemin":9699,"Ġconstantine":9700,"Ġkidn":9701,"Ġexplaining":9702,"Ġscientology":9703,"Ġjurisdiction":9704,"Ġperc":9705,"Ġrunner":9706,"Ġadminister":9707,"Ġnova":9708,"Ġ162":9709,"Ġpersuaded":9710,"Ġconven":9711,"Ġ113":9712,"Ġlud":9713,"Ġrecept":9714,"Ġtyler":9715,"Ġrequiring":9716,"vised":9717,"Ġxii":9718,"Ġmemoir":9719,"Ġveteran":9720,"Ġboulevard":9721,"Ġverte":9722,"Ġfollowers":9723,"Ġyoutube":9724,"Ġsimilarities":9725,"Ġ1891":9726,"Ġ1000":9727,"Ġborrow":9728,"Ġstuart":9729,"reated":9730,"Ġpitcher":9731,"Ġeducated":9732,"Ġfarmers":9733,"Ġapollo":9734,"Ġsocialist":9735,"Ġpregnant":9736,"ampton":9737,"Ġjudicial":9738,"Ġdivine":9739,"Ġdevoted":9740,"Ġreef":9741,"Ġgaining":9742,"Ġcounterp":9743,"Ġwitnesses":9744,"Ġmcl":9745,"Ġhi":9746,"Ġbrooks":9747,"Ġreservoir":9748,"Ġimplemented":9749,"affe":9750,"cription":9751,"Ġoperates":9752,"Ġnose":9753,"Ġwildlife":9754,"Ġveterans":9755,"Ġaccommodate":9756,"Ġtuck":9757,"Ġblast":9758,"Ġpersona":9759,"Ġproteins":9760,"Ġparaly":9761,"Ġinitiative":9762,"vet":9763,"Ġaddressed":9764,"Ġforever":9765,"Ġlinks":9766,"Ġknee":9767,"Ġoz":9768,"Ġtent":9769,"Ġvin":9770,"Ġcategories":9771,"Ġodd":9772,"Ġoriented":9773,"Ġdisorder":9774,"Ġtools":9775,"Ġmassacre":9776,"Ġprototype":9777,"Ġboundaries":9778,"rov":9779,"Ġjoan":9780,"Ġstatements":9781,"Ġindonesian":9782,"Ġbent":9783,"Ġoblig":9784,"Ġaa":9785,"Ġcomplained":9786,"Ġfeared":9787,"Ġ156":9788,"Ġ1892":9789,"piece":9790,"ocation":9791,"Ġpeas":9792,"Ġstrikes":9793,"Ġvirtually":9794,"Ġchrom":9795,"Ġamid":9796,"Ġcardiff":9797,"Ġâģ":9798,"Ġstudying":9799,"Ġnickel":9800,"Ġfavourite":9801,"hill":9802,"onica":9803,"aters":9804,"Ġanarch":9805,"Ġpanzer":9806,"Ġhipp":9807,"boards":9808,"Ġconspiracy":9809,"Ġwisc":9810,"Ġsox":9811,"onsin":9812,"Ġtempo":9813,"Ġtactical":9814,"iah":9815,"Ġ135":9816,"Ġweakening":9817,"Ġaar":9818,"heric":9819,"enos":9820,"Ġnan":9821,"pert":9822,"Ġthreats":9823,"pine":9824,"Ġkyle":9825,"osph":9826,"mented":9827,"Ġ1800":9828,"Ġhostile":9829,"Ġtide":9830,"Ġflav":9831,"Ġdealing":9832,"Ġmontgom":9833,"Ġknocked":9834,"Ġboyfriend":9835,"Ġkeen":9836,"gow":9837,"Ġdanny":9838,"Ġhonorary":9839,"Ġmaps":9840,"Ġ240":9841,"Ġrider":9842,"Ġtrapped":9843,"Ġzh":9844,"Ġhenri":9845,"Ġgalaxy":9846,"rific":9847,"izer":9848,"Ġsoap":9849,"Ġislamic":9850,"Ġgothic":9851,"Ġgospel":9852,"Ġky":9853,"Ġstretch":9854,"usalem":9855,"gus":9856,"nels":9857,"Ġembarked":9858,"Ġthrown":9859,"Ġfires":9860,"Ġivan":9861,"Ġmyself":9862,"Ġpreserve":9863,"Ġ153":9864,"osaurs":9865,"Ġjohann":9866,"Ġschum":9867,"Ġtyr":9868,"Ġextensively":9869,"Ġtune":9870,"Ġhighlighted":9871,"Ġsized":9872,"Ġrey":9873,"Ġmarit":9874,"Ġmidnight":9875,"Ġtribune":9876,"ĠâģĦ":9877,"Ġjustin":9878,"Ġsentenced":9879,"Ġnights":9880,"Ġost":9881,"ashing":9882,"ometric":9883,"Ġjerusalem":9884,"backs":9885,"Ġcitizen":9886,"ĠâĤ¹":9887,"Ġwisconsin":9888,"rically":9889,"Ġboeing":9890,"Ġteammate":9891,"Ġtigers":9892,"Ġusage":9893,"othy":9894,"Ġdocumented":9895,"Ġconflicts":9896,"Ġmacarthur":9897,"Ġhonors":9898,"hop":9899,"Ġprovisions":9900,"auc":9901,"Ġtrio":9902,"Ġpoliticians":9903,"Ġresolved":9904,"Ġhybrid":9905,"Ġpartners":9906,"Ġabroad":9907,"Ġsaturn":9908,"Ġtasked":9909,"Ġremote":9910,"Ġbarnes":9911,"Ġtourism":9912,"Ġuser":9913,"Ġmachin":9914,"Ġobvious":9915,"eto":9916,"Ġsurp":9917,"Ġexplore":9918,"Ġordinary":9919,"Ġlacking":9920,"Ġvelocity":9921,"Ġdiscontin":9922,"ÃŃn":9923,"Ġrenewed":9924,"Ġorthodox":9925,"Ġfus":9926,"Ġreass":9927,"Ġscholarship":9928,"Ġcolored":9929,"Ġrescued":9930,"Ġbeer":9931,"Ġtelephone":9932,"lington":9933,"Ġbeliefs":9934,"aco":9935,"istent":9936,"roid":9937,"Ġlamb":9938,"Ġrogers":9939,"Ġintent":9940,"Ġauthorized":9941,"Ġcompetitions":9942,"Ġcats":9943,"Ġdimin":9944,"Ġgau":9945,"Ġrushing":9946,"Ġguests":9947,"Ġencounters":9948,"Ġrecruited":9949,"aments":9950,"Ġassert":9951,"Ġnoise":9952,"Ġhelps":9953,"Ġbattlefield":9954,"Ġescorted":9955,"Ġscots":9956,"Ġreceives":9957,"Ġseparation":9958,"Ġmontgomery":9959,"fly":9960,"uches":9961,"Ġ1888":9962,"Ġregardless":9963,"ju":9964,"Ġinhib":9965,"Ġhoused":9966,"Ġconsiderably":9967,"Ġisn":9968,"Ġbrigadier":9969,"Ġdarkness":9970,"Ġsean":9971,"Ġenabled":9972,"Ġchad":9973,"Ġprayer":9974,"Ġdefenders":9975,"Ġcrashed":9976,"Ġimprisoned":9977,"Ġelaborate":9978,"Ġpp":9979,"ackdown":9980,"Ġspo":9981,"Ġstein":9982,"Ġhurt":9983,"Ġashore":9984,"Ġtrailer":9985,"ulsion":9986,"Ġsuspension":9987,"Ġgarnered":9988,"Ġtherap":9989,"aved":9990,"Ġpresents":9991,"Ġ1885":9992,"urst":9993,"Ġconj":9994,"Ġbills":9995,"Ġsinking":9996,"Ġchop":9997,"Ġpursued":9998,"Ġconfident":9999,"Ġhandle":10000,"Ġpierre":10001,"far":10002,"Ġuprising":10003,"Ġhumanity":10004,"Ġpupp":10005,"Ġdat":10006,"olly":10007,"Ġjaw":10008,"Ġpromoting":10009,"Ġobserver":10010,"akh":10011,"Ġunve":10012,"ocene":10013,"Ġinvolves":10014,"Ġwarships":10015,"Ġspeculation":10016,"Ġchristians":10017,"Ġbatted":10018,"uters":10019,"zing":10020,"anim":10021,"Ġtrunk":10022,"Ġhandling":10023,"Ġfrontier":10024,"Ġhopes":10025,"Ġfru":10026,"amas":10027,"Ġkrist":10028,"Ġdepicts":10029,"Ġbaltic":10030,"Ġconfirm":10031,"Ġbrilliant":10032,"cliff":10033,"Ġtriumph":10034,"Ġregulations":10035,"Ġbackst":10036,"Ġevacuation":10037,"Ġarcade":10038,"Ġinning":10039,"Ġzoo":10040,"Ġsanct":10041,"Ġpirates":10042,"oded":10043,"ovak":10044,"Ġbreeds":10045,"Ġmagnetic":10046,"Ġmonitor":10047,"Ġleop":10048,"Ġdevelopments":10049,"Ġglas":10050,"Ġorganisms":10051,"Ġurged":10052,"Ġware":10053,"Ġoccasional":10054,"ÉĻ":10055,"Ġ112":10056,"Ġiceland":10057,"Ġremembered":10058,"eg":10059,"erts":10060,"Ġmarl":10061,"sch":10062,"Ġtet":10063,"Ġtint":10064,"Ġace":10065,"Ġthames":10066,"Ġeventual":10067,"Ġpalm":10068,"Ġbatteries":10069,"Ġinternationally":10070,"Ġflour":10071,"Ġloose":10072,"Ġcompositions":10073,"Ġlaps":10074,"acing":10075,"Ġmetric":10076,"Ġsuspected":10077,"zes":10078,"Ġediting":10079,"Ġbarbara":10080,"Ġimpressive":10081,"enberg":10082,"Ġathens":10083,"Ġdozen":10084,"Ġ145":10085,"Ġ1865":10086,"ÃŃa":10087,"oca":10088,"Ġcastles":10089,"Ġowing":10090,"Ġlicense":10091,"Ġthunderstorm":10092,"Ġtissue":10093,"Ġaest":10094,"enburg":10095,"ardo":10096,"Ġbooth":10097,"Ġcapturing":10098,"Ġrailways":10099,"Ġensemb":10100,"Ġmixture":10101,"Ġ978":10102,"Ġtruly":10103,"Ġreagan":10104,"Ġromney":10105,"Ġcardinals":10106,"Ġchron":10107,"Ġrelation":10108,"Ġphoto":10109,"Ġsherman":10110,"Î±":10111,"Ġdug":10112,"Ġnato":10113,"Ġsap":10114,"Ġcs":10115,"Ġthereby":10116,"Ġ159":10117,"Ġwiz":10118,"Ġlions":10119,"Ġbeth":10120,"Ġpolitician":10121,"Ġlyrical":10122,"Ġrendered":10123,"Ġburg":10124,"Ġnancy":10125,"Ġassociate":10126,"Ġchamberlain":10127,"Ġchancellor":10128,"Ġintellectual":10129,"Ġbee":10130,"Ġshah":10131,"kee":10132,"Ġpyram":10133,"Ġdisappointed":10134,"Ġrestrictions":10135,"Ġhorizont":10136,"Ġ117":10137,"Ġconsumption":10138,"Ġupdated":10139,"Ġcounsel":10140,"Ġballs":10141,"Ġmechanism":10142,"Ġmutual":10143,"Ġdecreased":10144,"Ġinherited":10145,"Ġbund":10146,"Ġorganic":10147,"Å¾":10148,"agh":10149,"Ġunn":10150,"Ġclip":10151,"zed":10152,"Ġpositively":10153,"Ġcustomers":10154,"isition":10155,"arest":10156,"ublin":10157,"Ġmarking":10158,"rang":10159,"Ġwarned":10160,"Ġvolunteer":10161,"Ġanticipated":10162,"cht":10163,"Ġupcoming":10164,"Ġtracked":10165,"Ġinhab":10166,"Ġernest":10167,"mel":10168,"Ġcum":10169,"Ġkos":10170,"Ġenh":10171,"rene":10172,"Ġapply":10173,"Ġspokes":10174,"Ġmammals":10175,"Ġamphib":10176,"Ġcontracts":10177,"Ġvolt":10178,"Ġmccar":10179,"udi":10180,"Ġantib":10181,"Ġdelegates":10182,"Ġhelicopter":10183,"ando":10184,"oys":10185,"Ġdirecting":10186,"Ġswitch":10187,"rage":10188,"Î¿":10189,"unning":10190,"Ġnewcastle":10191,"Ġgenu":10192,"Ġpatient":10193,"Ġdependent":10194,"Ġaccidentally":10195,"Ġportugal":10196,"Ġsouthwestern":10197,"Ġdetective":10198,"ĠÄĳ":10199,"Ġinvaded":10200,"Ġconversation":10201,"Ġhaven":10202,"Ġheb":10203,"Ġbreast":10204,"Ġclosure":10205,"Ġ450":10206,"Ġmachines":10207,"enter":10208,"Ġ114":10209,"Ġ118":10210,"Ġinaugural":10211,"Ġconstantinople":10212,"Ġlodge":10213,"Ġassessment":10214,"Ġroot":10215,"ended":10216,"Ġgrid":10217,"Ġtitan":10218,"Ġmcg":10219,"Ġlighter":10220,"Ġauto":10221,"Ġdud":10222,"idia":10223,"Ġdebris":10224,"gue":10225,"Ġcinc":10226,"Ġrally":10227,"Ġreader":10228,"Ġcharlotte":10229,"Ġfundamental":10230,"nery":10231,"Ġmak":10232,"Ã©n":10233,"Ġmerced":10234,"Ġborders":10235,"Ġcorridor":10236,"Ġtram":10237,"Ġvoters":10238,"Ġpete":10239,"annon":10240,"Ġbradley":10241,"Ġnickname":10242,"ĠjosÃ©":10243,"Ġinfection":10244,"Ġconstruct":10245,"Ġ1864":10246,"Ġfossils":10247,"aders":10248,"Ġunre":10249,"Ġaccessible":10250,"Ġpsychiat":10251,"Ġlawsuit":10252,"Ġbesides":10253,"aire":10254,"ovic":10255,"Ġspit":10256,"rible":10257,"Ġantar":10258,"Ġcornwall":10259,"Ġchester":10260,"Ġeasier":10261,"Ġoccurring":10262,"Ġsweep":10263,"Ġnephew":10264,"áº":10265,"Ġmemories":10266,"Ġboost":10267,"phan":10268,"Ġsharing":10269,"anton":10270,"Ġagu":10271,"Ġcomplicated":10272,"pat":10273,"Ġpeop":10274,"Ġparticles":10275,"Ġsheriff":10276,"Ġplates":10277,"Ġslav":10278,"Ġheights":10279,"Ġmolecular":10280,"colm":10281,"Ġfeathers":10282,"Ġxi":10283,"Ġlesb":10284,"Ġshaft":10285,"Ġtib":10286,"Ġpand":10287,"Ġsupports":10288,"took":10289,"Ġflags":10290,"Ġprelimin":10291,"ilda":10292,"wald":10293,"neys":10294,"Ġversus":10295,"restrial":10296,"Ġster":10297,"Ġremar":10298,"Ġmetre":10299,"Ġaj":10300,"Ġkaz":10301,"Ġvick":10302,"ught":10303,"Ġavoided":10304,"edia":10305,"Ġleices":10306,"Ġarmenian":10307,"Ġpom":10308,"Ġthrowing":10309,"Ġprotestant":10310,"Ġmurdered":10311,"Ġautobiography":10312,"Ġoscar":10313,"Ġwartime":10314,"Ġib":10315,"Ġprogressed":10316,"var":10317,"Ġkenneth":10318,"Ġicon":10319,"Ġdoctrine":10320,"Ġinspect":10321,"Ġnortheastern":10322,"Ġlung":10323,"Ġunt":10324,"Ġrecruit":10325,"Ġcurve":10326,"Ġmalcolm":10327,"view":10328,"Ġtier":10329,"Ġsyl":10330,"Ġshelter":10331,"lu":10332,"Ġupl":10333,"Ġmicha":10334,"Ġpunishment":10335,"Ġimposed":10336,"Ġwalt":10337,"icon":10338,"Ġconsequence":10339,"Ġpedro":10340,"Ġbotan":10341,"Ġisaac":10342,"Ġproduces":10343,"Ġwrap":10344,"Ġcena":10345,"Ġmv":10346,"roe":10347,"Ġnoticed":10348,"Ġbris":10349,"Ġreporting":10350,"Ġintegrated":10351,"gett":10352,"Ġtourist":10353,"heimer":10354,"Ġdepicting":10355,"Ġthriller":10356,"Ġexhibit":10357,"changed":10358,"Ġunh":10359,"Ġresid":10360,"ielder":10361,"Ġkilog":10362,"Ġintermediate":10363,"Ġviewing":10364,"Ġthreatening":10365,"Ġãĥ":10366,"ellar":10367,"Ġphilosopher":10368,"Ġdublin":10369,"Ġexploration":10370,"Ġclouds":10371,"Ġannex":10372,"Ġmathematics":10373,"ether":10374,"Ġcrane":10375,"zo":10376,"Ġsaints":10377,"Ġyes":10378,"acht":10379,"Ġeastward":10380,"Ġmounts":10381,"Ġlinear":10382,"oba":10383,"Ġduck":10384,"Ġpeoples":10385,"Ġsri":10386,"Ġ1862":10387,"hall":10388,"inated":10389,"Ġ131":10390,"Ġconvicted":10391,"Ġholes":10392,"Ġattraction":10393,"Ġbailey":10394,"tra":10395,"Ġseb":10396,"Ġposts":10397,"Ġverses":10398,"ht":10399,"Ġshin":10400,"Ġsheet":10401,"Ġ107":10402,"Ġvicinity":10403,"Ġcream":10404,"Ġmelod":10405,"Ġtennis":10406,"Ġdent":10407,"Ġheath":10408,"Ġcourage":10409,"ĠÃ©":10410,"Ġremoving":10411,"Ġjournalists":10412,"Ġdiversity":10413,"Ġdecrease":10414,"Ġgabri":10415,"Ġfib":10416,"enna":10417,"Ġreleasing":10418,"Ġmonit":10419,"Ġentert":10420,"flow":10421,"encer":10422,"Ġhier":10423,"Ġeddie":10424,"Ġignored":10425,"bie":10426,"Ġsulf":10427,"Ġbrut":10428,"Ġfract":10429,"ho":10430,"Ġclergy":10431,"Ġblame":10432,"Ġcincinn":10433,"orf":10434,"Ġlan":10435,"Ġexecut":10436,"Ġtommy":10437,"gÃ©":10438,"Ġsear":10439,"Ġundertaken":10440,"Ġapolog":10441,"Ġcamb":10442,"Ġconstantly":10443,"Ġspell":10444,"Ġexpanding":10445,"irect":10446,"Ġanthem":10447,"Ġfacil":10448,"Ġtouchdowns":10449,"Ġmk":10450,"Ġns":10451,"Ġluft":10452,"aneous":10453,"Ġrealistic":10454,"Ġeighteen":10455,"Ġserbia":10456,"Ġfare":10457,"pez":10458,"Ġtwitter":10459,"Ġpredominantly":10460,"gent":10461,"ulk":10462,"Ġremind":10463,"Ġcongressional":10464,"Ġalberta":10465,"cca":10466,"Ġsubd":10467,"fast":10468,"Ġwarrior":10469,"held":10470,"aping":10471,"Ġfocuses":10472,"Ġ157":10473,"Ġmartial":10474,"Ġspringfield":10475,"Ġå":10476,"Ġfortune":10477,"Ġgrows":10478,"Ġcoaching":10479,"Ġcage":10480,"Ġdolph":10481,"Ġkru":10482,"Ġincred":10483,"Ġ220":10484,"Ġtwentieth":10485,"Ġnes":10486,"Ġcontacted":10487,"Ġparking":10488,"found":10489,"Ġisle":10490,"Ġgenerals":10491,"Ġcreature":10492,"Ġpropaganda":10493,"Ġbil":10494,"Ġbarrier":10495,"Ġmeasuring":10496,"Ġaur":10497,"Ġaux":10498,"Ġenorm":10499,"Ġindependently":10500,"Ġbulgar":10501,"Ġteachers":10502,"Ġdisappeared":10503,"Ġsacrifice":10504,"Ġgibral":10505,"Ġmuslims":10506,"Ġexplanation":10507,"Ġarose":10508,"olia":10509,"umped":10510,"Ġnept":10511,"Ġencom":10512,"Ġcentered":10513,"Ġhack":10514,"Ġdoctors":10515,"Ġcouldn":10516,"Ġgibraltar":10517,"Ġstability":10518,"Ġpleased":10519,"Ġsacred":10520,"Ġyugoslavia":10521,"Ġmetac":10522,"Ġsentiment":10523,"Ġmask":10524,"Ġrelieved":10525,"Ġmaritime":10526,"ais":10527,"uz":10528,"Ġshiva":10529,"Ġmonsters":10530,"Ġspeeds":10531,"Ġ1840":10532,"Ġlocomotives":10533,"Ġestates":10534,"Ġmalta":10535,"Ġjake":10536,"Ġasserted":10537,"Ġbrah":10538,"Ġcollaborated":10539,"Ġcanceled":10540,"Ġfriedrich":10541,"Ġpreliminary":10542,"ener":10543,"Ġwagner":10544,"ws":10545,"Ġcompiled":10546,"Ġsituations":10547,"hanced":10548,"Ġgravity":10549,"Ġinducted":10550,"Ġsaving":10551,"Ġchuck":10552,"Ġworse":10553,"Ġbutt":10554,"Ġmaine":10555,"Ġscientist":10556,"Ġlayers":10557,"Ġcelebrate":10558,"Ġabsorbed":10559,"Ġtol":10560,"Ġenhanced":10561,"Ġups":10562,"Ġexterior":10563,"iture":10564,"amine":10565,"ulum":10566,"Ġplains":10567,"Ġpaying":10568,"Ġfocusing":10569,"gans":10570,"Ġroster":10571,"Ġoxid":10572,"Ġbullet":10573,"Ġcincinnati":10574,"Ġgenres":10575,"ahl":10576,"Ġachiev":10577,"Ġtaiwan":10578,"icus":10579,"ective":10580,"Ġparade":10581,"Ġnetworks":10582,"Ġcale":10583,"Ġreiss":10584,"avan":10585,"ocol":10586,"Ġroadway":10587,"Ġvarying":10588,"Ġmaced":10589,"Ġcontinent":10590,"Ġbrowns":10591,"Ġangelou":10592,"Ġsubtropical":10593,"Ġtum":10594,"Ġaided":10595,"Ġsut":10596,"Ġtob":10597,"iga":10598,"Ġleo":10599,"Ġbeta":10600,"Ġbetray":10601,"Ġincidents":10602,"Ġpublicity":10603,"Ġ126":10604,"Ġ132":10605,"Ġdiscussing":10606,"Ġscouting":10607,"elin":10608,"Ġirreg":10609,"Ġnormandy":10610,"Ġtargeted":10611,"Ġirregular":10612,"Ġinterc":10613,"Ġappeals":10614,"Ġritual":10615,"Ġleeds":10616,"etta":10617,"Ġcreatures":10618,"rels":10619,"asm":10620,"Ġatop":10621,"lett":10622,"Ġ1887":10623,"Ġdislik":10624,"Ġhir":10625,"Ġhed":10626,"Ġtea":10627,"Ġregist":10628,"Ġvegas":10629,"Ġfortifications":10630,"Ġresignation":10631,"Ġtensions":10632,"osion":10633,"Ġ119":10634,"Ġabsolute":10635,"Ġtough":10636,"ritic":10637,"Ġreminis":10638,"Ġfungus":10639,"Ġmadison":10640,"Ġelevated":10641,"ĠpokÃ©":10642,"Ġaub":10643,"Ġdive":10644,"Ġsummon":10645,"Ġconcepts":10646,"Ġkitchen":10647,"Ġsubmarines":10648,"Ġacclaimed":10649,"Ġtreasury":10650,"Ġafghanistan":10651,"Ġtender":10652,"Ã´":10653,"eda":10654,"Ġmarched":10655,"roscop":10656,"Ġconfused":10657,"Ġglad":10658,"Ġpositioned":10659,"Ġolivia":10660,"Ġbars":10661,"idd":10662,"Ġedmund":10663,"aughter":10664,"Ġswept":10665,"Ġtransmission":10666,"Ġcritically":10667,"Ġhelen":10668,"Ġ1863":10669,"Ġdropping":10670,"Ġpreceding":10671,"hin":10672,"Ġtren":10673,"Ġpi":10674,"Ġcarr":10675,"Ġleagues":10676,"Ġburke":10677,"Ġ1886":10678,"Ġcompromise":10679,"Ġbold":10680,"Ġsmoking":10681,"Ġcorruption":10682,"Ġmechanics":10683,"Ġcapitol":10684,"orious":10685,"Ġarguments":10686,"Ġbonds":10687,"Ġcinemat":10688,"Ġeagles":10689,"nn":10690,"Ġmega":10691,"Ġpover":10692,"zac":10693,"£o":10694,"Ġply":10695,"adal":10696,"Ġgregory":10697,"Ġmentions":10698,"Ġspots":10699,"assy":10700,"Ġathletics":10701,"umberland":10702,"Ġanchor":10703,"Ġmushroom":10704,"Ġschumacher":10705,"Ġmam":10706,"Ġproxim":10707,"ipher":10708,"Ġresort":10709,"Ġspacecraft":10710,"Ġbrigades":10711,"Ġventure":10712,"Ġmanifest":10713,"hart":10714,"Ġsuggestion":10715,"Ġbrooklyn":10716,"Ġpoverty":10717,"Ġstored":10718,"Ġjna":10719,"Ġworker":10720,"ront":10721,"Ġmanaging":10722,"Ġgrove":10723,"instein":10724,"Ġseam":10725,"Ġiran":10726,"Ġfarmer":10727,"Ġviii":10728,"Ġjulian":10729,"stan":10730,"Ġhispan":10731,"Ġorton":10732,"Ġmarath":10733,"Ġdevot":10734,"Ã¶r":10735,"imony":10736,"Ġconced":10737,"Ġtrap":10738,"Ġflown":10739,"Ġmissile":10740,"Ġorchestral":10741,"Ġhass":10742,"issioned":10743,"Ġcondemned":10744,"Ġprinceton":10745,"Ġcorresponding":10746,"Ġdennis":10747,"ĠËĪ":10748,"Ġeman":10749,"Ġfloren":10750,"Ġwidow":10751,"leted":10752,"Ġaria":10753,"acular":10754,"Ġisab":10755,"Ġepit":10756,"Ġrotation":10757,"Ġmigration":10758,"Ġsailors":10759,"Ġmckinley":10760,"Ġstair":10761,"Ġmoist":10762,"Ġphysically":10763,"Ġwalks":10764,"Ġatmospheric":10765,"Ġinver":10766,"Ġblamed":10767,"Ġcaf":10768,"Ġpride":10769,"Ġphyl":10770,"Ġtrem":10771,"Ġpurple":10772,"Ġmlb":10773,"eding":10774,"Ġfing":10775,"Ġhok":10776,"Ġbeau":10777,"aba":10778,"Ġdelight":10779,"Ġchallenging":10780,"inter":10781,"Ġceremonies":10782,"Ġsue":10783,"ugg":10784,"Ġdetected":10785,"Ġparticipating":10786,"Ġmouse":10787,"Ġnathan":10788,"Ġnasa":10789,"alt":10790,"Ġloaded":10791,"Ġbarcel":10792,"Ġtorpedoes":10793,"Ġconsciousness":10794,"Ġpreservation":10795,"Ġdisbanded":10796,"Ġslam":10797,"Ġknowing":10798,"Ġfinger":10799,"Ġmock":10800,"Ġnass":10801,"Ġflot":10802,"Ġretreated":10803,"Ġachievements":10804,"Ġmull":10805,"Ġgusts":10806,"Ġhubbard":10807,"rogen":10808,"Ġbutton":10809,"Ġ1884":10810,"Ġmessages":10811,"Ġcomposers":10812,"Ġfluor":10813,"Ġinstructions":10814,"Ġinhg":10815,"Ġassassination":10816,"Ġglasgow":10817,"izz":10818,"Ġflesh":10819,"Ġmontana":10820,"Ġsteadily":10821,"eter":10822,"Ġholland":10823,"Ġvariable":10824,"Ġdarker":10825,"Ġemerging":10826,"aja":10827,"Ġcomprehens":10828,"Ġsoci":10829,"Ġmaple":10830,"Ġcalculated":10831,"Ġcanucks":10832,"Ġdistinction":10833,"Ġants":10834,"usters":10835,"Ġdisabled":10836,"Ġ103":10837,"Ġsingers":10838,"Ġelectoral":10839,"rod":10840,"Ġrar":10841,"Ġmour":10842,"Ġconvey":10843,"Ġseeds":10844,"Ġadri":10845,"Ġconfig":10846,"Ġconvince":10847,"Ġrebounds":10848,"Ġvest":10849,"agers":10850,"Ġsummar":10851,"Ġbrings":10852,"Ġquit":10853,"Ġquoted":10854,"Ġendang":10855,"Ġpostp":10856,"Ġpilgr":10857,"Ġopinions":10858,"Ġsongwriting":10859,"mill":10860,"omon":10861,"Ġwhales":10862,"Ġfinest":10863,"Ġposter":10864,"Ġvenues":10865,"Ġreserves":10866,"Ġmysterious":10867,"Ġvegetation":10868,"sis":10869,"Ġintend":10870,"Ġneuro":10871,"Ġagencies":10872,"iens":10873,"ËĲ":10874,"Ġtril":10875,"Ġherbert":10876,"Ġexamined":10877,"Ġcooperation":10878,"Ġsolely":10879,"Ġphillies":10880,"Ġbelle":10881,"Ġnaturally":10882,"ettes":10883,"Ġwalked":10884,"Ġprinting":10885,"Ġcommitment":10886,"Ġgraphic":10887,"Ġpocket":10888,"Ġgig":10889,"Ġfavored":10890,"Ġceltic":10891,"Ġtheodore":10892,"Ġsmackdown":10893,"oi":10894,"Ġsod":10895,"Ġbce":10896,"lem":10897,"aku":10898,"Ġmodest":10899,"Ġtintin":10900,"Ġhein":10901,"Ġindirect":10902,"Ġrenaissance":10903,"Ġcope":10904,"Ġconducting":10905,"Ġeligible":10906,"dam":10907,"rac":10908,"Ġremake":10909,"Ġradius":10910,"Ġisles":10911,"ishops":10912,"Ġwestminster":10913,"Ġaustro":10914,"Ġeverybody":10915,"Ġmotif":10916,"Ġpriority":10917,"Ġpoe":10918,"lla":10919,"Ġbark":10920,"Ġscreens":10921,"Ġ1877":10922,"onso":10923,"Ġgast":10924,"agg":10925,"Ġharsh":10926,"Ġgenesis":10927,"Ġ138":10928,"Ġauthen":10929,"Ġawareness":10930,"Ġaids":10931,"itals":10932,"abad":10933,"Ġlibert":10934,"Ġcurved":10935,"Ġtheaters":10936,"Ġtaxonomy":10937,"Ġmarqu":10938,"Ġdepot":10939,"Ġlogo":10940,"Ġextraordin":10941,"Ġvolcano":10942,"Ġmercedes":10943,"arus":10944,"Ġpray":10945,"Ġdemographic":10946,"Ġhomosexual":10947,"isations":10948,"arded":10949,"Ġdecisive":10950,"Ġtracking":10951,"Ġdenver":10952,"Ġconsideration":10953,"Ġfragments":10954,"ĠÐ":10955,"Ġposthum":10956,"Ġpenal":10957,"Ġ1876":10958,"Ġnem":10959,"Ġ122":10960,"Ġfarms":10961,"Ġrounded":10962,"Ġessay":10963,"Ġspectrum":10964,"Ġphon":10965,"Ġlegion":10966,"Ġmanning":10967,"Ġmanuel":10968,"Ġ230":10969,"Ġcomparing":10970,"Ġnewfound":10971,"Ġ116":10972,"Ġglou":10973,"Ġelementary":10974,"Ġprompting":10975,"Ġunoff":10976,"Ġemig":10977,"Ġthemed":10978,"Ġperformers":10979,"Ġafterward":10980,"Ġalbany":10981,"Ġheavier":10982,"iors":10983,"Ġconsens":10984,"Ġvern":10985,"Ġtemples":10986,"Ġcontrad":10987,"Ġaccomplished":10988,"iev":10989,"Ġpercy":10990,"Ġplayable":10991,"Ġangles":10992,"Ġfault":10993,"Ġprivile":10994,"Ġronald":10995,"gary":10996,"Ġlut":10997,"Ġdeer":10998,"Ġ129":10999,"Ġexpectations":11000,"Ġandr":11001,"Ġlaz":11002,"Ġtourists":11003,"Ġconnects":11004,"Ġsearching":11005,"Ġshopping":11006,"Ġdynamic":11007,"add":11008,"Ġjin":11009,"Ġbulgarian":11010,"Ġvirtual":11011,"asia":11012,"roc":11013,"Ġ134":11014,"Ġagrees":11015,"Ġukrain":11016,"umbered":11017,"Ġnok":11018,"oming":11019,"Ġcommons":11020,"Ġnationalist":11021,"Ġrefuses":11022,"Ġpsychological":11023,"Ġconsequences":11024,"Ġmunicipality":11025,"Ä«":11026,"atisf":11027,"Ġconfer":11028,"Ġproclaimed":11029,"Ġrouting":11030,"izers":11031,"Ġgraves":11032,"Ġsignals":11033,"Ġlistening":11034,"Ġpossessed":11035,"Ġcommentators":11036,"Ġcubic":11037,"Ġsurprising":11038,"Ġsans":11039,"Ġnig":11040,"Ġcomprising":11041,"Ġdrake":11042,"Ġpatro":11043,"Ġottawa":11044,"Ġcarlos":11045,"á»ĩ":11046,"Ġensemble":11047,"Ġcong":11048,"Ġbutler":11049,"Ġnevada":11050,"acc":11051,"Ġstom":11052,"Ġrosen":11053,"Ġopined":11054,"Ġbanksia":11055,"Ġrefugees":11056,"Ġencompass":11057,"Ġlikewise":11058,"Ġintelligent":11059,"Ġsensitive":11060,"Ġharvest":11061,"Ġdiscipline":11062,"Ġprocedure":11063,"Ġsergeant":11064,"olan":11065,"Ġjoke":11066,"Ġyd":11067,"Ġabra":11068,"Ġdescript":11069,"Ġdiscour":11070,"Ġpioneer":11071,"Ġfrigate":11072,"Ġrational":11073,"ennial":11074,"Ġwidth":11075,"Ġmichaels":11076,"ĠpokÃ©mon":11077,"Ġpla":11078,"Ġmilan":11079,"Ġkilometers":11080,"Ġbarcelona":11081,"Ġoutcome":11082,"Ġdepiction":11083,"Ġinsuff":11084,"Ġpayment":11085,"Ġladies":11086,"Ġsaga":11087,"istical":11088,"Ġphosph":11089,"Ġexercises":11090,"Ġguit":11091,"Ġproperly":11092,"Ġcelebrity":11093,"Ġ1830":11094,"Ġdeposits":11095,"chy":11096,"Ġtransformed":11097,"Ġtwe":11098,"Ġgrim":11099,"Ġchiefs":11100,"Ġexecutives":11101,"Ġ1875":11102,"Ġemotions":11103,"Ġreluctant":11104,"atar":11105,"Ġenix":11106,"Ġcolin":11107,"atty":11108,"anka":11109,"Ġstrings":11110,"Ġkeyboard":11111,"Ġadjust":11112,"Ġdeliberately":11113,"Ġchal":11114,"Ġlandmark":11115,"Ġweakness":11116,"Ġdialect":11117,"Ġsteady":11118,"Ġroutine":11119,"star":11120,"ulates":11121,"Ġbarracks":11122,"Ġcomplimented":11123,"Ġgauge":11124,"Ġpermit":11125,"Ġformations":11126,"Ġunderwater":11127,"Ġmetals":11128,"Ġfabric":11129,"Ġjets":11130,"Ġchurchill":11131,"Ġceo":11132,"Ġbowled":11133,"Ġcontribute":11134,"Ġlatest":11135,"Ġextends":11136,"Ġmast":11137,"Ġtool":11138,"Ġecl":11139,"Ġherb":11140,"Ġfarming":11141,"Ġprocessing":11142,"Ġinex":11143,"Ġraymond":11144,"Ġchip":11145,"Ġvaries":11146,"Ġ1883":11147,"Ġromanian":11148,"Ġunanim":11149,"icking":11150,"Ġcomplement":11151,"Ġtribut":11152,"Ġphotos":11153,"Ġfears":11154,"Ġenlar":11155,"Ġloyalty":11156,"amation":11157,"Ġalam":11158,"rians":11159,"Ġmiddles":11160,"Ġphilosoph":11161,"etary":11162,"Ġspite":11163,"Ġemma":11164,"Ġestimate":11165,"Ġgathering":11166,"reen":11167,"Ġmisc":11168,"Ġgem":11169,"Ġgale":11170,"ighed":11171,"Ġalumn":11172,"umi":11173,"Ġproud":11174,"Ġaccus":11175,"Ġcontributing":11176,"Ġcontempor":11177,"Ġguitars":11178,"Ġonwards":11179,"Ġsting":11180,"Ġchains":11181,"Ġpoles":11182,"Ġmillions":11183,"Ġcollecting":11184,"Ġsilence":11185,"Ġberm":11186,"Ġparalymp":11187,"Ġfile":11188,"chw":11189,"Ġanger":11190,"Ġ1881":11191,"Ġroller":11192,"ampa":11193,"Ġcomplaints":11194,"Ġdiseases":11195,"Ġinstrumentation":11196,"herent":11197,"oric":11198,"Ġblair":11199,"Ġlemurs":11200,"Ġdome":11201,"Ġstaged":11202,"lake":11203,"Ġinput":11204,"Ġfunk":11205,"Ġrichardson":11206,"Ġcoffee":11207,"ĠâĻ":11208,"appa":11209,"Ġvocalist":11210,"Ġsul":11211,"Ġrevealing":11212,"Ġconsistently":11213,"Ġexpressway":11214,"cot":11215,"Ġunaware":11216,"Ġblog":11217,"Ġvenice":11218,"Ġlocomotive":11219,"Ġpix":11220,"Ġdop":11221,"Ġstabil":11222,"eta":11223,"Ġusher":11224,"Ġassets":11225,"Ġrent":11226,"Ġlancash":11227,"Ġphenomenon":11228,"Ġchen":11229,"Ġjamaica":11230,"aun":11231,"kar":11232,"Ġclause":11233,"Ġpowell":11234,"Ġbeds":11235,"Ġsymbols":11236,"yers":11237,"Ġpermanently":11238,"Ġbelonging":11239,"Ġrag":11240,"Ġrays":11241,"Ġ1869":11242,"Ġsandy":11243,"Ġduncan":11244,"Ġadvisory":11245,"Ġnervous":11246,"dan":11247,"Ġlamp":11248,"anted":11249,"Ġ151":11250,"Ġcalgary":11251,"Ġcameo":11252,"Ġlancashire":11253,"ema":11254,"Ġdamaging":11255,"Ġimproving":11256,"Ġferdin":11257,"Ġbever":11258,"actic":11259,"Ġmonk":11260,"Ġ128":11261,"Ġenvironments":11262,"Ġstaying":11263,"Ġpont":11264,"Ġpreventing":11265,"Ġeruption":11266,"assic":11267,"Ġhenderson":11268,"iper":11269,"atern":11270,"Ġradi":11271,"Ġ1866":11272,"Ġdisputed":11273,"Ġjumping":11274,"Ġtelescope":11275,"Ġfloyd":11276,"iki":11277,"Ġpolitically":11278,"Ġacceptance":11279,"Ġpowder":11280,"Ġhypothesis":11281,"iar":11282,"Ġbend":11283,"Ġchlor":11284,"Ġchapters":11285,"Ġhabitats":11286,"Ġpercussion":11287,"Ġmidway":11288,"Ġlessons":11289,"Ġwanting":11290,"Ġfaction":11291,"Ġrequirement":11292,"Ġsixty":11293,"Ġswitched":11294,"Ġinteractions":11295,"Ġng":11296,"Ġcolleges":11297,"Ġdetachment":11298,"Ġwitnessed":11299,"Ġerupt":11300,"Ġreferee":11301,"Ġretrieved":11302,"adows":11303,"riages":11304,"Ġfrances":11305,"Ġcarved":11306,"Ġcostumes":11307,"Ġfantastic":11308,"Ġobjectives":11309,"Ġblockade":11310,"Ġconsensus":11311,"Ġanx":11312,"Ġgenera":11313,"Ġargue":11314,"Ġceiling":11315,"Ġdispatched":11316,"Ġrodrig":11317,"Ġpleasure":11318,"Ġbacteria":11319,"Ġtrinity":11320,"Ġreson":11321,"Ġangels":11322,"Ġencourage":11323,"Ġpublishers":11324,"Ġcrawford":11325,"yll":11326,"omed":11327,"Ġwheat":11328,"Ġellen":11329,"Ġredevelop":11330,"Ġcircles":11331,"Ġderby":11332,"Ġ750":11333,"Ġsyndrome":11334,"Ġunrel":11335,"Ġactively":11336,"Ġtradem":11337,"Ġlengths":11338,"Ġadaptations":11339,"Ġimmigrants":11340,"Ġdimensional":11341,"Ġfraud":11342,"bus":11343,"cu":11344,"hening":11345,"stown":11346,"Ġeccles":11347,"Ġfart":11348,"Ġgrants":11349,"Ġunsuccessfully":11350,"Ġleicester":11351,"zig":11352,"alia":11353,"Ġling":11354,"rium":11355,"Ġrenown":11356,"brien":11357,"Ġeb":11358,"Ġstir":11359,"Ġaccol":11360,"Ġ124":11361,"Ġdestiny":11362,"Ġhomeless":11363,"Ġbelonged":11364,"Ġjudgment":11365,"Ġwer":11366,"Ġchannels":11367,"Ġabundant":11368,"Ġally":11369,"Ġconvert":11370,"Ġhemisp":11371,"Ġreop":11372,"Ġana":11373,"Ġveronica":11374,"Ġburger":11375,"Ġsuffer":11376,"Ġsag":11377,"iang":11378,"Ġallegations":11379,"Ġfischer":11380,"Ġtucker":11381,"Ġdot":11382,"Ġnak":11383,"omys":11384,"Ġglory":11385,"Ġdigit":11386,"Ġpalestine":11387,"enues":11388,"Ġmbar":11389,"Ġtasks":11390,"Ġdistinguish":11391,"Ġteenage":11392,"Ġdudley":11393,"Ġoverd":11394,"Ġplanes":11395,"Ġintroduce":11396,"Ġnicknamed":11397,"Ġparamount":11398,"Ġpatrols":11399,"Ġ1882":11400,"ijing":11401,"Ġeldest":11402,"Ġdiary":11403,"Ġexplosive":11404,"Ġadvocate":11405,"Ġcylinder":11406,"Ġoutdoor":11407,"Ġlava":11408,"istle":11409,"assed":11410,"Ġdesired":11411,"Ġ1871":11412,"Ġ1873":11413,"Ġloves":11414,"Ġunusually":11415,"Ġforgot":11416,"Ġlandings":11417,"Ġthoughts":11418,"Ġfreshman":11419,"Ġnaked":11420,"abl":11421,"Ġcontrary":11422,"Ġcrucial":11423,"Ġsubmerged":11424,"Ġincl":11425,"Ġbeast":11426,"Ġdistr":11427,"boat":11428,"Ġproceedings":11429,"Ġinnocent":11430,"fin":11431,"avian":11432,"Ġsurpassed":11433,"Ġflanders":11434,"Ġeg":11435,"Ġald":11436,"Ġperpet":11437,"Ġkepler":11438,"rington":11439,"Ġbachel":11440,"Ġ1867":11441,"Ġmachinery":11442,"Ġsubordin":11443,"Ġinstruction":11444,"Ġshipped":11445,"Ġexport":11446,"Ġadvocated":11447,"Ġwelcome":11448,"Ġcric":11449,"Ġtruman":11450,"Ġclif":11451,"Ġadequ":11452,"Ġfever":11453,"Ġaristocr":11454,"Ġviv":11455,"Ġchet":11456,"Ġfestivals":11457,"Ġoverwhelming":11458,"Ġdemocracy":11459,"Ġnineteenth":11460,"Ãł":11461,"Ġproc":11462,"Ġunity":11463,"Ġrepet":11464,"Ġcongregation":11465,"Ġtrench":11466,"Ġmott":11467,"Ġspores":11468,"Ġreviewing":11469,"Ġhorsepower":11470,"Ġhorns":11471,"Ġnests":11472,"mother":11473,"ulture":11474,"Ġsau":11475,"Ġdiving":11476,"Ġ1878":11477,"eon":11478,"inth":11479,"Ġ137":11480,"Ġstorylines":11481,"Ġcustoms":11482,"Ġetc":11483,"Ã¨re":11484,"Ġbiz":11485,"Ġhil":11486,"Ġadela":11487,"Ġintim":11488,"Ġstrat":11489,"Ġwatson":11490,"Ġmalay":11491,"Ġmanufactured":11492,"waffe":11493,"Ġtil":11494,"Ġ202":11495,"Ġfringe":11496,"Ġmosque":11497,"Ġtriangle":11498,"Ġvampire":11499,"fs":11500,"Ġbeijing":11501,"Ġitunes":11502,"Ġexplored":11503,"Ġhunters":11504,"Ġvariant":11505,"Ġnobel":11506,"Ġmacdonald":11507,"Ġeleventh":11508,"Ġendangered":11509,"Ġauthentic":11510,"erm":11511,"Ġfount":11512,"Ġiw":11513,"Ġboot":11514,"Ġvlad":11515,"Ġmccarthy":11516,"Ġverd":11517,"Ġcomprised":11518,"Ġunveiled":11519,"zi":11520,"inqu":11521,"Ġspeculated":11522,"Ġaveraged":11523,"Ġgibson":11524,"bach":11525,"ystem":11526,"Ġdorm":11527,"Ġthorn":11528,"olith":11529,"Ġnewman":11530,"chel":11531,"Ġferg":11532,"Ġlp":11533,"Ġune":11534,"Ġzones":11535,"Ġindex":11536,"Ġeconomics":11537,"Ġspectators":11538,"Ġturbines":11539,"Ġkem":11540,"Ġquint":11541,"Ġgeography":11542,"Ġbigger":11543,"Ġresemble":11544,"Ġwolver":11545,"Ġcurrency":11546,"Ġnh":11547,"Ġliterally":11548,"utely":11549,"Ġrams":11550,"Ġundertook":11551,"Ġcriter":11552,"ipping":11553,"Ġpounder":11554,"Ġshirt":11555,"Ġdere":11556,"Ġtrump":11557,"Ġgrain":11558,"Ġguadal":11559,"Ġtrips":11560,"heads":11561,"Ġplatoon":11562,"Ġdissolved":11563,"Ġholl":11564,"Ġlil":11565,"opol":11566,"Ġdefenses":11567,"Ġfairy":11568,"Ġraven":11569,"Ġmeyer":11570,"Ġhorizontal":11571,"Ġsara":11572,"Ġrah":11573,"Ġrelating":11574,"Ġdamages":11575,"Ġcoastline":11576,"Ġfights":11577,"Ġlengthy":11578,"Ġprostit":11579,"Ġtrigger":11580,"Ġlone":11581,"Ġrushed":11582,"ums":11583,"Ġineff":11584,"Ġmick":11585,"Ġensu":11586,"Ġinterviewed":11587,"Ġchaos":11588,"Ġaaron":11589,"Ġaston":11590,"Ġstripped":11591,"Ġdiscussions":11592,"Ġborne":11593,"Ġathlete":11594,"Ġmetacritic":11595,"pit":11596,"Ġluther":11597,"stad":11598,"Ġanonymous":11599,"Ġshan":11600,"Ġeditorial":11601,"yright":11602,"Ġenormous":11603,"Ġank":11604,"Ġoral":11605,"Ġmanages":11606,"Ġovercome":11607,"Ġcopyright":11608,"Ġinstallation":11609,"Ġbaptist":11610,"Ġguarant":11611,"Ġensuing":11612,"Ġbout":11613,"alid":11614,"keep":11615,"Ġwellington":11616,"Ġhonest":11617,"otypes":11618,"Ġlemur":11619,"Ġstroke":11620,"oning":11621,"employ":11622,"Ġouts":11623,"Ġadds":11624,"Ġcoral":11625,"Ġswamp":11626,"Ġadmiralty":11627,"Ġwander":11628,"Ġchi":11629,"Ġlaf":11630,"Ġextinction":11631,"Ġmerchand":11632,"Ġmonuments":11633,"Ġluftwaffe":11634,"Ġbermuda":11635,"Ġfusion":11636,"Ġming":11637,"ographed":11638,"Ġsilk":11639,"Ġmaneuver":11640,"Ġwishes":11641,"Ġbankrupt":11642,"Ġshelley":11643,"Ġintact":11644,"Ġrelied":11645,"Ġlynch":11646,"Ġmonroe":11647,"Ġrelay":11648,"Ġsoccer":11649,"Ġdestination":11650,"jections":11651,"Ġtrilogy":11652,"Ãª":11653,"asaki":11654,"occ":11655,"Ġbrew":11656,"Ġqualities":11657,"Ġaguil":11658,"Ġleather":11659,"Ġengaging":11660,"Ġawa":11661,"Ġmistake":11662,"Ġalert":11663,"through":11664,"Ġadrian":11665,"Ġmarx":11666,"Ġcultures":11667,"Ġbattlecruisers":11668,"cock":11669,"Ġdeals":11670,"Ġadvances":11671,"Ġ1872":11672,"Ġfluid":11673,"igo":11674,"Ġjail":11675,"Ġrevived":11676,"Ġselena":11677,"Ġotto":11678,"Ġgains":11679,"overed":11680,"Ġ1868":11681,"Ġproceeds":11682,"Ġaguilera":11683,"hand":11684,"enz":11685,"Ġlifted":11686,"Ġinsufficient":11687,"ovsky":11688,"Ġflee":11689,"appy":11690,"Ġnegle":11691,"Ġphotographer":11692,"Ġnomine":11693,"Ġcere":11694,"ichi":11695,"Ġcurtis":11696,"Ġcoronation":11697,"Ġweighed":11698,"monton":11699,"Ġgrossed":11700,"Ġinstructed":11701,"Ġsummary":11702,"Ġfeminist":11703,"Ġreminiscent":11704,"Ġtin":11705,"Ġunemploy":11706,"Ġellis":11707,"Ġsuccessive":11708,"Ġsoviets":11709,"Ġaus":11710,"imer":11711,"oves":11712,"Ġbishops":11713,"gener":11714,"Ġfunctional":11715,"Ġrapper":11716,"Ġaliens":11717,"Ġbatsman":11718,"Ġincomple":11719,"Ġchandler":11720,"lia":11721,"Ġwise":11722,"Ġamp":11723,"Ġdisgu":11724,"Ġcres":11725,"Ġasp":11726,"Ġphant":11727,"Ġglam":11728,"Ġenrolled":11729,"Ġdakota":11730,"Ġdeeper":11731,"Ġleigh":11732,"Ġarctic":11733,"Ġscreening":11734,"Ġintersections":11735,"Ġmerchants":11736,"Ġpengu":11737,"Ġdart":11738,"Ġundergrad":11739,"Ġappealed":11740,"Ġtermed":11741,"Ġmasses":11742,"Ġdealt":11743,"Ġmaxwell":11744,"Ġgrammar":11745,"Ġkay":11746,"Ġbread":11747,"Ġgamespot":11748,"Ġdisputes":11749,"Ġrumors":11750,"Ġphillips":11751,"Ġinterference":11752,"Ġslower":11753,"hend":11754,"Ġhond":11755,"Ġranch":11756,"Ġsuited":11757,"Ġnewport":11758,"ubs":11759,"origin":11760,"Ġchin":11761,"Ġtrace":11762,"keley":11763,"kas":11764,"Ġmann":11765,"neath":11766,"Ġquantities":11767,"Ġwald":11768,"Ġraz":11769,"bery":11770,"ocy":11771,"Ġbusy":11772,"Ġinvestigations":11773,"Ġadelaide":11774,"Ġhanc":11775,"Ġriff":11776,"Ġarbit":11777,"Ġdisrupt":11778,"Ġassign":11779,"Ġsymmet":11780,"Ġprivately":11781,"Ġgorge":11782,"Ġbarely":11783,"Ġdad":11784,"Ġriley":11785,"Ġseparately":11786,"Ġanalog":11787,"Ġras":11788,"Ġjoins":11789,"Ġpackage":11790,"Ġgeoffrey":11791,"Ġwwf":11792,"Ġretros":11793,"Ġ123":11794,"Ġinsist":11795,"Ġcurves":11796,"Ġfloating":11797,"Ġinquiry":11798,"Ġferdinand":11799,"Ġsier":11800,"Ġbik":11801,"Ġgle":11802,"Ġitem":11803,"obile":11804,"Ġpanels":11805,"Ġexhibited":11806,"ptic":11807,"Ġpersec":11808,"Ġblake":11809,"Ġblank":11810,"Ġsurrey":11811,"nae":11812,"Ġbarrett":11813,"Ġimported":11814,"olo":11815,"Ġshoo":11816,"Ġconting":11817,"Ġessex":11818,"Ġrealm":11819,"Ġecology":11820,"Ġrulers":11821,"Ġabraham":11822,"rect":11823,"Ġconform":11824,"alling":11825,"Ġcoaster":11826,"Ġsubsc":11827,"Ġdecomp":11828,"ologically":11829,"Ġpatch":11830,"gon":11831,"Ġunrest":11832,"Ġthickness":11833,"Ġmobil":11834,"Ġcylind":11835,"Ġdisliked":11836,"Ġspencer":11837,"Ġdeveloper":11838,"Ġdelays":11839,"Ġinvolve":11840,"Ġcasino":11841,"aurus":11842,"Ġcustody":11843,"Ġlicensed":11844,"Ġnobody":11845,"inus":11846,"Ġexpense":11847,"Ġmagical":11848,"Ġmadrid":11849,"Ġdeployment":11850,"Ġtherapy":11851,"Ġplymouth":11852,"rs":11853,"eries":11854,"Ġsupporter":11855,"Ġrefit":11856,"Ġromans":11857,"Ġdunge":11858,"Ġanthrop":11859,"Ġredesign":11860,"vent":11861,"Ġrobot":11862,"Ġmolecules":11863,"Ġplutonium":11864,"Ġwarrant":11865,"eches":11866,"Ġballet":11867,"Ġpuzz":11868,"Ġmaybe":11869,"Ġdeton":11870,"Ġtribal":11871,"Ġmathematical":11872,"Ġproximity":11873,"odon":11874,"Ġwrestle":11875,"Ġblend":11876,"bt":11877,"Ġump":11878,"Ġgenius":11879,"issa":11880,"Ġcaliber":11881,"writer":11882,"Ġpavil":11883,"Ġstark":11884,"Ġkes":11885,"Ġkub":11886,"Ġplastic":11887,"Ġadmit":11888,"Ġescal":11889,"Ġcardinal":11890,"Ġnico":11891,"Ġpled":11892,"Ġunderneath":11893,"Ġoperator":11894,"Ġexperts":11895,"Ġcontested":11896,"Ġpedest":11897,"Ġmarcus":11898,"list":11899,"Ġwashed":11900,"Ġalk":11901,"Ġcomet":11902,"Ġsecular":11903,"Ġpresum":11904,"Ġrockets":11905,"Ġdescendants":11906,"pic":11907,"utors":11908,"Ġria":11909,"Ġrepaired":11910,"Ġcaptivity":11911,"Ġassociates":11912,"Ġcollision":11913,"Ġbosnia":11914,"Ġltd":11915,"Ġfergus":11916,"front":11917,"uits":11918,"urg":11919,"Ġcoloured":11920,"Ġmonks":11921,"Ġprotecting":11922,"Ġacquisition":11923,"Ġdaniels":11924,"Ġautomatic":11925,"Ġmvp":11926,"Ġfog":11927,"urd":11928,"Ġinterrupted":11929,"Ġmyst":11930,"Ġprojected":11931,"Ġmotors":11932,"Ġcease":11933,"kinson":11934,"Ġfloors":11935,"Ġexcessive":11936,"Ġhancock":11937,"Ġcec":11938,"Ġfm":11939,"Ġcalm":11940,"Ġlimestone":11941,"Ġfloods":11942,"Ġcrom":11943,"iri":11944,"Ġbengal":11945,"ĠâĢ²":11946,"Ġoval":11947,"aching":11948,"opsis":11949,"Ġflorence":11950,"Ġallocated":11951,"Ġthrust":11952,"Ġful":11953,"Ġneo":11954,"Ġkeeps":11955,"Ġpronounced":11956,"Î½":11957,"acon":11958,"Ġmaiden":11959,"Ġtotally":11960,"Ġruins":11961,"Ġseemingly":11962,"Ġcomparable":11963,"Ġlunar":11964,"Ġnl":11965,"Ġnorse":11966,"Ġinvented":11967,"Ġtunnels":11968,"Ġrestaurants":11969,"Ġdelegation":11970,"Ġbaldwin":11971,"nut":11972,"Ġedmonton":11973,"Ġjeremy":11974,"Ġsurvivor":11975,"Ġá":11976,"Ġporter":11977,"Ġstrang":11978,"Ġimmun":11979,"Ġmoor":11980,"Ġarkansas":11981,"Ġflotilla":11982,"athetic":11983,"ĠhergÃ©":11984,"Ġvienna":11985,"Ġacquire":11986,"Ġreflecting":11987,"ÏĤ":11988,"Ġhect":11989,"Ġpreston":11990,"grade":11991,"Ġromania":11992,"Ġjennifer":11993,"dot":11994,"xide":11995,"Ġdomain":11996,"Ġdemanding":11997,"inte":11998,"icity":11999,"Ġunst":12000,"Ġfatalities":12001,"Ġchicken":12002,"Ġleban":12003,"Ġundergo":12004,"Ġgarc":12005,"Ġarchitects":12006,"Ġevolutionary":12007,"Ġextraordinary":12008,"bel":12009,"immer":12010,"osity":12011,"aceous":12012,"Ġgenes":12013,"Ġsubtle":12014,"Ġtransp":12015,"Ġmcdonald":12016,"Ġclimbing":12017,"Ġdisappear":12018,"Ġlobby":12019,"wig":12020,"Ġforts":12021,"imir":12022,"Ġtwelf":12023,"Ġpublish":12024,"Ġpopulated":12025,"Ġmodifications":12026,"Ġcrust":12027,"Ġtwelfth":12028,"Ġsne":12029,"Ġshops":12030,"ishn":12031,"Ġ1879":12032,"Ġimmigration":12033,"ido":12034,"Ġbyr":12035,"Ġyu":12036,"Ġpend":12037,"Ġnun":12038,"Ġmuscle":12039,"Ġstruggling":12040,"Ġbitter":12041,"guard":12042,"Ġneighbouring":12043,"Ġai":12044,"Ġcree":12045,"stration":12046,"Ġyok":12047,"Ġquart":12048,"Ġlifestyle":12049,"Ġfierce":12050,"Ġlesbian":12051,"anor":12052,"asi":12053,"Ġinteractive":12054,"Ġsuburb":12055,"Ġgenerations":12056,"Ġsavage":12057,"Ġcrowned":12058,"Ġscrapped":12059,"Ġdiscontinued":12060,"Ġshank":12061,"Ġminogue":12062,"Ġembassy":12063,"Ġdemonstration":12064,"Ġpaved":12065,"Ġlithuan":12066,"Ġaccomplish":12067,"Ġmerit":12068,"Ġmccain":12069,"Ġunfortun":12070,"Ġauction":12071,"Ġminer":12072,"Ġdemonstrate":12073,"Ġskinner":12074,"Ġseventeen":12075,"Ġelephant":12076,"Ġhate":12077,"Ġarcher":12078,"Ġbowie":12079,"Ġgarage":12080,"Ġnost":12081,"Ġreyn":12082,"irts":12083,"abet":12084,"Ġdescended":12085,"Ġsketch":12086,"Ġenforcement":12087,"urbed":12088,"Ġchan":12089,"Ġjanet":12090,"Ġhawk":12091,"Ġspeakers":12092,"Ġbesie":12093,"Ġhawaiian":12094,"Ġdirty":12095,"Ġvander":12096,"Ġworried":12097,"Ġperth":12098,"Ġregained":12099,"Ġoperas":12100,"Ġhalted":12101,"Ġpierce":12102,"Ġadministered":12103,"ourt":12104,"Ġsuburban":12105,"Ġclerk":12106,"Ġcompact":12107,"Ġattachment":12108,"Ġdeclaring":12109,"Ġsubstance":12110,"Ġupgrade":12111,"Ġrewrit":12112,"Ġcreates":12113,"Ġ141":12114,"Ġlancaster":12115,"Ġpregnancy":12116,"Ġmodes":12117,"Ġopenly":12118,"Ġbanner":12119,"Ġtables":12120,"anto":12121,"Ġartif":12122,"Ġcontracted":12123,"Ġmonarchy":12124,"Ġnewfoundland":12125,"Ġbalk":12126,"Ġshack":12127,"Ġscenario":12128,"Ġpagan":12129,"Ġwoodland":12130,"Ġridic":12131,"Ġelderly":12132,"gins":12133,"Ð°":12134,"Ġtraged":12135,"Ġbackup":12136,"Ġstreams":12137,"Ġturks":12138,"Ġopted":12139,"eli":12140,"Ġbiology":12141,"Ġambitious":12142,"Ġwonderful":12143,"Ġdiesel":12144,"Ġjokes":12145,"entric":12146,"eling":12147,"Ġkom":12148,"Ġantiqu":12149,"Ġcaution":12150,"Ġgonz":12151,"Ġconfess":12152,"Ġluck":12153,"Ġampl":12154,"Ġdrunk":12155,"Ġtorch":12156,"Ġerrors":12157,"Ġpist":12158,"Ġmath":12159,"Ġdivide":12160,"Ġscouts":12161,"Ġprohibited":12162,"Ġog":12163,"Ġdecomm":12164,"Ġerosion":12165,"Ġmotorway":12166,"Ġgriffin":12167,"Ġcricke":12168,"Ġjg":12169,"Ġjungle":12170,"atorial":12171,"Ġhoff":12172,"Ġlogan":12173,"Ġnecessarily":12174,"Ġthroat":12175,"Ġpyramid":12176,"Ġcalend":12177,"umar":12178,"Ġfindings":12179,"Ġ270":12180,"Ġaggregate":12181,"Ġbuddhist":12182,"enson":12183,"Ġspecialized":12184,"Ġnorthwestward":12185,"Ġ146":12186,"Ġironcl":12187,"natural":12188,"Ġfool":12189,"Ġchances":12190,"Ġroth":12191,"Ġlease":12192,"Ġfilter":12193,"Ġdetached":12194,"Ġmerger":12195,"Ġcaroline":12196,"Ġdio":12197,"lew":12198,"Ġrode":12199,"Ġcontents":12200,"Ġinvitation":12201,"Ġsocieties":12202,"Ġfreight":12203,"Ġidentification":12204,"Ġlacks":12205,"Ġmemorable":12206,"Ġsierra":12207,"Ġcig":12208,"Ġkle":12209,"Ġarrow":12210,"Ġsphere":12211,"Ġassa":12212,"Ġlouise":12213,"Ġbj":12214,"Ġteammates":12215,"Ġcheer":12216,"Ġpalmer":12217,"Ġstrengthening":12218,"50":12219,"anus":12220,"Ġgut":12221,"Ġtrout":12222,"lessly":12223,"Ġanatomy":12224,"Ġdraws":12225,"Ġnashville":12226,"Ġcomprehensive":12227,"Ġretro":12228,"Ġrunners":12229,"Ġcollector":12230,"Ġbachelor":12231,"gel":12232,"pro":12233,"Ġkra":12234,"Ġkens":12235,"Ġmetab":12236,"Ġharper":12237,"Ġliberation":12238,"Ġses":12239,"Ġtopic":12240,"Ġrecognize":12241,"Ġlayout":12242,"Ġfragment":12243,"how":12244,"atem":12245,"Ġmold":12246,"Ġkas":12247,"Ġdeciding":12248,"Ġvalent":12249,"Ġremarkable":12250,"Ġwelf":12251,"Ġtran":12252,"Ġperm":12253,"Ġrunway":12254,"inae":12255,"Ġcorners":12256,"Ġmeasurements":12257,"Ġallegedly":12258,"Ġrut":12259,"Ġard":12260,"uba":12261,"Ġcentres":12262,"Ġcompensation":12263,"Ġjuvenile":12264,"Ġstuck":12265,"Ġjag":12266,"Ġ149":12267,"Ġintroducing":12268,"Ġconsumer":12269,"Ġspare":12270,"Ġswan":12271,"Ġcalvin":12272,"Ġhealthy":12273,"Ġriot":12274,"houses":12275,"bank":12276,"Ġemily":12277,"Ġmoz":12278,"Ġsurfaces":12279,"Ġbassist":12280,"Ġhab":12281,"Ġplug":12282,"Ġdefender":12283,"Ġdrowned":12284,"Ġstrait":12285,"Ġlegends":12286,"Ġdiagnosis":12287,"Ġobservers":12288,"core":12289,"hero":12290,"Ġfen":12291,"Ġfond":12292,"Ġmere":12293,"Ġvow":12294,"sl":12295,"Ã£o":12296,"Ġspeeches":12297,"Ġmoreover":12298,"Ġspecialist":12299,"Ġsuburbs":12300,"Ġincomplete":12301,"Ġhann":12302,"Ġkath":12303,"Ġmarble":12304,"Ġdevon":12305,"Ġsynth":12306,"Ġdoubles":12307,"Ġpus":12308,"Ġforget":12309,"Ġreserved":12310,"ormal":12311,"Ġbasement":12312,"Ġprogression":12313,"tan":12314,"Ġhiding":12315,"ovich":12316,"Ġedges":12317,"Ġgenerate":12318,"Ġloading":12319,"Ġbusch":12320,"Ġgarfield":12321,"Ġeliminate":12322,"Ġdiamonds":12323,"Ġmaurice":12324,"Ġrna":12325,"Ġconsent":12326,"Ġrealizes":12327,"Ġperfectly":12328,"Ġdrainage":12329,"Ġore":12330,"Ġdys":12331,"Ġease":12332,"Ġkot":12333,"Ġspark":12334,"Ġbrass":12335,"Ġcater":12336,"Ġ210":12337,"Ġsolutions":12338,"ficial":12339,"Ġattractive":12340,"Ġbred":12341,"Ġdh":12342,"Ġregulation":12343,"Ġproven":12344,"Ġunpre":12345,"Ġcomputers":12346,"Ġgrab":12347,"Ġslot":12348,"ao":12349,"Ġpushing":12350,"Ġsuperman":12351,"Ġ1848":12352,"Ġunpop":12353,"Ġclaire":12354,"Ġreversed":12355,"Ġconjunction":12356,"ripp":12357,"Ġsecuring":12358,"Ġsupervis":12359,"Ġwelfare":12360,"Ġgir":12361,"Ġberry":12362,"holm":12363,"Ġsufficiently":12364,"Ġcameras":12365,"Ġspongeb":12366,"Ġned":12367,"Ġhardware":12368,"Ġbio":12369,"Ġfuck":12370,"Ġdian":12371,"ayette":12372,"Ġoverth":12373,"Ġhelm":12374,"Ġ1874":12375,"Ġembarr":12376,"Ġtonight":12377,"Ġcatalog":12378,"Ġcure":12379,"Ġpian":12380,"Ġperimeter":12381,"Ġlocked":12382,"Ġpanama":12383,"Ġfranco":12384,"hd":12385,"Ġlingu":12386,"Ġcollective":12387,"Ġmuzzle":12388,"Ġsubdiv":12389,"urers":12390,"Ġairplay":12391,"Ġchoosing":12392,"Ġhospitals":12393,"birds":12394,"Ġdesperate":12395,"Ġhemisphere":12396,"ĠÂµ":12397,"oop":12398,"pow":12399,"Ġsop":12400,"atri":12401,"Ġirving":12402,"Ġfinnish":12403,"Ġholmes":12404,"Ġarabic":12405,"Ġdefinitely":12406,"ye":12407,"Ġwhites":12408,"Ġdegener":12409,"Ġrape":12410,"Ġstarr":12411,"Ġbuses":12412,"Ġplateau":12413,"brook":12414,"Ġcontend":12415,"Ġscales":12416,"Ġrifles":12417,"Ġaster":12418,"Ġevol":12419,"Ġinfected":12420,"Ġvolunt":12421,"Ġhanging":12422,"mm":12423,"Ġhod":12424,"ulus":12425,"Ġtract":12426,"erness":12427,"Ġbreakthrough":12428,"Ġgraduating":12429,"Ġwindsor":12430,"Ġmichelle":12431,"Ġix":12432,"Ġassessed":12433,"Ġ144":12434,"Ġeaster":12435,"Ġemphasized":12436,"Ġlindwall":12437,"Ġarmenia":12438,"elines":12439,"Ġspiel":12440,"Ġserbs":12441,"Ġcrack":12442,"Ġillustrations":12443,"Ġjacques":12444,"Ġrandy":12445,"Ġdimensions":12446,"Ġkang":12447,"Ġvect":12448,"quer":12449,"ovo":12450,"Ġguatem":12451,"Ġanywhere":12452,"Ġcalcul":12453,"Ġmissiles":12454,"Ġdoug":12455,"osphere":12456,"Ġglacier":12457,"Ġdow":12458,"Ġhale":12459,"Ġcompetitors":12460,"Ġdiagnosed":12461,"Ġnotion":12462,"achi":12463,"Ġincons":12464,"Ġcheap":12465,"Ġsolomon":12466,"Ġincorporates":12467,"Ġdinosaurs":12468,"Ġfrustrated":12469,"Ġlegitimate":12470,"Ġstalin":12471,"Ġburst":12472,"Ġkoreans":12473,"Ġcounteratt":12474,"Ġwounds":12475,"Ġorgans":12476,"Ġedwin":12477,"Ġelim":12478,"Ġputs":12479,"Ġcitizenship":12480,"Ġpupils":12481,"Ġberkeley":12482,"Ġpanic":12483,"Ġvariants":12484,"Ġmurders":12485,"oni":12486,"Ġmoss":12487,"ĠrÃ©":12488,"istically":12489,"Ġshipyard":12490,"Ġpromising":12491,"Ġstanford":12492,"Ġmonday":12493,"Ġauxili":12494,"ĠÅ¡":12495,"cker":12496,"Ġcoupled":12497,"Ġtiny":12498,"Ġwo":12499,"alous":12500,"Ġstunt":12501,"oline":12502,"agic":12503,"Ġlineup":12504,"12":12505,"person":12506,"Ġgerald":12507,"Ġpreval":12508,"Ġmercy":12509,"Ġluis":12510,"Ġbloody":12511,"post":12512,"qual":12513,"Ġmanual":12514,"Ġbreakdown":12515,"Ġcontrolling":12516,"Ġtreasure":12517,"Ġdrift":12518,"Ġaccolades":12519,"Ġwouldn":12520,"Ġpresley":12521,"Ġseasonal":12522,"Ġphysician":12523,"Ġranged":12524,"Ġsz":12525,"rez":12526,"Ġket":12527,"Ġsunder":12528,"Ġinvestigated":12529,"Ġtended":12530,"Ġsebast":12531,"Ġalc":12532,"Ġved":12533,"Ġmartha":12534,"Ġpreview":12535,"Ġflet":12536,"Ġappreciated":12537,"Ġcomfortable":12538,"Ġober":12539,"Ġconfined":12540,"Ġdelhi":12541,"Ġpatent":12542,"Ġreads":12543,"Ġcircus":12544,"Ġexciting":12545,"Ġunders":12546,"Ġcuban":12547,"Ġskeleton":12548,"Ġskiing":12549,"Ġchim":12550,"Ġnearest":12551,"Ġnorthbound":12552,"Ġdrives":12553,"Ġzel":12554,"Ġtestimony":12555,"Ġpressed":12556,"Ġsexually":12557,"Ġfrozen":12558,"Ġinhabited":12559,"Ġmonkey":12560,"Ġaugustus":12561,"Ġgrandson":12562,"Ġpainter":12563,"Ġemployee":12564,"Ġvacc":12565,"Ġdish":12566,"Ġsuite":12567,"Ġevangel":12568,"ailing":12569,"Ġassignment":12570,"Ġoccupy":12571,"Ġlaying":12572,"Ġharmony":12573,"Ġves":12574,"Ġcarriage":12575,"Ġredd":12576,"Ġstatute":12577,"Ġtravers":12578,"Ġrhodesia":12579,"Ġunofficial":12580,"Ġenable":12581,"Ġgover":12582,"Ġprofits":12583,"Ġqualify":12584,"Ġjennings":12585,"Ġcarpenter":12586,"Ġspongebob":12587,"Ġelimination":12588,"elia":12589,"Ġblond":12590,"Ġdesigners":12591,"Ġcarefully":12592,"Ġsatir":12593,"Ġreformed":12594,"Ġmaneuvers":12595,"Ġexhaust":12596,"Ġgenuine":12597,"Ġbulgaria":12598,"Ġcauc":12599,"Ġstance":12600,"Ġseiz":12601,"Ġaborigin":12602,"rosse":12603,"Ġduet":12604,"mitt":12605,"Ġmanagers":12606,"Ġboxing":12607,"matic":12608,"tes":12609,"cending":12610,"quet":12611,"Ġterrestrial":12612,"atsu":12613,"Ġecos":12614,"Ġ280":12615,"Ġtechnologies":12616,"Ġmaintains":12617,"Ġchapman":12618,"Ġ1851":12619,"Ġentertaining":12620,"yd":12621,"isle":12622,"Ġsuccesses":12623,"Ġtopics":12624,"Ġsummers":12625,"Ġblown":12626,"Ġenthusiastic":12627,"Ġgabriel":12628,"ulu":12629,"Ġglenn":12630,"Ġfacts":12631,"Ġmistaken":12632,"Ġfrost":12633,"Ġsleeping":12634,"Ġhazard":12635,"Ġabsolutely":12636,"Ġisotopes":12637,"do":12638,"Ġduches":12639,"Ġgav":12640,"Ġprose":12641,"ishi":12642,"Ġweird":12643,"Ġbasil":12644,"Ã¡r":12645,"Ġbism":12646,"Ġheter":12647,"Ġwaterline":12648,"Ġescapes":12649,"Ġprocedures":12650,"ocaust":12651,"Ġgoverning":12652,"Ġtat":12653,"Ġwash":12654,"raid":12655,"Ġdefeats":12656,"Ġhonored":12657,"Ġrepeat":12658,"Ġhayes":12659,"Ġenhance":12660,"ede":12661,"Ġmumb":12662,"Ġashes":12663,"Ġscope":12664,"Ġblade":12665,"Ġdepr":12666,"Ġdisappointment":12667,"umble":12668,"Ġmineral":12669,"Ġstepped":12670,"Ġdisco":12671,"Ġhopkins":12672,"Ġfitting":12673,"acement":12674,"Ġdinosaur":12675,"Ġaccuracy":12676,"Ġsophistic":12677,"Ġreferend":12678,"Ġneighboring":12679,"neum":12680,"Ġinscription":12681,"Ġreconcil":12682,"atoes":12683,"Ġdign":12684,"Ġedgar":12685,"Ġinspe":12686,"Ġprotective":12687,"ĠÎ¼":12688,"Ġeurop":12689,"Ġbree":12690,"omes":12691,"Ġbuzz":12692,"Ġregret":12693,"Ġanglic":12694,"Ġtraits":12695,"Ġprosecution":12696,"Ġnurse":12697,"stock":12698,"Ġperformer":12699,"Ġ148":12700,"Ġcivic":12701,"Ġmomentum":12702,"lies":12703,"Ġrises":12704,"Ġguided":12705,"Ġdemocrat":12706,"Ġfet":12707,"Ġgraduation":12708,"Ġnationally":12709,"Ġincorporate":12710,"Ġunnamed":12711,"Ġspielberg":12712,"Ġfletcher":12713,"Ġbicy":12714,"Ġshale":12715,"Ġexceeded":12716,"Ġlaura":12717,"Ġreds":12718,"Ġrequests":12719,"Ġkenny":12720,"Ġinnovative":12721,"Ġhelicopters":12722,"Ġphylogen":12723,"Ġcement":12724,"Ġsouthampton":12725,"Ġcivilization":12726,"ook":12727,"Ġpard":12728,"Ġvas":12729,"rup":12730,"Ġbrandon":12731,"Ġaval":12732,"Ġreadily":12733,"Ġacadem":12734,"Ġrely":12735,"Ġatoms":12736,"Ġconvinc":12737,"Ġslowed":12738,"Ġshepher":12739,"Ġeisenh":12740,"Ġtrademark":12741,"oud":12742,"onsc":12743,"Ġsubmit":12744,"Ġholocaust":12745,"ophone":12746,"Ġvenus":12747,"Ġstruggles":12748,"Ġbolton":12749,"Ġraiders":12750,"Ġbangl":12751,"Ġphilosophical":12752,"ications":12753,"Ġlig":12754,"okes":12755,"Ġ136":12756,"Ġirre":12757,"Ġpatton":12758,"Ġtrails":12759,"pling":12760,"Ġkeyboards":12761,"rified":12762,"Ġaffecting":12763,"Ġspawned":12764,"Ġunpopular":12765,"Ġlean":12766,"Ġtheft":12767,"opp":12768,"Ġassume":12769,"Ġfake":12770,"ibal":12771,"Ġthirds":12772,"Ġnobility":12773,"Ġimprisonment":12774,"Ġrehabil":12775,"bage":12776,"Ġtoss":12777,"odia":12778,"Ġconsumed":12779,"Ġreflects":12780,"Ġpreceded":12781,"Ġstup":12782,"Ġrust":12783,"Ġshout":12784,"Ġgoeb":12785,"Ġderiv":12786,"Ġconcludes":12787,"Ġilleg":12788,"Ġhendrix":12789,"Ġtongue":12790,"Ġalumni":12791,"gro":12792,"kel":12793,"Ġlocate":12794,"Ġ133":12795,"cycl":12796,"Ġcombine":12797,"Ġdemolition":12798,"Ġarray":12799,"rews":12800,"Ġnegotiated":12801,"Ġpredecessors":12802,"Ġdreadnought":12803,"Ġdup":12804,"Ġecc":12805,"Ġathen":12806,"Ġchoices":12807,"Ġstomach":12808,"Ġlia":12809,"Ġbarber":12810,"Ġultr":12811,"Ġlimitations":12812,"Ġsynthesis":12813,"Ġtus":12814,"Ġwals":12815,"Ġasyl":12816,"Ġrelevant":12817,"Ġdistances":12818,"Ġgrande":12819,"Ġgravel":12820,"Ġhammond":12821,"Ġeisenhower":12822,"Ġnebr":12823,"Ġrealize":12824,"Ġrhode":12825,"Ġ370":12826,"Ġcertific":12827,"Ġargentine":12828,"Ġlined":12829,"Ġcapabilities":12830,"Ġloos":12831,"Ġcubs":12832,"Ġstefani":12833,"apa":12834,"Ġears":12835,"Ġconviction":12836,"Ġferguson":12837,"Ġecosystem":12838,"eit":12839,"kat":12840,"Ġdigest":12841,"Ġhutch":12842,"Ġbav":12843,"clamation":12844,"Ġrespected":12845,"Ġposed":12846,"Ġpitching":12847,"Ġclimax":12848,"canal":12849,"Ġincorrect":12850,"Ġsexuality":12851,"Ġwarsaw":12852,"Ġplacement":12853,"Ġyosh":12854,"Ġcluster":12855,"ogical":12856,"Ġemble":12857,"Ġbadge":12858,"Ġobservatory":12859,"Ġlucy":12860,"Ġtrustees":12861,"Ġanthology":12862,"Ġhatch":12863,"Ġcorrespondence":12864,"Ġpose":12865,"Ġcrowds":12866,"olics":12867,"Ġacids":12868,"Ġinfin":12869,"Ġvarieties":12870,"Ġethan":12871,"Ġjeffrey":12872,"Ġdoubled":12873,"Ġancestors":12874,"Ġug":12875,"Ġbritney":12876,"Ġsussex":12877,"hurst":12878,"Ġdex":12879,"tershire":12880,"Ġwillis":12881,"Ġextant":12882,"Ġinsect":12883,"Ġbust":12884,"berger":12885,"Ġspike":12886,"Ġcastro":12887,"Ġvictorious":12888,"Ġsettings":12889,"Ġefficiency":12890,"Ġprecise":12891,"Ġaltog":12892,"Ġsprint":12893,"Ġforgotten":12894,"Ġguadalcanal":12895,"aul":12896,"kers":12897,"Ġcp":12898,"Ġvand":12899,"Ġamino":12900,"Ġordin":12901,"Ġsometime":12902,"Ġmorton":12903,"Ġcolumbus":12904,"Ġgifts":12905,"Ġaltogether":12906,"Ġinade":12907,"Ġriv":12908,"Ġhaun":12909,"Ġaltar":12910,"Ġreynolds":12911,"iott":12912,"uates":12913,"Ġnie":12914,"Ġtears":12915,"Ġkicked":12916,"Ġsemif":12917,"Ġfranz":12918,"Ġnamely":12919,"Ġinadequ":12920,"Ġnc":12921,"Ġkor":12922,"Ġunderlying":12923,"nas":12924,"Ġmaturity":12925,"Ġ260":12926,"changes":12927,"Ġtheoretical":12928,"jud":12929,"uania":12930,"Ġwu":12931,"Ġfees":12932,"kson":12933,"Ġhighlands":12934,"Ġservants":12935,"Ġviolin":12936,"Ġgalv":12937,"Ġconcluding":12938,"rimination":12939,"aic":12940,"Ġsecretly":12941,"Ġexcited":12942,"Ġconquered":12943,"Ġhighlights":12944,"Ġadoption":12945,"Ġendorsed":12946,"Ġrectang":12947,"Ġfountain":12948,"Ġstap":12949,"essa":12950,"Ġtrin":12951,"Ġannie":12952,"Ġmunich":12953,"Ġhort":12954,"Ġretaining":12955,"Ġterrible":12956,"Ġcountryside":12957,"Ġrussians":12958,"Ġivy":12959,"Ġsatisfied":12960,"Ġunhappy":12961,"Ġkre":12962,"Ġyar":12963,"soon":12964,"Ġsouthbound":12965,"Ġ142":12966,"Ġgoalkeeper":12967,"Ġfails":12968,"Ġconfronted":12969,"Ġlithuania":12970,"Ġnebraska":12971,"enes":12972,"Ġsteering":12973,"Ġpawn":12974,"Ġrankings":12975,"Ġachieving":12976,"Ġgreeks":12977,"Ġperception":12978,"Ġwillie":12979,"uchi":12980,"Ġfortified":12981,"Ġabolished":12982,"Ġorch":12983,"Ġschem":12984,"Ġapprent":12985,"Ġcran":12986,"Ġhomage":12987,"Ġresembles":12988,"Ġrecreational":12989,"Ġsubsidiary":12990,"jar":12991,"ÅĦ":12992,"Ġpepper":12993,"Ġmusically":12994,"Ġpointing":12995,"Ġsolve":12996,"Ġcomprises":12997,"Ġdepartments":12998,"Ġactivated":12999,"Ġlandsl":13000,"Ġcherry":13001,"eded":13002,"Ġclash":13003,"Ġboyd":13004,"Ġdrawings":13005,"Ġeaten":13006,"Ġpleasant":13007,"iast":13008,"Ġseize":13009,"Ġformats":13010,"Ġaccidents":13011,"Ġsubc":13012,"Ġbinding":13013,"Ġreferendum":13014,"vae":13015,"Ġaccordance":13016,"Ġlithuanian":13017,"isbury":13018,"Ġphases":13019,"Ġtransformation":13020,"Ġwan":13021,"Ġrelax":13022,"Ġdorsal":13023,"Ġdiocese":13024,"Ġwoll":13025,"Ġbam":13026,"itating":13027,"icia":13028,"Ġannoy":13029,"Ġprimitive":13030,"Ġrhys":13031,"Ġwrestlers":13032,"ĠâĤ¬":13033,"Ġeugene":13034,"oft":13035,"Ġroc":13036,"Ġmedley":13037,"Ġdeceased":13038,"Ġcatholics":13039,"Ġorbital":13040,"ĠfranÃ§":13041,"lined":13042,"Ġfol":13043,"Ġgenet":13044,"Ġderek":13045,"Ġlau":13046,"Ġlois":13047,"Ġballot":13048,"Ã¡l":13049,"Ġsafely":13050,"pur":13051,"Ġyang":13052,"Ġenacted":13053,"Ġconcord":13054,"Ġdispos":13055,"ãĥ¼":13056,"Ġnegotiate":13057,"ÅĽ":13058,"Ġlighth":13059,"Ġalbeit":13060,"Ġstew":13061,"Ġfactions":13062,"Ġ1859":13063,"Ġinherit":13064,"Ġcalendar":13065,"Ġprecurs":13066,"Ġsubstantially":13067,"Ġstam":13068,"Ġparan":13069,"Ġstopping":13070,"Ġchronicles":13071,"Ġtwins":13072,"Ġcoch":13073,"Ġtotaled":13074,"Ġbusinessman":13075,"Ġbloom":13076,"Ġdecommissioned":13077,"bone":13078,"jord":13079,"yth":13080,"Ġalpine":13081,"iolet":13082,"Ġcoul":13083,"Ġrobertson":13084,"Ġspont":13085,"Ġgeographical":13086,"Ġathe":13087,"Ġscorer":13088,"Ġavailability":13089,"Ġmemoirs":13090,"idel":13091,"Ġruther":13092,"Ġgeological":13093,"Ġswall":13094,"shi":13095,"Ġarchives":13096,"Ġsparrow":13097,"Ġblaine":13098,"Ġfraser":13099,"ictions":13100,"Ġmillimetres":13101,"Ġ139":13102,"Ġcareers":13103,"Ġsandstone":13104,"Ġconception":13105,"Ġpapal":13106,"Ġsg":13107,"Ġlg":13108,"Ġnim":13109,"ipel":13110,"Ġwend":13111,"Ġcanber":13112,"Ġ1200":13113,"Ġboarding":13114,"Ġcontroller":13115,"Ġresolve":13116,"Ġsuz":13117,"Ġeffectiveness":13118,"criptions":13119,"Ġshrine":13120,"Ġjoyce":13121,"Ġlinda":13122,"abling":13123,"Ġcolomb":13124,"Ġeditors":13125,"Ġwelcom":13126,"inely":13127,"Ġtheor":13128,"Ġoath":13129,"Ġhiv":13130,"ructed":13131,"Ġcaliph":13132,"Ġmorale":13133,"Ġmotivated":13134,"Ġconductor":13135,"Ġ1845":13136,"Ġsunderland":13137,"Ġtrucks":13138,"imeters":13139,"Ġmagnific":13140,"drop":13141,"Ġnd":13142,"Ġjoel":13143,"Ġclearing":13144,"Ġsalam":13145,"Ġimagination":13146,"Ġcomparisons":13147,"Ġabolition":13148,"Ġrept":13149,"Ġgly":13150,"Ġstur":13151,"Ġsalisbury":13152,"agonists":13153,"Ġpollution":13154,"Ġmortal":13155,"Ġthinks":13156,"Ġancestry":13157,"Ġintercepted":13158,"vik":13159,"Ġpipe":13160,"Ġpneum":13161,"Ġdiction":13162,"riet":13163,"Ġtrigg":13164,"Ġcommodore":13165,"aceae":13166,"Ġreceiver":13167,"Ġmedian":13168,"Ġreproduction":13169,"Ġtyrann":13170,"Ġdescriptions":13171,"Ġcogn":13172,"adic":13173,"Ġblaz":13174,"Ġadmired":13175,"Ġbrighton":13176,"Ġisolation":13177,"Ġfow":13178,"orp":13179,"Ġgott":13180,"Ġkun":13181,"Ġexpend":13182,"Ġlawyers":13183,"Ġpropulsion":13184,"Ġintroduces":13185,"Ġslee":13186,"Ġstrick":13187,"Ġsteal":13188,"Ġoperators":13189,"Ġcaptive":13190,"Ġinflicted":13191,"Ġtendency":13192,"Ġaccelerated":13193,"itic":13194,"ĠmÃ¼":13195,"Ġjenna":13196,"bul":13197,"Ġacute":13198,"Ġorganisations":13199,"Ġcroc":13200,"Ġadmission":13201,"Ġdominican":13202,"Ġexhibits":13203,"Ġrubber":13204,"Ġbened":13205,"Ġanders":13206,"Ġquinn":13207,"Ġrealised":13208,"Ġtimberlake":13209,"Ġmanuscripts":13210,"Ġfarther":13211,"ĠâĢĺ":13212,"Ġmatched":13213,"Ġcommands":13214,"Ġvisuals":13215,"agonal":13216,"iji":13217,"Ġcowboy":13218,"Ġriaa":13219,"11":13220,"roke":13221,"Ġkaren":13222,"Ġveto":13223,"Ġfoundations":13224,"Ġbowler":13225,"Ġtorres":13226,"Ġpolls":13227,"Ġwhitney":13228,"Ġundergraduate":13229,"gun":13230,"Ġwang":13231,"Ġabstr":13232,"Ġzinc":13233,"Ġausten":13234,"Ġinsight":13235,"Ġconquer":13236,"Ġpike":13237,"Ġshed":13238,"Ġhamburg":13239,"Ġdenomin":13240,"Ġarabian":13241,"Ġorchestr":13242,"Ġinteg":13243,"cat":13244,"ilia":13245,"Ġkann":13246,"Ġbuenos":13247,"Ġnorton":13248,"Ġwatches":13249,"Ġconservatives":13250,"Ġelliott":13251,"Ġasylum":13252,"Ġreliable":13253,"Ġincorporating":13254,"Ġportsmouth":13255,"Ġtul":13256,"isch":13257,"Ġtwist":13258,"Ġ147":13259,"Ġsuperhero":13260,"Ġaccounting":13261,"Ġclinical":13262,"Ġshawn":13263,"ĠãĤ":13264,"Ġdull":13265,"Ġavoiding":13266,"Ġshapes":13267,"Ġdayton":13268,"Ġende":13269,"Ġlarvae":13270,"Ġaveraging":13271,"Ġscotia":13272,"Ġdrops":13273,"Ġkerr":13274,"Ġæ":13275,"Ġdear":13276,"Ġcommended":13277,"Ġdominance":13278,"Ġborrowed":13279,"Ġeccentric":13280,"bane":13281,"omorph":13282,"Ġlegally":13283,"Ġ....":13284,"Ġremarks":13285,"Ġspear":13286,"Ġdowned":13287,"Ġfuller":13288,"Ġdepends":13289,"Ġforbes":13290,"Ġpetersburg":13291,"Ġduchess":13292,"Ġsaves":13293,"Ġhik":13294,"Ġgand":13295,"Ġplent":13296,"Ġlyrically":13297,"Ġfavoured":13298,"Ġhugo":13299,"cliffe":13300,"Ġfins":13301,"Ġcurric":13302,"Ġscandin":13303,"Ġbreath":13304,"Ġbutterfly":13305,"mons":13306,"Ġpresenting":13307,"Ġdetermination":13308,"Ġpartisan":13309,"Ġcaesar":13310,"ui":13311,"vas":13312,"Ġstake":13313,"child":13314,"Ġretiring":13315,"Ġsingh":13316,"Ġdepress":13317,"Ġgeographic":13318,"Ã©r":13319,"Ġsalmon":13320,"Ġaccepting":13321,"Ġkrish":13322,"Ġespn":13323,"Ġferrari":13324,"Ġinev":13325,"ithm":13326,"Ġvene":13327,"ylon":13328,"Ġhallow":13329,"Ġgardner":13330,"Ġgalile":13331,"Ġdurham":13332,"Ġworthy":13333,"Ġsicily":13334,"Ġwong":13335,"Ġnationwide":13336,"Ġattributes":13337,"Ġwebber":13338,"Ġpuzzles":13339,"ections":13340,"Ïģ":13341,"Ġtired":13342,"itory":13343,"Ġeject":13344,"Ġgills":13345,"Ġsms":13346,"Ġambig":13347,"Ġmagnet":13348,"Ġbibl":13349,"oton":13350,"Ġrovers":13351,"Ġamber":13352,"Ġindie":13353,"Ġhumph":13354,"Ġtestament":13355,"Ġ1820":13356,"Ġomaha":13357,"Ġsovereignty":13358,"roft":13359,"Ġstab":13360,"Ġrats":13361,"Ġcolleague":13362,"ikh":13363,"Ġphysic":13364,"Ġpriests":13365,"Ġpharm":13366,"Ġactivist":13367,"Ġresponses":13368,"Ġimmort":13369,"iatus":13370,"Ġpoisoning":13371,"Ġmonitoring":13372,"armed":13373,"estock":13374,"ovan":13375,"Ġwhenever":13376,"Ġcommissioners":13377,"Ġremixes":13378,"Ġimplementation":13379,"Ġmcmah":13380,"Ġsink":13381,"Ġmillimeter":13382,"Ġbritt":13383,"Ġstrain":13384,"boro":13385,"Ġhappens":13386,"ÅĤaw":13387,"Ġthermal":13388,"Ġcelest":13389,"oan":13390,"Ġnumer":13391,"Ġgovernors":13392,"retion":13393,"Ġdissent":13394,"fold":13395,"gence":13396,"Ġtrop":13397,"Ġlance":13398,"Ġgur":13399,"Ġspecified":13400,"Ġzomb":13401,"Ġharder":13402,"Ġpeaceful":13403,"Ġtaun":13404,"Ġastronomical":13405,"Ġtherm":13406,"Ġconfiguration":13407,"Ġdisk":13408,"Ġgoverned":13409,"Ġcharting":13410,"Ġauxiliary":13411,"aru":13412,"rock":13413,"Ġja":13414,"Ġslopes":13415,"Ġcolleg":13416,"Ġpatroll":13417,"Ġvalued":13418,"Ġscripts":13419,"Ġti":13420,"Ġwigg":13421,"irmed":13422,"Ġkend":13423,"Ġstriker":13424,"Ġphilippine":13425,"Ġlunch":13426,"Ġgore":13427,"Ġaspir":13428,"Ġexagger":13429,"Ġleaked":13430,"keys":13431,"Ġfurious":13432,"Ġimmune":13433,"Ġsiblings":13434,"Ġmumbai":13435,"Ġcly":13436,"oro":13437,"Ġmerg":13438,"arte":13439,"Ġaccent":13440,"Ġguys":13441,"Ġshelters":13442,"Ġinstallment":13443,"Ġbahamas":13444,"Ġenthusias":13445,"Ġexplicitly":13446,"xton":13447,"Ġbf":13448,"orus":13449,"Ġovertime":13450,"Ġvisitor":13451,"Ġtalked":13452,"Ġneighborhoods":13453,"Ġmagist":13454,"Ġspirits":13455,"Ġreunited":13456,"Ġcontemporaries":13457,"Î¹":13458,"Ġpoul":13459,"Ġspor":13460,"Ġintentions":13461,"Ġconsort":13462,"Ġmonica":13463,"Ġresponsibilities":13464,"Ġcommittees":13465,"Ġtournaments":13466,"Ġaccommodation":13467,"Ġprussia":13468,"Ġthunderstorms":13469,"Ġcanberra":13470,"Ġbm":13471,"Ġyank":13472,"Ġfreestyle":13473,"Ġactivists":13474,"Ġ1854":13475,"rina":13476,"uana":13477,"Ġcompart":13478,"Ġepid":13479,"Ġdevils":13480,"Ġangela":13481,"Ġlecture":13482,"sover":13483,"Ġoutlets":13484,"Ġperforms":13485,"Ġexpelled":13486,"Ġpersisted":13487,"Ġradioactive":13488,"unciation":13489,"Ġrutherford":13490,"Ġia":13491,"igious":13492,"Ġrer":13493,"Ġlopez":13494,"Ġprimetime":13495,"Ġ1857":13496,"Ġpearson":13497,"Ġquantum":13498,"hey":13499,"acco":13500,"Ġhelium":13501,"Ġflora":13502,"Ġresource":13503,"Ġorbits":13504,"Ġaccumulated":13505,"Ġtailed":13506,"Ġnme":13507,"Ġshocked":13508,"Ġsyrian":13509,"Ġengr":13510,"Ġshortened":13511,"Ġfrog":13512,"lon":13513,"ellers":13514,"Ġregener":13515,"Ġdiscrimination":13516,"mir":13517,"ilis":13518,"omer":13519,"Ġsaff":13520,"marks":13521,"Ġfinancially":13522,"Ġensured":13523,"Ġcertifications":13524,"Ġtornadoes":13525,"Ġrebuilding":13526,"Ġaires":13527,"Ġdiana":13528,"ady":13529,"Ġoverha":13530,"Ġlaunching":13531,"Ġambul":13532,"Ġrhine":13533,"Ġreunion":13534,"Ġguidance":13535,"Ġdol":13536,"Ġoppen":13537,"hyd":13538,"Ġinvestigating":13539,"Ġconvoys":13540,"Ġtragedy":13541,"aid":13542,"Ġà":13543,"Ġintrig":13544,"Ġoversee":13545,"Ġminers":13546,"Ġrevenues":13547,"Ġsounded":13548,"Ġsuperv":13549,"Ġbenz":13550,"Ġunwilling":13551,"Ġcriteria":13552,"Ġlent":13553,"ounce":13554,"Ġpitt":13555,"Ġsymbolic":13556,"Ġiconic":13557,"dal":13558,"Ġdining":13559,"oufl":13560,"Ġgag":13561,"Ġnewark":13562,"Ġholden":13563,"Ġnitrogen":13564,"Ġdisagreed":13565,"Ġregistration":13566,"Ġsomebody":13567,"Ġvalve":13568,"Ġexpressing":13569,"Ġlivestock":13570,"Ġenthusiasm":13571,"Ġtense":13572,"Ġtampa":13573,"Ġfalk":13574,"Ġlich":13575,"ĠnÃ©e":13576,"empl":13577,"quin":13578,"Ġnewer":13579,"Ġportal":13580,"Ġolive":13581,"Ġroofs":13582,"ovakia":13583,"Ġpony":13584,"Ġhers":13585,"Ġboards":13586,"Ġfratern":13587,"Ġdiá»ĩ":13588,"Ġscreened":13589,"Ġjoshua":13590,"Ġrejoined":13591,"Ġwages":13592,"enary":13593,"Ġinterim":13594,"Ġdevelops":13595,"Ġpatric":13596,"Ġcasc":13597,"Ġlinking":13598,"Ġnortheastward":13599,"Ġjesse":13600,"Ġlaser":13601,"Ġinability":13602,"Ġlucky":13603,"Ġdoz":13604,"Ġdisturbed":13605,"Ã©l":13606,"Ġsupernatural":13607,"Ġlowered":13608,"Ġprominence":13609,"Ġdiá»ĩm":13610,"Ġmaker":13611,"Ġclaud":13612,"Ġcontinuously":13613,"Ġenlarged":13614,"bin":13615,"care":13616,"tor":13617,"icles":13618,"Ġcompton":13619,"Ġleis":13620,"Ġorganize":13621,"Ġportrays":13622,"Ġdedication":13623,"Ġconfrontation":13624,"Ġrelegated":13625,"Ġwrestlemania":13626,"Ġbiblical":13627,"Ġaunt":13628,"inos":13629,"Ġporn":13630,"Ġregain":13631,"Ġcapcom":13632,"Ġgrandmother":13633,"Ġnarrowly":13634,"Ġpersuade":13635,"Ġbrom":13636,"Ġbury":13637,"Ġwhip":13638,"opl":13639,"Ġplas":13640,"Ġtelevised":13641,"Ġfreely":13642,"Ġillumin":13643,"Ġjudged":13644,"Ġperipher":13645,"Ġpoetic":13646,"Ġinvention":13647,"Ġdodgers":13648,"Ġprolong":13649,"Ġantarctic":13650,"onscious":13651,"Ġdexter":13652,"Ġhr":13653,"Ġwors":13654,"tender":13655,"Ġamal":13656,"Ġknowles":13657,"Ġrainbow":13658,"Ġpsyched":13659,"Ġcollectively":13660,"Ġfrigates":13661,"Ġheating":13662,"Ġentries":13663,"Ġeighteenth":13664,"Ġnarrator":13665,"Ġcruz":13666,"Ġstafford":13667,"Ġpursuing":13668,"Ġsegreg":13669,"Ġlectures":13670,"Ġsanctuary":13671,"Ġwheels":13672,"Ġcosta":13673,"Ġbeside":13674,"Ġwhis":13675,"Ġtrim":13676,"auer":13677,"Ġsmallest":13678,"Ġodds":13679,"Ġimagine":13680,"Ġsympathetic":13681,"Ġexcluded":13682,"itational":13683,"Ġencycl":13684,"Ġviewer":13685,"Ġ320":13686,"Ġapoc":13687,"ropods":13688,"Ġcompanions":13689,"Ġashley":13690,"Ġinterface":13691,"Ġbubble":13692,"swick":13693,"Ġcunning":13694,"Ġmits":13695,"ifax":13696,"Ġabrupt":13697,"Ġshipments":13698,"Ġmakeup":13699,"Ġhotels":13700,"Ġrenowned":13701,"Ġfc":13702,"ailand":13703,"Ġframes":13704,"Ġbattlecruiser":13705,"Ġhannah":13706,"Ġadriatic":13707,"Ġecclesiast":13708,"Ġbangladesh":13709,"Ġstun":13710,"aird":13711,"Ġkeyn":13712,"Ġshortage":13713,"Ġcooking":13714,"Ġresurre":13715,"Ġmating":13716,"icular":13717,"Ġgaza":13718,"elic":13719,"idity":13720,"Ġconclus":13721,"Ġdeclining":13722,"Ġrows":13723,"Ġtides":13724,"ilian":13725,"Ġthailand":13726,"Ġjaws":13727,"Ġallan":13728,"Ġdover":13729,"Ġkingston":13730,"Ġdivisional":13731,"Ġsitcom":13732,"Ġcamoufl":13733,"Ġpredator":13734,"Ġ550":13735,"Ġrecommendation":13736,"Ġcedar":13737,"Ġrpg":13738,"Ġconsolidated":13739,"Ġaesthetic":13740,"heres":13741,"iman":13742,"Ġpert":13743,"Ġbrock":13744,"Ġhalls":13745,"Ġ1858":13746,"Ġhomet":13747,"Ġflame":13748,"Ġcrater":13749,"Ġcasem":13750,"Ġquantity":13751,"Ġceremonial":13752,"Ġclad":13753,"Ġsuppress":13754,"Ġfielding":13755,"Ġcruel":13756,"Ġrolls":13757,"Ġmortality":13758,"Ġencouraging":13759,"Ã¤n":13760,"Ġwand":13761,"Ġlans":13762,"elage":13763,"Ġbeet":13764,"ogan":13765,"Ġjohns":13766,"Ġcounted":13767,"Ġdonna":13768,"Ġalexandria":13769,"Ġwade":13770,"Ġpub":13771,"Ġhex":13772,"Ġcontacts":13773,"Ġmothers":13774,"Ġweaken":13775,"Ġbedroom":13776,"Ġbahrain":13777,"Ġwives":13778,"atin":13779,"Ġmiz":13780,"Ġmund":13781,"Ġlots":13782,"avel":13783,"Ġwheeler":13784,"Ġdisplacement":13785,"Ġxiii":13786,"ben":13787,"Ġdiscl":13788,"Ġcentimetres":13789,"spring":13790,"Ġcomedian":13791,"Ġmcmahon":13792,"Ġpromises":13793,"Ġreasonable":13794,"Ġsupposedly":13795,"Ġmerchandise":13796,"heart":13797,"Ġdame":13798,"ovina":13799,"Ġpoets":13800,"Ġremaster":13801,"Ġminne":13802,"Ġportable":13803,"Ġpropeller":13804,"Ġqualification":13805,"Ġthirteenth":13806,"Ġnesting":13807,"Ġpostponed":13808,"Ġpavilion":13809,"ean":13810,"Ġafraid":13811,"Ġpeers":13812,"Ġzool":13813,"Ġsupern":13814,"Ġclever":13815,"Ġviral":13816,"Ġnucleus":13817,"Ġ1812":13818,"Ġneighbours":13819,"Ġoversaw":13820,"Ġdeteriorated":13821,"Ġinferior":13822,"Ð¾":13823,"Ġdana":13824,"Ġbea":13825,"Ġbuying":13826,"Ġrestr":13827,"Ġreactor":13828,"ĠÂµm":13829,"Ġlighthouse":13830,
[...]
