{
  "version": "1.0",
  "truncation": null,
  "padding": null,
  "added_tokens": [
    {
      "id": 0,
      "content": "<pad>",
      "single_word": false,
      "lstrip": false,
      "rstrip": false,
      "normalized": false,
      "special": true
    },
    {
      "id": 1,
      "content": "<s>",
      "single_word": false,
      "lstrip": false,
      "rstrip": false,
      "normalized": false,
      "special": true
    },
    {
      "id": 2,
      "content": "</s>",
      "single_word": false,
      "lstrip": false,
      "rstrip": false,
      "normalized": false,
      "special": true
    },
    {
      "id": 3,
      "content": "<unk>",
      "single_word": false,
      "lstrip": false,
      "rstrip": false,
      "normalized": false,
      "special": true
    },
    {
      "id": 4,
      "content": "<mask>",
      "single_word": false,
      "lstrip": false,
      "rstrip": false,
      "normalized": false,
      "special": true
    }
  ],
  "normalizer": {
    "type": "Lowercase"
  },
  "pre_tokenizer": {
    "type": "ByteLevel",
    "add_prefix_space": true,
    "trim_offsets": true
  },
  "post_processor": {
    "type": "RobertaProcessing",
    "sep": [
      "</s>",
      2
    ],
    "cls": [
      "<s>",
      1
    ],
    "trim_offsets": true,
    "add_prefix_space": true
  },
  "decoder": {
    "type": "ByteLevel",
    "add_prefix_space": true,
    "trim_offsets": true
  },
  "model": {
    "type": "BPE",
    "dropout": null,
    "unk_token": "<unk>",
    "continuing_subword_prefix": null,
    "end_of_word_suffix": null,
    "fuse_unk": false,
    "vocab": {
      "<pad>": 0,
      "<s>": 1,
      "</s>": 2,
      "<unk>": 3,
      "<mask>": 4,
      "!": 5,
      "\"": 6,
      "#": 7,
      "$": 8,
      "%": 9,
      "&": 10,
      "'": 11,
      "(": 12,
      ")": 13,
      "*": 14,
      "+": 15,
      ",": 16,
      "-": 17,
      ".": 18,
      "/": 19,
      "0": 20,
      "1": 21,
      "2": 22,
      "3": 23,
      "4": 24,
      "5": 25,
      "6": 26,
      "7": 27,
      "8": 28,
      "9": 29,
      ":": 30,
      ";": 31,
      "=": 32,
      "?": 33,
      "@": 34,
      "[": 35,
      "\\": 36,
      "]": 37,
      "^": 38,
      "_": 39,
      "`": 40,
      "a": 41,
      "b": 42,
      "c": 43,
      "d": 44,
      "e": 45,
      "f": 46,
      "g": 47,
      "h": 48,
      "i": 49,
      "j": 50,
      "k": 51,
      "l": 52,
      "m": 53,
      "n": 54,
      "o": 55,
      "p": 56,
      "q": 57,
      "r": 58,
      "s": 59,
      "t": 60,
      "u": 61,
      "v": 62,
      "w": 63,
      "x": 64,
      "y": 65,
      "z": 66,
      "{": 67,
      "|": 68,
      "}": 69,
      "~": 70,
      "¡": 71,
      "¢": 72,
      "£": 73,
      "¤": 74,
      "¥": 75,
      "¦": 76,
      "§": 77,
      "¨": 78,
      "©": 79,
      "ª": 80,
      "«": 81,
      "¬": 82,
      "®": 83,
      "¯": 84,
      "°": 85,
      "±": 86,
      "²": 87,
      "³": 88,
      "´": 89,
      "µ": 90,
      "¶": 91,
      "·": 92,
      "¸": 93,
      "¹": 94,
      "º": 95,
      "»": 96,
      "¼": 97,
      "½": 98,
      "¾": 99,
      "¿": 100,
      "Â": 101,
      "Ã": 102,
      "Ä": 103,
      "Å": 104,
      "È": 105,
      "Ì": 106,
      "Í": 107,
      "Î": 108,
      "Ï": 109,
      "Ð": 110,
      "Ñ": 111,
      "á": 112,
      "â": 113,
      "ï": 114,
      "ĉ": 115,
      "Ċ": 116,
      "Ġ": 117,
      "Ģ": 118,
      "ģ": 119,
      "Ĥ": 120,
      "ĥ": 121,
      "Ħ": 122,
      "ħ": 123,
      "Ĩ": 124,
      "ĩ": 125,
      "Ī": 126,
      "ī": 127,
      "Ĭ": 128,
      "ĭ": 129,
      "Į": 130,
      "į": 131,
      "İ": 132,
      "ı": 133,
      "Ĳ": 134,
      "ĳ": 135,
      "Ĵ": 136,
      "ĵ": 137,
      "ĸ": 138,
      "Ĺ": 139,
      "ĺ": 140,
      "Ļ": 141,
      "Ľ": 142,
      "ľ": 143,
      "Ŀ": 144,
      "ŀ": 145,
      "Ł": 146,
      "ł": 147,
      "Ń": 148,
      "Ġt": 149,
      "he": 150,
      "Ġa": 151,
      "in": 152,
      "Ġthe": 153,
      "on": 154,
      "re": 155,
      "ti": 156,
      "Ġo": 157,
      "Ġc": 158,
      "er": 159,
      "Ġs": 160,
      "Ġof": 161,
      "Ġp": 162,
      "Ġin": 163,
      "or": 164,
      "is": 165,
      "en": 166,
      "es": 167,
      "ed": 168,
      "tion": 169,
      "Ġf": 170,
      "ar": 171,
      "Ġb": 172,
      "it": 173,
      "al": 174,
      "an": 175,
      "Ġre": 176,
      "ro": 177,
      "ing": 178,
      "at": 179,
      "Ġan": 180,
      "Ġto": 181,
      "Ġm": 182,
      "Ġco": 183,
      "Ġd": 184,
      "ec": 185,
      "ation": 186,
      "Ġw": 187,
      "ic": 188,
      "le": 189,
      "un": 190,
      "Ġand": 191,
      "ul": 192,
      "as": 193,
      "Ġn": 194,
      "Ġcom": 195,
      "ent": 196,
      "Ġe": 197,
      "Ġ1": 198,
      "Ġth": 199,
      "Ġpro": 200,
      "Ġfor": 201,
      "Ġbe": 202,
      "ion": 203,
      "tic": 204,
      "Ġcomm": 205,
      "Ġ(": 206,
      "Ġreg": 207,
      "Ġno": 208,
      "ve": 209,
      "Ġ2": 210,
      "Ġsh": 211,
      "Ġcon": 212,
      "id": 213,
      "Ġl": 214,
      "em": 215,
      "ce": 216,
      "us": 217,
      "Ġon": 218,
      "et": 219,
      "all": 220,
      "il": 221,
      "ticle": 222,
      "ur": 223,
      "uc": 224,
      "ulation": 225,
      "im": 226,
      "Ġregulation": 227,
      "Ġst": 228,
      "Ġby": 229,
      "00": 230,
      "ity": 231,
      "pp": 232,
      "ts": 233,
      "ith": 234,
      "ra": 235,
      "Ġor": 236,
      "ut": 237,
      "Ġh": 238,
      "Ġwith": 239,
      "Ġar": 240,
      "Ġas": 241,
      "ber": 242,
      "Ġshall": 243,
      "ment": 244,
      "Ġg": 245,
      "ly": 246,
      "Ġis": 247,
      "Ġthat": 248,
      "ta": 249,
      "sion": 250,
      "Ġac": 251,
      "res": 252,
      "qu": 253,
      "duc": 254,
      "the": 255,
      "Ġex": 256,
      "ow": 257,
      "Ġit": 258,
      "ate": 259,
      "Ġapp": 260,
      "Ġarticle": 261,
      "ll": 262,
      "ted": 263,
      "ission": 264,
      "Ġcommun": 265,
      "ember": 266,
      "por": 267,
      "os": 268,
      "Ġ19": 269,
      "here": 270,
      "ay": 271,
      "Ġproduc": 272,
      "Ġcommission": 273,
      "ir": 274,
      "ac": 275,
      "Ġsu": 276,
      "Ġpar": 277,
      "ter": 278,
      "ri": 279,
      "red": 280,
      "Ġwh": 281,
      "pe": 282,
      "Ġun": 283,
      "Ġthis": 284,
      "der": 285,
      "ties": 286,
      "if": 287,
      "lic": 288,
      "ble": 289,
      "st": 290,
      "om": 291,
      "Ġcommunity": 292,
      "ig": 293,
      "Ġad": 294,
      "ard": 295,
      "Ġdec": 296,
      "ision": 297,
      "Ġv": 298,
      "Ġim": 299,
      "rom": 300,
      "tive": 301,
      "Ġ3": 302,
      "Ġprov": 303,
      "ag": 304,
      "ance": 305,
      "Ġacc": 306,
      "Ġfrom": 307,
      "Ġmember": 308,
      "ess": 309,
      "Ġmar": 310,
      "um": 311,
      "Ġare": 312,
      "ich": 313,
      "Ġwhich": 314,
      "ire": 315,
      "end": 316,
      "Ġme": 317,
      "ates": 318,
      "ver": 319,
      "od": 320,
      "Ġnot": 321,
      "Ġcoun": 322,
      "eec": 323,
      "Ġcomp": 324,
      "el": 325,
      "Ġeu": 326,
      "ure": 327,
      "Ġj": 328,
      "article": 329,
      "Ġeuro": 330,
      "Ġ200": 331,
      "th": 332,
      "Ġat": 333,
      "Ġeurope": 334,
      "),": 335,
      "hereas": 336,
      "Ġint": 337,
      "ust": 338,
      "ric": 339,
      "uld": 340,
      "Ġmark": 341,
      "ran": 342,
      "Ġref": 343,
      "Ġeuropean": 344,
      "ary": 345,
      "ers": 346,
      "ect": 347,
      "Ġ199": 348,
      "ol": 349,
      "Ġfo": 350,
      "Ġmarket": 351,
      "ord": 352,
      "bl": 353,
      "able": 354,
      "ad": 355,
      "Ġsub": 356,
      "op": 357,
      "port": 358,
      "ther": 359,
      "ities": 360,
      "Ġregard": 361,
      "ould": 362,
      "Ġqu": 363,
      "Ġstates": 364,
      "fic": 365,
      "ex": 366,
      "irec": 367,
      "ial": 368,
      "Ġam": 369,
      "Ġres": 370,
      "Ġag": 371,
      "Ġdirec": 372,
      "Ġunder": 373,
      "Ġthere": 374,
      "av": 375,
      "Ġits": 376,
      "Ġen": 377,
      "ition": 378,
      "Ġr": 379,
      "Ġconc": 380,
      "ere": 381,
      "Ġapplic": 382,
      "Ġde": 383,
      "ated": 384,
      "ist": 385,
      "ant": 386,
      "Ġcons": 387,
      "ations": 388,
      "ement": 389,
      "oc": 390,
      "ore": 391,
      "Ġper": 392,
      "ures": 393,
      "and": 394,
      "Ġprovid": 395,
      "Ġdecision": 396,
      "am": 397,
      "Ġaccord": 398,
      "Ġle": 399,
      "tain": 400,
      "ak": 401,
      "cil": 402,
      "ish": 403,
      "llow": 404,
      "orm": 405,
      "Ġproducts": 406,
      "Ġes": 407,
      "Ġaut": 408,
      "Ġmay": 409,
      "oun": 410,
      "Ġsp": 411,
      "Ġcouncil": 412,
      "Ġmeas": 413,
      "Ġcont": 414,
      "Ġind": 415,
      "aving": 416,
      "whereas": 417,
      "Ġann": 418,
      "hor": 419,
      "ud": 420,
      "Ġop": 421,
      "tabl": 422,
      "Ġauthor": 423,
      "ch": 424,
      "200": 425,
      "Ġshould": 426,
      "li": 427,
      "Ġ9": 428,
      "own": 429,
      "Ġpartic": 430,
      "Ġ4": 431,
      "Ġestabl": 432,
      "iv": 433,
      "se": 434,
      "ular": 435,
      "Ġrep": 436,
      "having": 437,
      "Ġall": 438,
      "ry": 439,
      "Ġmeasures": 440,
      "Ġfollow": 441,
      "Ġinc": 442,
      "form": 443,
      "of": 444,
      "ments": 445,
      "Ġpric": 446,
      "Ġannex": 447,
      "ves": 448,
      "Ġwas": 449,
      "ern": 450,
      "Ġother": 451,
      "Ġus": 452,
      "Ġ5": 453,
      "Ġal": 454,
      "Ġaccordance": 455,
      "ave": 456,
      "Ġ8": 457,
      "Ġaid": 458,
      "ew": 459,
      "ph": 460,
      "Ġrequ": 461,
      "erred": 462,
      "Ġparticular": 463,
      "ies": 464,
      "Ġcer": 465,
      "Ġconcern": 466,
      "dition": 467,
      "pos": 468,
      "Ġproc": 469,
      "Ġinto": 470,
      "Ġtre": 471,
      "Ġdirective": 472,
      "ase": 473,
      "Ġla": 474,
      "Ġhave": 475,
      "ub": 476,
      "und": 477,
      "Ġfin": 478,
      "Ġhas": 479,
      "anc": 480,
      "ear": 481,
      "ill": 482,
      "Ġreferred": 483,
      "te": 484,
      "Ġi": 485,
      "ating": 486,
      "erm": 487,
      "ain": 488,
      "Ġstate": 489,
      "Ġdown": 490,
      "ended": 491,
      "Ġ%": 492,
      "Ġse": 493,
      "raph": 494,
      "Ġprovision": 495,
      "Ġpur": 496,
      "Ġout": 497,
      "up": 498,
      "Ġch": 499,
      "Ġspec": 500,
      "Ġpl": 501,
      "ult": 502,
      "Ġprovided": 503,
      "ia": 504,
      "ff": 505,
      "Ġ7": 506,
      "Ġy": 507,
      "Ġtak": 508,
      "Ġtreat": 509,
      "Ġsuc": 510,
      "ount": 511,
      "Ġinform": 512,
      "Ġbas": 513,
      "Ġpre": 514,
      "su": 515,
      "âĢ": 516,
      "ip": 517,
      "Ġfollowing": 518,
      "agraph": 519,
      "ast": 520,
      "iod": 521,
      "Ġec": 522,
      "ublic": 523,
      "ishing": 524,
      "tit": 525,
      "Ġtheir": 526,
      "Ġadop": 527,
      "Ġ6": 528,
      "Ġk": 529,
      "Ġperiod": 530,
      "ail": 531,
      "ug": 532,
      "ot": 533,
      "Ġfi": 534,
      "ine": 535,
      "Ġappro": 536,
      "fore": 537,
      "Ġsuch": 538,
      "Ġbeen": 539,
      "ap": 540,
      "our": 541,
      "ose": 542,
      "Ġtreaty": 543,
      "ied": 544,
      "Ġwithin": 545,
      "Ġany": 546,
      "Ġass": 547,
      "vel": 548,
      "this": 549,
      "Ġimpor": 550,
      "Ġ198": 551,
      "rans": 552,
      "Ġimp": 553,
      "Ġhe": 554,
      "we": 555,
      "lud": 556,
      "Ġtrans": 557,
      "ding": 558,
      "Ġinter": 559,
      "ific": 560,
      "Ġent": 561,
      "ram": 562,
      "enc": 563,
      "Ġresp": 564,
      "Ġcertain": 565,
      "Ġdet": 566,
      "og": 567,
      "Ġcount": 568,
      "Ġyear": 569,
      "Ġwhere": 570,
      "Ġsupp": 571,
      "Ġexp": 572,
      "Ġbet": 573,
      "Ġman": 574,
      "Ġagre": 575,
      "ection": 576,
      ").": 577,
      "ally": 578,
      "eren": 579,
      "erv": 580,
      "Ġcommit": 581,
      "Ġrec": 582,
      "Ġset": 583,
      "ween": 584,
      "els": 585,
      "one": 586,
      "Ġtra": 587,
      "ence": 588,
      "ct": 589,
      "Ġbetween": 590,
      "ach": 591,
      "ational": 592,
      "iz": 593,
      "me": 594,
      "Ġinformation": 595,
      "Ġpo": 596,
      "de": 597,
      "Ġamended": 598,
      "ishe": 599,
      "age": 600,
      "ue": 601,
      "ign": 602,
      "ven": 603,
      "Ġ10": 604,
      "lement": 605,
      "Ġthan": 606,
      "Ġadopted": 607,
      "Ġgo": 608,
      "si": 609,
      "Ġprovisions": 610,
      "Ġthereof": 611,
      "ries": 612,
      "uring": 613,
      "act": 614,
      "Ġthese": 615,
      "Ġimport": 616,
      "ide": 617,
      "Ġwhereas": 618,
      "Ġconcerned": 619,
      "igh": 620,
      "Ġoper": 621,
      "Ġagreement": 622,
      "est": 623,
      "Ġdis": 624,
      "ules": 625,
      "Ġcondition": 626,
      "resent": 627,
      "Ġparagraph": 628,
      "Ġproced": 629,
      "Ġexport": 630,
      "Ġcommunities": 631,
      "Ġapplicable": 632,
      "Ġfinanc": 633,
      "Ġthose": 634,
      "Ġgran": 635,
      "Ġrules": 636,
      "Ġestablishing": 637,
      "Ġthey": 638,
      "Ġsc": 639,
      "mit": 640,
      "Ġab": 641,
      "'s": 642,
      "Ġinves": 643,
      "Ġdecember": 644,
      "iff": 645,
      "ork": 646,
      "Ġapply": 647,
      "Ġapplication": 648,
      "Ġoffic": 649,
      "tific": 650,
      "Ġquan": 651,
      "Ġcommitte": 652,
      "ory": 653,
      "Ġwere": 654,
      "Ġ12": 655,
      "Ġcar": 656,
      "Ġmust": 657,
      "uary": 658,
      "ecess": 659,
      "Ġpos": 660,
      "ge": 661,
      "Ġprice": 662,
      "Ġrel": 663,
      "Ġnecess": 664,
      "Ġcommittee": 665,
      "ort": 666,
      "Ġfix": 667,
      "ous": 668,
      "Ġcommon": 669,
      "rit": 670,
      "als": 671,
      "Ġauthorities": 672,
      "les": 673,
      "ade": 674,
      "onom": 675,
      "Ġnecessary": 676,
      "Ġforce": 677,
      "Ġcl": 678,
      "ati": 679,
      "Ġconditions": 680,
      "Ġproduction": 681,
      "par": 682,
      "Ġob": 683,
      "Ġpart": 684,
      "tif": 685,
      "so": 686,
      "Ġwhe": 687,
      "rib": 688,
      "ors": 689,
      "Ġfir": 690,
      "ution": 691,
      "ren": 692,
      "ird": 693,
      "Ġimports": 694,
      "any": 695,
      "Ġprog": 696,
      "Ġsec": 697,
      "Ġmade": 698,
      "ical": 699,
      "Ġlaid": 700,
      "ural": 701,
      "Ġval": 702,
      "Ġbr": 703,
      "Ġpublic": 704,
      "99": 705,
      "Ġ20": 706,
      "igin": 707,
      "Ġif": 708,
      "ree": 709,
      "tly": 710,
      "Ġprices": 711,
      "Ġtherefore": 712,
      "Ġone": 713,
      "ame": 714,
      "Ġorigin": 715,
      "Ġmon": 716,
      "ax": 717,
      "Ġalso": 718,
      "Ġeff": 719,
      "Ġeconom": 720,
      "uss": 721,
      "Ġproduct": 722,
      "Ġeach": 723,
      "Ġup": 724,
      "Ġsy": 725,
      "Ġthird": 726,
      "out": 727,
      "ump": 728,
      "gan": 729,
      "her": 730,
      "Ġ17": 731,
      "bil": 732,
      "pt": 733,
      "Ġ/": 734,
      "ual": 735,
      "Ġorder": 736,
      "ustom": 737,
      "Ġcan": 738,
      "Ġ//": 739,
      "Ġcustom": 740,
      "king": 741,
      "Ġcase": 742,
      "ruc": 743,
      "ined": 744,
      "ject": 745,
      "Ġcountries": 746,
      "Ġwould": 747,
      "ished": 748,
      "Ġ15": 749,
      "Ġimplement": 750,
      "Ġbasis": 751,
      "ater": 752,
      "fter": 753,
      "ks": 754,
      "imit": 755,
      "Ġdo": 756,
      "Ġtim": 757,
      "ting": 758,
      "Ġfinancial": 759,
      "Ġprogram": 760,
      "Ġonly": 761,
      "Ġserv": 762,
      "Ġorgan": 763,
      "une": 764,
      "ii": 765,
      "âĢĻ": 766,
      "ech": 767,
      "Ġform": 768,
      "ever": 769,
      "Ġsal": 770,
      "Ġindust": 771,
      "Ġjune": 772,
      "has": 773,
      "Ġeconomic": 774,
      "pri": 775,
      "uly": 776,
      "Ġlimit": 777,
      "Ġins": 778,
      "stem": 779,
      "Ġ11": 780,
      "Ġprocedure": 781,
      "done": 782,
      "Ġve": 783,
      "Ġlast": 784,
      "ussels": 785,
      "Ġgro": 786,
      "ugh": 787,
      "Ġinclud": 788,
      "ove": 789,
      "Ġwill": 790,
      "Ġbrussels": 791,
      "Ġday": 792,
      "Ġ30": 793,
      "Ġsystem": 794,
      "Ġaccount": 795,
      "Ġmean": 796,
      "Ġunderta": 797,
      "int": 798,
      "Ġservic": 799,
      "Ġmore": 800,
      "ress": 801,
      "iew": 802,
      "Ġrequire": 803,
      "Ġamount": 804,
      "Ġbo": 805,
      "Ġenter": 806,
      "Ġpursu": 807,
      "Ġrespect": 808,
      "Ġtime": 809,
      "Ġappropri": 810,
      "Ġinte": 811,
      "Ġfirst": 812,
      "ative": 813,
      "Ġav": 814,
      "Ġdes": 815,
      "Ġsubmit": 816,
      "Ġlic": 817,
      "Ġjuly": 818,
      "imum": 819,
      "Ġens": 820,
      "Ġ13": 821,
      "Ġlevel": 822,
      "Ġne": 823,
      "Ġ14": 824,
      "Ġrele": 825,
      "Ġofficial": 826,
      "inion": 827,
      "Ġopinion": 828,
      "Ġprot": 829,
      "Ġwe": 830,
      "Ġfe": 831,
      "ty": 832,
      "Ġlay": 833,
      "bility": 834,
      "Ġ31": 835,
      "tial": 836,
      "Ġadd": 837,
      "Ġstand": 838,
      "Ġexce": 839,
      "ond": 840,
      "Ġuse": 841,
      "Ġnational": 842,
      "Ġused": 843,
      "Ġprocess": 844,
      "ective": 845,
      "ener": 846,
      "are": 847,
      "Ġinv": 848,
      "Ġcompet": 849,
      "nal": 850,
      "Ġequ": 851,
      "tions": 852,
      "ved": 853,
      "lo": 854,
      "Ġappropriate": 855,
      "Ġduring": 856,
      "ination": 857,
      "ods": 858,
      "10": 859,
      "Ġdef": 860,
      "Ġnew": 861,
      "Ġcap": 862,
      "aced": 863,
      "Ġhere": 864,
      "ef": 865,
      "Ġfixed": 866,
      "Ġpursuant": 867,
      "Ġrefund": 868,
      "Ġjan": 869,
      "ong": 870,
      "Ġgu": 871,
      "ive": 872,
      "Ġjanuary": 873,
      "Ġenti": 874,
      "Ġpay": 875,
      "Ġdirectly": 876,
      "by": 877,
      "Ġspecific": 878,
      "Ġdate": 879,
      "Ġcompe": 880,
      "ruct": 881,
      "Ġel": 882,
      "Ġanim": 883,
      "Ġ16": 884,
      "Ġcontra": 885,
      "Ġpurpos": 886,
      "Ġincre": 887,
      "Ġtrade": 888,
      "Ġso": 889,
      "Ġtaken": 890,
      "Ġrepl": 891,
      "tiv": 892,
      "aid": 893,
      "Ġmanag": 894,
      "Ġundertaking": 895,
      "Ġev": 896,
      "Ġquanti": 897,
      "get": 898,
      "com": 899,
      "ines": 900,
      "owever": 901,
      "Ġproducers": 902,
      "ected": 903,
      "velop": 904,
      "ters": 905,
      "Ġensure": 906,
      "Ġrest": 907,
      "lied": 908,
      "pr": 909,
      "erence": 910,
      "Ġissu": 911,
      "Ġques": 912,
      "Ġaddition": 913,
      "raw": 914,
      "Ġexpor": 915,
      "Ġplan": 916,
      "Ġdevelop": 917,
      "Ġdeterm": 918,
      "Ġgranted": 919,
      "Ġtake": 920,
      "land": 921,
      "Ġten": 922,
      "isation": 923,
      "Ġgener": 924,
      "Ġover": 925,
      "Ġindustry": 926,
      "Ġconcerning": 927,
      "Ġ22": 928,
      "ised": 929,
      "Ġinteres": 930,
      "sible": 931,
      "Ġentire": 932,
      "Ġaccording": 933,
      "tified": 934,
      "ise": 935,
      "Ġquestion": 936,
      "echn": 937,
      "Ġindic": 938,
      "Ġsame": 939,
      "Ġcustoms": 940,
      "Ġunit": 941,
      "Ġafter": 942,
      "Ġdoc": 943,
      "Ġsubject": 944,
      "ens": 945,
      "Ġnum": 946,
      "Ġcompetent": 947,
      "Ġtar": 948,
      "Ġ\"": 949,
      "ricult": 950,
      "fici": 951,
      "vention": 952,
      "ified": 953,
      "Ġmet": 954,
      "ight": 955,
      "Ġrepublic": 956,
      "ass": 957,
      "Ġbin": 958,
      "Ġdocu": 959,
      "Ġagricult": 960,
      "Ġregion": 961,
      "Ġ'": 962,
      "Ġcos": 963,
      "Ġext": 964,
      "Ġfr": 965,
      "Ġtender": 966,
      "Ġtw": 967,
      "Ġabove": 968,
      "Ġestablished": 969,
      "Ġ21": 970,
      "Ġpers": 971,
      "tig": 972,
      "Ġnumber": 973,
      "Ġparties": 974,
      "Ġmin": 975,
      "Ġdiff": 976,
      "Ġhad": 977,
      "illion": 978,
      "Ġdetail": 979,
      "Ġ18": 980,
      "ents": 981,
      "Ġsit": 982,
      "ered": 983,
      "onn": 984,
      "Ġquantities": 985,
      "Ġtechn": 986,
      "Ġrelev": 987,
      "âĢĺ": 988,
      "ons": 989,
      "ticles": 990,
      "92": 991,
      "Ġpropos": 992,
      "uation": 993,
      "Ġbinding": 994,
      "Ġbut": 995,
      "Ġcosts": 996,
      "Ġpr": 997,
      "Ġrepresent": 998,
      "Ġreplaced": 999,
      "Ġmanagement": 1000,
      "Ġmonth": 1001,
      "min": 1002,
      "Ġrequirements": 1003,
      "Ġdist": 1004,
      "Ġhowever": 1005,
      "ases": 1006,
      "Ġarticles": 1007,
      "Ġpresent": 1008,
      "Ġsect": 1009,
      "Ġavail": 1010,
      "ious": 1011,
      "Ġinvest": 1012,
      "Ġactiv": 1013,
      "Ġoct": 1014,
      "aus": 1015,
      "Ġ0": 1016,
      "Ġsche": 1017,
      "Ġtwo": 1018,
      "ian": 1019,
      "Ġwhen": 1020,
      "tal": 1021,
      "ending": 1022,
      "Ġentirety": 1023,
      "Ġdut": 1024,
      "Ġgiv": 1025,
      "93": 1026,
      "Ġem": 1027,
      "eding": 1028,
      "Ġgerm": 1029,
      "ces": 1030,
      "lus": 1031,
      "Ġview": 1032,
      "Ġfur": 1033,
      "gar": 1034,
      "ata": 1035,
      "Ġinvestig": 1036,
      "Ġcontain": 1037,
      "Ġterm": 1038,
      "ency": 1039,
      "Ġcontro": 1040,
      "ober": 1041,
      "Ġoctober": 1042,
      "idered": 1043,
      "Ġleg": 1044,
      "Ġnet": 1045,
      "Ġchar": 1046,
      "ace": 1047,
      "Ġqual": 1048,
      "Ġagricultural": 1049,
      "Ġwork": 1050,
      "Ġconsidered": 1051,
      "ms": 1052,
      "Ġsales": 1053,
      "Ġreduc": 1054,
      "Ġrem": 1055,
      "Ġprogramme": 1056,
      "Ġlaw": 1057,
      "Ġcompeti": 1058,
      "Ġ27": 1059,
      "Ġadv": 1060,
      "ome": 1061,
      "Ġsubmitted": 1062,
      "Ġro": 1063,
      "Ġche": 1064,
      "Ġmarketing": 1065,
      "tity": 1066,
      "Ġgoods": 1067,
      "Ġcor": 1068,
      "ption": 1069,
      "ium": 1070,
      "Ġcarri": 1071,
      "Ġbefore": 1072,
      "Ġben": 1073,
      "Ġrece": 1074,
      "ward": 1075,
      "Ġ00": 1076,
      "Ġ25": 1077,
      "Ġact": 1078,
      "Ġmak": 1079,
      "Ġver": 1080,
      "ements": 1081,
      "Ġoriginating": 1082,
      "Ġ23": 1083,
      "Ġtariff": 1084,
      "Ġavailable": 1085,
      "Ġstandard": 1086,
      "ances": 1087,
      "umping": 1088,
      "Ġwithout": 1089,
      "oper": 1090,
      "Ġpri": 1091,
      "ital": 1092,
      "atis": 1093,
      "**": 1094,
      "Ġmillion": 1095,
      "Ġty": 1096,
      "iti": 1097,
      "Ġjour": 1098,
      "ld": 1099,
      "Ġmarch": 1100,
      "til": 1101,
      "rang": 1102,
      "Ġconsid": 1103,
      "11": 1104,
      "Ġli": 1105,
      "isted": 1106,
      "Ġ2001": 1107,
      "Ġcompany": 1108,
      "Ġdata": 1109,
      "Ġdu": 1110,
      "Ġii": 1111,
      "Ġunion": 1112,
      "Ġauthority": 1113,
      "ased": 1114,
      "Ġservices": 1115,
      "Ġsign": 1116,
      "Ġcal": 1117,
      "ke": 1118,
      "Ġcertific": 1119,
      "Ġ1999": 1120,
      "ribution": 1121,
      "Ġfurther": 1122,
      "Ġgeneral": 1123,
      "Ġduty": 1124,
      "Ġdel": 1125,
      "hi": 1126,
      "Ġ24": 1127,
      "Ġjournal": 1128,
      "Ġgroup": 1129,
      "Ġresult": 1130,
      "Ġdetailed": 1131,
      "fact": 1132,
      "ext": 1133,
      "Ġobj": 1134,
      "inc": 1135,
      "Ġend": 1136,
      "Ġtotal": 1137,
      "Ġsecond": 1138,
      "Ġsubst": 1139,
      "Ġfund": 1140,
      "ention": 1141,
      "med": 1142,
      "Ġmain": 1143,
      "Ġsector": 1144,
      "ired": 1145,
      "Ġtonn": 1146,
      "Ġarrang": 1147,
      "vern": 1148,
      "Ġpublication": 1149,
      "ee": 1150,
      "Ġgiven": 1151,
      "Ġbel": 1152,
      "Ġrelevant": 1153,
      "Ġra": 1154,
      "Ġcontrol": 1155,
      "to": 1156,
      "Ġ.": 1157,
      "ects": 1158,
      "ences": 1159,
      "Ġ28": 1160,
      "ince": 1161,
      "br": 1162,
      "paragraph": 1163,
      "Ġ2002": 1164,
      "ged": 1165,
      "ounts": 1166,
      "aly": 1167,
      "Ġreference": 1168,
      "Ġmil": 1169,
      "Ġfact": 1170,
      "Ġadmin": 1171,
      "Ġgovern": 1172,
      "Ġlaying": 1173,
      "95": 1174,
      "Ġ2003": 1175,
      "Ġconf": 1176,
      "Ġinvestigation": 1177,
      "anies": 1178,
      "rig": 1179,
      "Ġ-": 1180,
      "ice": 1181,
      "Ġnon": 1182,
      "Ġinst": 1183,
      "irc": 1184,
      "Ġmax": 1185,
      "Ġcompanies": 1186,
      "Ġduties": 1187,
      "Ġapr": 1188,
      "Ġfl": 1189,
      "96": 1190,
      "vered": 1191,
      "Ġrelating": 1192,
      "Ġvalue": 1193,
      "Ġcovered": 1194,
      "Ġapril": 1195,
      "199": 1196,
      "roduc": 1197,
      "Ġhereby": 1198,
      "Ġdoes": 1199,
      "Ġexam": 1200,
      "Ġcountry": 1201,
      "Ġallow": 1202,
      "over": 1203,
      "alth": 1204,
      "Ġadminist": 1205,
      "Ġdevelopment": 1206,
      "mission": 1207,
      "Ġeur": 1208,
      "ptember": 1209,
      "Ġsubparagraph": 1210,
      "Ġter": 1211,
      "Ġmaximum": 1212,
      "Ġseptember": 1213,
      "Ġexc": 1214,
      "ressed": 1215,
      "Ġwho": 1216,
      "Ġyears": 1217,
      "Ġsugar": 1218,
      "old": 1219,
      "Ġimplementation": 1220,
      "arm": 1221,
      "88": 1222,
      "riter": 1223,
      "Ġassess": 1224,
      "Ġcontract": 1225,
      "ufact": 1226,
      "Ġprovide": 1227,
      "Ġ29": 1228,
      "Ġbeing": 1229,
      "rough": 1230,
      "Ġrate": 1231,
      ")(": 1232,
      "Ġcriter": 1233,
      "Ġreas": 1234,
      "Ġmeans": 1235,
      "ament": 1236,
      "wn": 1237,
      "Ġhealth": 1238,
      "Ġful": 1239,
      "Ġcooper": 1240,
      "Ġ2004": 1241,
      "Ġestablish": 1242,
      "Ġeffect": 1243,
      "Ġregards": 1244,
      "Ġvar": 1245,
      "Ġmanufact": 1246,
      "Ġpoint": 1247,
      "Ġarrangements": 1248,
      "ues": 1249,
      "Ġrequest": 1250,
      "arant": 1251,
      "Ġdifferen": 1252,
      "Ġvol": 1253,
      "Ġ26": 1254,
      "Ġdecl": 1255,
      "Ġlisted": 1256,
      "Ġshare": 1257,
      "che": 1258,
      "mber": 1259,
      "Ġquantity": 1260,
      "20": 1261,
      "Ġcarried": 1262,
      "ession": 1263,
      "Ġmilk": 1264,
      "Ġapplied": 1265,
      "vember": 1266,
      "Ġsince": 1267,
      "Ġnovember": 1268,
      "righ": 1269,
      "urren": 1270,
      "Ġactivities": 1271,
      "Ġcalc": 1272,
      "ges": 1273,
      "Ġsituation": 1274,
      "ization": 1275,
      "Ġfollows": 1276,
      "Ġapplications": 1277,
      "Ġ[": 1278,
      "Ġadditional": 1279,
      "Ġintervention": 1280,
      "Ġ197": 1281,
      "Ġtax": 1282,
      "af": 1283,
      "Ġmeet": 1284,
      "Ġbasic": 1285,
      "Ġterrit": 1286,
      "dom": 1287,
      "Ġoff": 1288,
      "Ġsubs": 1289,
      "94": 1290,
      "Ġprev": 1291,
      "Ġinf": 1292,
      "Ġcriteria": 1293,
      "mes": 1294,
      "ack": 1295,
      "Ġ2000": 1296,
      "Ġlicences": 1297,
      "iden": 1298,
      "Ġsupply": 1299,
      "Ġban": 1300,
      "Ġunited": 1301,
      "Ġ2006": 1302,
      "for": 1303,
      "Ġder": 1304,
      "Ġincluding": 1305,
      "ix": 1306,
      "13": 1307,
      "Ġspecial": 1308,
      "Ġguarant": 1309,
      "reg": 1310,
      "Ġdocument": 1311,
      "Ġrigh": 1312,
      "bruary": 1313,
      "Ġcompetition": 1314,
      "Ġking": 1315,
      "Ġfebruary": 1316,
      "Ġfree": 1317,
      "blig": 1318,
      "Ġsw": 1319,
      "Ġcould": 1320,
      "Ġkingdom": 1321,
      "Ġ1995": 1322,
      "Ġ1994": 1323,
      "Ġsecur": 1324,
      "Ġoblig": 1325,
      "ota": 1326,
      "ost": 1327,
      "ature": 1328,
      "Ġvess": 1329,
      "gin": 1330,
      "Ġrequired": 1331,
      "ration": 1332,
      "Ġdem": 1333,
      "ina": 1334,
      "Ġpurposes": 1335,
      "Ġtechnical": 1336,
      "12": 1337,
      "ateg": 1338,
      "Ġexist": 1339,
      "Ġprotection": 1340,
      "Ġpossible": 1341,
      "Ġown": 1342,
      "Ġwhether": 1343,
      "Ġconclud": 1344,
      "ized": 1345,
      "Ġthem": 1346,
      "Ġneed": 1347,
      "rac": 1348,
      "Ġ90": 1349,
      "Ġcirc": 1350,
      "Ġ2005": 1351,
      "Ġmater": 1352,
      "Ġ000": 1353,
      "ficient": 1354,
      "titut": 1355,
      "erc": 1356,
      "Ġ1993": 1357,
      "Ġleast": 1358,
      "ivid": 1359,
      "Ġanimals": 1360,
      "ep": 1361,
      "Ġthrough": 1362,
      "Ġprovides": 1363,
      "2001": 1364,
      "Ġtonnes": 1365,
      "1999": 1366,
      "Ġsupport": 1367,
      "Ġlist": 1368,
      "lusion": 1369,
      "Ġmaterial": 1370,
      "Ġthree": 1371,
      "ining": 1372,
      "Ġprof": 1373,
      "Ġinterest": 1374,
      "Ġmarkets": 1375,
      "Ġundertakings": 1376,
      "Ġreport": 1377,
      "Ġassist": 1378,
      "..": 1379,
      "Ġrespon": 1380,
      "tification": 1381,
      "ying": 1382,
      "Ġgermany": 1383,
      "Ġapproved": 1384,
      "Ġmeasure": 1385,
      "Ġmeth": 1386,
      "97": 1387,
      "Ġcurren": 1388,
      "acity": 1389,
      "gu": 1390,
      "Ġrev": 1391,
      "Ġproducer": 1392,
      "Ġcontin": 1393,
      "Ġris": 1394,
      "olog": 1395,
      "14": 1396,
      "ived": 1397,
      "68": 1398,
      "ange": 1399,
      "tives": 1400,
      "entioned": 1401,
      "Ġfall": 1402,
      "Ġtransport": 1403,
      "Ġissued": 1404,
      "Ġquota": 1405,
      "90": 1406,
      "Ġmake": 1407,
      "Ġport": 1408,
      "Ġz": 1409,
      "Ġlo": 1410,
      "ible": 1411,
      "Ġdesign": 1412,
      "plo": 1413,
      "Ġimpos": 1414,
      "Ġaff": 1415,
      "Ġconsider": 1416,
      "equ": 1417,
      "Ġscheme": 1418,
      "Ġ1992": 1419,
      "Ġbec": 1420,
      "Ġair": 1421,
      "Ġ1996": 1422,
      "ab": 1423,
      "Ġlet": 1424,
      "Ġagain": 1425,
      "98": 1426,
      "Ġareas": 1427,
      "oci": 1428,
      "ploy": 1429,
      "Ġcere": 1430,
      "Ġ1997": 1431,
      "Ġquot": 1432,
      "2003": 1433,
      "erg": 1434,
      "Ġnorm": 1435,
      "Ġmonths": 1436,
      "Ġenv": 1437,
      "Ġfac": 1438,
      "15": 1439,
      "Ġfood": 1440,
      "co": 1441,
      "incip": 1442,
      "Ġcases": 1443,
      "Ġhol": 1444,
      "Ġacce": 1445,
      "Ġintern": 1446,
      "efit": 1447,
      "Ġincrease": 1448,
      "Ġcover": 1449,
      "Ġuntil": 1450,
      "Ġiniti": 1451,
      "Ġplace": 1452,
      "Ġalloc": 1453,
      "Ġma": 1454,
      "Ġanti": 1455,
      "87": 1456,
      "Ġparli": 1457,
      "Ġchec": 1458,
      "inary": 1459,
      "Ġanimal": 1460,
      "Ġprincip": 1461,
      "Ġintended": 1462,
      "Ġinvit": 1463,
      "Ġ1998": 1464,
      "Ġless": 1465,
      "Ġparliament": 1466,
      "val": 1467,
      "Ġinvestment": 1468,
      "Ġfishing": 1469,
      "ared": 1470,
      "Ġbenefit": 1471,
      "66": 1472,
      "22": 1473,
      "ings": 1474,
      "Ġbod": 1475,
      "Ġbased": 1476,
      "Ġspecified": 1477,
      "ĠâĢĺ": 1478,
      "tical": 1479,
      "Ġpayment": 1480,
      "Ġjo": 1481,
      "Ġcapacity": 1482,
      "amp": 1483,
      "Ġminimum": 1484,
      "atory": 1485,
      "ulated": 1486,
      ");": 1487,
      "Ġpurpose": 1488,
      "Ġcontribution": 1489,
      "Ġpolic": 1490,
      "Ġ2007": 1491,
      "Ġassistance": 1492,
      "tice": 1493,
      "85": 1494,
      "Ġquality": 1495,
      "Ġmod": 1496,
      "Ġfram": 1497,
      "Ġadj": 1498,
      "Ġvolum": 1499,
      "Ġdefin": 1500,
      "resp": 1501,
      "Ġopen": 1502,
      "Ġorganisation": 1503,
      "Ġdom": 1504,
      "Ġarea": 1505,
      "aim": 1506,
      "Ġiden": 1507,
      "ause": 1508,
      "Ġstruct": 1509,
      "Ġobtain": 1510,
      "Ġprocessing": 1511,
      "Ġdisc": 1512,
      "ework": 1513,
      "Ġindivid": 1514,
      "Ġcommunic": 1515,
      "ificant": 1516,
      "Ġagreements": 1517,
      "Ġperson": 1518,
      "Ġmembers": 1519,
      "iron": 1520,
      "Ġsim": 1521,
      "Ġinj": 1522,
      "Ġregist": 1523,
      "fficient": 1524,
      "Ġstoc": 1525,
      "go": 1526,
      "Ġlong": 1527,
      "Ġframework": 1528,
      "Ġoperat": 1529,
      "Ġcomple": 1530,
      "urn": 1531,
      "air": 1532,
      "Ġcode": 1533,
      "Ġsecurity": 1534,
      "Ġdesc": 1535,
      "Ġlow": 1536,
      "Ġentry": 1537,
      "Ġpaid": 1538,
      "Ġagainst": 1539,
      "atter": 1540,
      "Ġlicence": 1541,
      "Ġservice": 1542,
      "verage": 1543,
      "Ġterritory": 1544,
      "uit": 1545,
      "84": 1546,
      "Ġsignificant": 1547,
      "Ġbus": 1548,
      "Ġproposal": 1549,
      "ently": 1550,
      "Ġregulations": 1551,
      "Ġclaim": 1552,
      "Ġgre": 1553,
      "2002": 1554,
      "Ġdraw": 1555,
      "abl": 1556,
      "Ġterms": 1557,
      "read": 1558,
      "Ġprocedures": 1559,
      "ingle": 1560,
      "not": 1561,
      "Ġsome": 1562,
      "Ġsus": 1563,
      "Ġinternational": 1564,
      "Ġamounts": 1565,
      "omp": 1566,
      "Ġcereals": 1567,
      "Ġnor": 1568,
      "iver": 1569,
      "iness": 1570,
      "Ġmed": 1571,
      "Ġrestric": 1572,
      "Ġ100": 1573,
      "Ġtype": 1574,
      "Ã©": 1575,
      "ety": 1576,
      "eld": 1577,
      "ately": 1578,
      "Ġagency": 1579,
      "titution": 1580,
      "mun": 1581,
      "Ġsaid": 1582,
      "Ġposition": 1583,
      "Ġgra": 1584,
      "ability": 1585,
      "rative": 1586,
      "Ġaverage": 1587,
      "Ġcost": 1588,
      "ite": 1589,
      "Ġexem": 1590,
      "Ġdetermined": 1591,
      "Ġexceed": 1592,
      "Ġquotas": 1593,
      "Ġspain": 1594,
      "Ġintroduc": 1595,
      "dumping": 1596,
      "Ġcour": 1597,
      "Ġmeaning": 1598,
      "25": 1599,
      "Ġiii": 1600,
      "Ġway": 1601,
      "ources": 1602,
      "ribut": 1603,
      "ither": 1604,
      "Ġassoci": 1605,
      "Ġrefunds": 1606,
      "Ġsubsid": 1607,
      "Ġrestruct": 1608,
      "Ġcoll": 1609,
      "Ġstat": 1610,
      "Ġparticip": 1611,
      "Ġwine": 1612,
      "Ġmanufacture": 1613,
      "30": 1614,
      "Ġvessels": 1615,
      "ification": 1616,
      "Ġreceived": 1617,
      "Ġderog": 1618,
      "Ġhigh": 1619,
      "60": 1620,
      "Ġadministrative": 1621,
      "Ġconstitut": 1622,
      "with": 1623,
      "Ġinvol": 1624,
      "Ġsingle": 1625,
      "Ġwell": 1626,
      "Ġecu": 1627,
      "rec": 1628,
      "Ġdifferent": 1629,
      "Ġmeat": 1630,
      "per": 1631,
      "ru": 1632,
      "Ġsaf": 1633,
      "Ġpres": 1634,
      "Ġelig": 1635,
      "40": 1636,
      "idence": 1637,
      "Ġpurch": 1638,
      "tics": 1639,
      "Ġshow": 1640,
      "iture": 1641,
      "Ġboth": 1642,
      "Ġconclusion": 1643,
      "2000": 1644,
      "Ġconcluded": 1645,
      "Ġbusiness": 1646,
      "Ġemploy": 1647,
      "ironment": 1648,
      "Ġprac": 1649,
      "ential": 1650,
      "Ġcorresp": 1651,
      "Ġclass": 1652,
      "Ġplant": 1653,
      "work": 1654,
      "Ġfound": 1655,
      "Ġoperations": 1656,
      "Ġreques": 1657,
      "Ġloc": 1658,
      "Ġresul": 1659,
      "Ġaddressed": 1660,
      "enditure": 1661,
      "Ġprior": 1662,
      "Ġrestructuring": 1663,
      "Ġprofit": 1664,
      "Ġsuppli": 1665,
      "Ġhaving": 1666,
      "Ġtransf": 1667,
      "Ġcateg": 1668,
      "Ġtaking": 1669,
      "Ġgovernment": 1670,
      "Ġsur": 1671,
      "Ġindividual": 1672,
      "uts": 1673,
      "Ġcomply": 1674,
      "Ġelect": 1675,
      "Ġenvironment": 1676,
      "Ġimplementing": 1677,
      "tim": 1678,
      "Ġfishe": 1679,
      "ories": 1680,
      "Ġexpenditure": 1681,
      "du": 1682,
      "Ġanaly": 1683,
      "Ġlar": 1684,
      "Ġrepresentative": 1685,
      "Ġportug": 1686,
      "Ġremain": 1687,
      "Ġproce": 1688,
      "cts": 1689,
      "Ġimpro": 1690,
      "Ġprovisional": 1691,
      "Ġlegal": 1692,
      "Ġkn": 1693,
      "Ġfrance": 1694,
      "itor": 1695,
      "Ġ1990": 1696,
      "Ġcle": 1697,
      "91": 1698,
      "Ġph": 1699,
      "Ġinjur": 1700,
      "Ġnotified": 1701,
      "Ġcooperation": 1702,
      "Ġimported": 1703,
      "75": 1704,
      "ten": 1705,
      "Ġfruit": 1706,
      "Ġveter": 1707,
      "Ġser": 1708,
      "Ġaction": 1709,
      "Ġregional": 1710,
      "Ġassessment": 1711,
      "Ġsm": 1712,
      "Ġ1991": 1713,
      "Ġadded": 1714,
      "Ġaug": 1715,
      "sp": 1716,
      "Ġcompli": 1717,
      "Ġaccess": 1718,
      "Ġcertificate": 1719,
      "Ġjus": 1720,
      "led": 1721,
      "umption": 1722,
      "Ġdefined": 1723,
      "Ġinvitation": 1724,
      "Ġaugust": 1725,
      "Ġ2008": 1726,
      "Ġamend": 1727,
      "Ġpolicy": 1728,
      "Ġprem": 1729,
      "86": 1730,
      "resh": 1731,
      "Ġwor": 1732,
      "Ġrisk": 1733,
      "ring": 1734,
      "Ġbu": 1735,
      "Ġnormal": 1736,
      "Ġguid": 1737,
      "Ġsoc": 1738,
      "Ġstor": 1739,
      "Ġmargin": 1740,
      "80": 1741,
      "hip": 1742,
      "ile": 1743,
      "ann": 1744,
      "Ġlab": 1745,
      "rench": 1746,
      "ien": 1747,
      "82": 1748,
      "lands": 1749,
      "Ġcannot": 1750,
      "Ġguarantee": 1751,
      "hic": 1752,
      "Ġfrench": 1753,
      "lling": 1754,
      "ft": 1755,
      "Ġfar": 1756,
      "Ġvolume": 1757,
      "Ġlimited": 1758,
      "ize": 1759,
      "Ġcapital": 1760,
      "Ġoil": 1761,
      "Ġproduced": 1762,
      "Ġvalid": 1763,
      "Ġinsp": 1764,
      "ables": 1765,
      "Ġinstitution": 1766,
      "Ġpow": 1767,
      "Ġaccordingly": 1768,
      "estic": 1769,
      "Ġindicated": 1770,
      "hib": 1771,
      "17": 1772,
      "Ġdeclar": 1773,
      "Ġdirect": 1774,
      "Ġsocial": 1775,
      "Ġsatis": 1776,
      "Ġcent": 1777,
      "Ġname": 1778,
      "Ġresults": 1779,
      "Ġpriv": 1780,
      "Ġmaj": 1781,
      "Ġreduction": 1782,
      "hen": 1783,
      "less": 1784,
      "other": 1785,
      "Ġstorage": 1786,
      "Ġrights": 1787,
      "Ġexper": 1788,
      "pes": 1789,
      "cc": 1790,
      "Ġcompens": 1791,
      "ival": 1792,
      "Ġsti": 1793,
      "Ġcontracts": 1794,
      "Ġexisting": 1795,
      "Ġaccession": 1796,
      "Ġce": 1797,
      "Ġlimits": 1798,
      "jud": 1799,
      "Ġnetwork": 1800,
      "Ġfacil": 1801,
      "Ġ50": 1802,
      "89": 1803,
      "Ġsection": 1804,
      "no": 1805,
      "ided": 1806,
      "Ġsale": 1807,
      "Ġpot": 1808,
      "Ġannual": 1809,
      "Ġvari": 1810,
      "la": 1811,
      "Ġeligible": 1812,
      "Ġcompar": 1813,
      "Ġveterinary": 1814,
      "Ġexch": 1815,
      "Ġmo": 1816,
      "Ġproceeding": 1817,
      "Ġreview": 1818,
      "Ġ92": 1819,
      "Ġbud": 1820,
      "Ġvehic": 1821,
      "Ġconsumption": 1822,
      "Ġletter": 1823,
      "Ġconsequ": 1824,
      "Ġcarry": 1825,
      "Ġrates": 1826,
      "ocol": 1827,
      "Ġdumping": 1828,
      "Ġcomb": 1829,
      "Ġprejud": 1830,
      "tify": 1831,
      "redit": 1832,
      "Ġfalling": 1833,
      "itive": 1834,
      "Ġcre": 1835,
      "con": 1836,
      "ify": 1837,
      "Ġnotification": 1838,
      "Ġu": 1839,
      "apter": 1840,
      "Ġworld": 1841,
      "Ġlike": 1842,
      "Ġdest": 1843,
      "Ġincreased": 1844,
      "ning": 1845,
      "unc": 1846,
      "Ġholding": 1847,
      "Ġoperation": 1848,
      "16": 1849,
      "Ġanalys": 1850,
      "lain": 1851,
      "Ġpersons": 1852,
      "2006": 1853,
      "Ġcn": 1854,
      "Ġdid": 1855,
      "Ġprotocol": 1856,
      "Ġreason": 1857,
      "Ġbudget": 1858,
      "pro": 1859,
      "Ġ1988": 1860,
      "ok": 1861,
      "ea": 1862,
      "Ġlight": 1863,
      "Ġ85": 1864,
      "Ġveget": 1865,
      "Ġmost": 1866,
      "Ġdocuments": 1867,
      "Ġexported": 1868,
      "Ġloan": 1869,
      "77": 1870,
      "ension": 1871,
      "acter": 1872,
      "way": 1873,
      "medi": 1874,
      "ually": 1875,
      "Ġ91": 1876,
      "Ġinjury": 1877,
      "ark": 1878,
      "2004": 1879,
      "Ġexporting": 1880,
      "Ġ40": 1881,
      "Ġdays": 1882,
      "Ġprejudice": 1883,
      "lation": 1884,
      "Ġconsum": 1885,
      "ving": 1886,
      "ful": 1887,
      "Ġcompliance": 1888,
      "Ġdue": 1889,
      "Ġvalues": 1890,
      "ready": 1891,
      "Ġgrant": 1892,
      "Ġmonitor": 1893,
      "Ġalready": 1894,
      "Ġadopt": 1895,
      "ercial": 1896,
      "Ġeither": 1897,
      "Ġclear": 1898,
      "Ġseed": 1899,
      "Ġlev": 1900,
      "ured": 1901,
      "Ġprec": 1902,
      "Ġoffice": 1903,
      "ectives": 1904,
      "hie": 1905,
      "23": 1906,
      "Ġachie": 1907,
      "ubl": 1908,
      "Ġinclude": 1909,
      "Ġrecord": 1910,
      "Ġsusp": 1911,
      "ares": 1912,
      "Ġconsult": 1913,
      "ets": 1914,
      "Ġfunds": 1915,
      "oss": 1916,
      "Ġprogrammes": 1917,
      "Ġexports": 1918,
      "Ġbecause": 1919,
      "Ġevidence": 1920,
      "Ġsufficient": 1921,
      "Ġfinal": 1922,
      "Ġital": 1923,
      "Ġhand": 1924,
      "Ġ1987": 1925,
      "Ġpoin": 1926,
      "Ġret": 1927,
      "ipment": 1928,
      "Ġcircum": 1929,
      "Ġthus": 1930,
      "83": 1931,
      "Ġresources": 1932,
      "ading": 1933,
      "Ġrepe": 1934,
      "Ġcharacter": 1935,
      "hol": 1936,
      "Ġhis": 1937,
      "Ġjoint": 1938,
      "Ġland": 1939,
      "Ġtable": 1940,
      "Ġconfir": 1941,
      "Ġdise": 1942,
      "Ġdomestic": 1943,
      "rice": 1944,
      "Ġcro": 1945,
      "ogn": 1946,
      "Ġ1989": 1947,
      "ral": 1948,
      "cent": 1949,
      "elf": 1950,
      "man": 1951,
      "Ġobjectives": 1952,
      "Ġfixing": 1953,
      "Ġequival": 1954,
      "Ġdecided": 1955,
      "Ġpermit": 1956,
      "Ġ80": 1957,
      "ises": 1958,
      "Ġadjust": 1959,
      "Ġ1986": 1960,
      "Ġcommercial": 1961,
      "app": 1962,
      "Ġlod": 1963,
      "ising": 1964,
      "alf": 1965,
      "Ġmajor": 1966,
      "Ġsold": 1967,
      "Ġlegis": 1968,
      "Ġapplying": 1969,
      "Ġstanding": 1970,
      "Ġsmall": 1971,
      "Ġpubl": 1972,
      "Ġreasons": 1973,
      "Ġinspection": 1974,
      "sibility": 1975,
      "Ġprohib": 1976,
      "Ġorganization": 1977,
      "Ġ35": 1978,
      "duce": 1979,
      "Ġchecks": 1980,
      "Ġfield": 1981,
      "Ġpack": 1982,
      "Ġregions": 1983,
      "Ġequal": 1984,
      "24": 1985,
      "ants": 1986,
      "Ġ87": 1987,
      "Ġcomments": 1988,
      "Ġbank": 1989,
      "Ġdecisions": 1990,
      "Ġeea": 1991,
      "Ġaccomp": 1992,
      "Ġloss": 1993,
      "Ġbal": 1994,
      "Ġinstru": 1995,
      "Ġcredit": 1996,
      "Ġrelated": 1997,
      "tern": 1998,
      "Ġfinancing": 1999,
      "ss": 2000,
      "Ġfour": 2001,
      "Ġrecogn": 2002,
      "Ġitalian": 2003,
      "81": 2004,
      "Ġsatisf": 2005,
      "Ġsent": 2006,
      "Ġcustomers": 2007,
      "Ġbelg": 2008,
      "35": 2009,
      "Ġevent": 2010,
      "Ġeffective": 2011,
      "ribed": 2012,
      "Ġstatis": 2013,
      "commun": 2014,
      "Ġtext": 2015,
      "Ġste": 2016,
      "mo": 2017,
      "rs": 2018,
      "rated": 2019,
      "Ġbeh": 2020,
      "Ġocc": 2021,
      "Ġ2009": 2022,
      "Ġpercent": 2023,
      "member": 2024,
      "Ġsubstances": 2025,
      "Ġlays": 2026,
      "raft": 2027,
      "Ġlater": 2028,
      "Ġexception": 2029,
      "Ġrice": 2030,
      "Ġreduced": 2031,
      "Ġauthorised": 2032,
      "table": 2033,
      "Ġanother": 2034,
      "Ġoperators": 2035,
      "ger": 2036,
      "Ġequipment": 2037,
      "ling": 2038,
      "Ġpe": 2039,
      "Ġgranting": 2040,
      "Ġbeef": 2041,
      "ily": 2042,
      "urance": 2043,
      "mentioned": 2044,
      "ages": 2045,
      "Ġobligations": 2046,
      "Ġsamp": 2047,
      "ron": 2048,
      "Ġaccep": 2049,
      "Ġlevels": 2050,
      "Ġstandards": 2051,
      "ung": 2052,
      "Ġgerman": 2053,
      "2007": 2054,
      "ientific": 2055,
      "Ġrequested": 2056,
      "atible": 2057,
      "des": 2058,
      "72": 2059,
      "Ġnature": 2060,
      "54": 2061,
      "Ġexchange": 2062,
      "ders": 2063,
      "Ġobjective": 2064,
      "Ġprevious": 2065,
      "Ġportugal": 2066,
      "Ġbre": 2067,
      "sc": 2068,
      "draw": 2069,
      "Ġconver": 2070,
      "Ġobtained": 2071,
      "Ġamending": 2072,
      "01": 2073,
      "Ġtenders": 2074,
      "Ġcalculated": 2075,
      "Ġestablishment": 2076,
      "Ġargu": 2077,
      "Ġheld": 2078,
      "Ġresponsible": 2079,
      "79": 2080,
      "more": 2081,
      "Ġhig": 2082,
      "Ġcontent": 2083,
      "Ġitaly": 2084,
      "Ġsubstan": 2085,
      "Ġscientific": 2086,
      "Ġlarge": 2087,
      "Ġdep": 2088,
      "Ġeven": 2089,
      "Ġequivalent": 2090,
      "Ġissue": 2091,
      "onding": 2092,
      "Ġsafety": 2093,
      "Ġfulf": 2094,
      "Ġextent": 2095,
      "ne": 2096,
      "71": 2097,
      "Ġmethod": 2098,
      "Ġproject": 2099,
      "Ġboard": 2100,
      "Ġestim": 2101,
      "Ġproposed": 2102,
      "Ġcircumst": 2103,
      "Ġvegetables": 2104,
      "Ġforward": 2105,
      "Ġcorresponding": 2106,
      "Ġrepeal": 2107,
      "Ġconcent": 2108,
      "sequ": 2109,
      "Ġte": 2110,
      "Ġconst": 2111,
      "Ġshares": 2112,
      "Ġadvance": 2113,
      "Ġbro": 2114,
      "Ġprocessed": 2115,
      "Ġmul": 2116,
      "Ġwithdraw": 2117,
      "Ġmaintain": 2118,
      "43": 2119,
      "Ġatt": 2120,
      "Ġregistered": 2121,
      "Ġfarm": 2122,
      "Ġlegislation": 2123,
      "ale": 2124,
      "io": 2125,
      "Ġharm": 2126,
      "Ġ93": 2127,
      "Ġdif": 2128,
      "Ġdeliver": 2129,
      "Ġbelow": 2130,
      "elines": 2131,
      "portion": 2132,
      "Ġpig": 2133,
      "rial": 2134,
      "Ġpol": 2135,
      "Ġcat": 2136,
      "2005": 2137,
      "ind": 2138,
      "Ġdiffic": 2139,
      "Ġcircumstances": 2140,
      "atives": 2141,
      "Ġprivate": 2142,
      "Ġpref": 2143,
      "Ġderogation": 2144,
      "Ġnat": 2145,
      "regulation": 2146,
      "Ġproper": 2147,
      "Ġmonitoring": 2148,
      "Ġshown": 2149,
      "Ġdeclaration": 2150,
      "Ġiv": 2151,
      "Ġlin": 2152,
      "Ġcurrent": 2153,
      "Ġacqu": 2154,
      "Ġspecies": 2155,
      "ins": 2156,
      "ilar": 2157,
      "18": 2158,
      "Ġprevent": 2159,
      "Ġanalysis": 2160,
      "ees": 2161,
      "Ġconform": 2162,
      "Ġrespective": 2163,
      "Ġguidelines": 2164,
      "50": 2165,
      "ound": 2166,
      "unction": 2167,
      "inal": 2168,
      "Ġpoints": 2169,
      "Ġworking": 2170,
      "Ġstr": 2171,
      "Ġvi": 2172,
      "Ġpercentage": 2173,
      "Ġsta": 2174,
      "Ġpremium": 2175,
      "Ġbutter": 2176,
      "Ġsepar": 2177,
      "anish": 2178,
      "ited": 2179,
      "Ġ1985": 2180,
      "eder": 2181,
      "urred": 2182,
      "Ġge": 2183,
      "goti": 2184,
      "Ġaward": 2185,
      "Ġexamination": 2186,
      "ux": 2187,
      "Ġput": 2188,
      "Ġimmedi": 2189,
      "ys": 2190,
      "ked": 2191,
      "commission": 2192,
      "Ġbody": 2193,
      "27": 2194,
      "anta": 2195,
      "Ġeval": 2196,
      "26": 2197,
      "meat": 2198,
      "avour": 2199,
      "Ġresulting": 2200,
      "Ġimprove": 2201,
      "Ġincluded": 2202,
      "Ġtypes": 2203,
      "acc": 2204,
      "Ġorganis": 2205,
      "Ġsystems": 2206,
      "Ġimposed": 2207,
      "Ġ%.": 2208,
      "Ġparty": 2209,
      "Ġsimilar": 2210,
      "vine": 2211,
      "Ġtechnolog": 2212,
      "Ġdistribution": 2213,
      "ton": 2214,
      "ough": 2215,
      "Ġimporters": 2216,
      "Ġaust": 2217,
      "aren": 2218,
      "ope": 2219,
      "Ġallocated": 2220,
      "Ġouts": 2221,
      "Ġperform": 2222,
      "Ġhereto": 2223,
      "Ġappear": 2224,
      "Ġconsist": 2225,
      "Ġshe": 2226,
      "Ġ33": 2227,
      "Ġchan": 2228,
      "Ġstar": 2229,
      "Ġnegoti": 2230,
      "Ġexemption": 2231,
      "Ġeng": 2232,
      "Ġsurve": 2233,
      "uman": 2234,
      "Ġproportion": 2235,
      "Ġindep": 2236,
      "Ġindepend": 2237,
      "Ġsup": 2238,
      "55": 2239,
      "Ġoperating": 2240,
      "Ġsubsequ": 2241,
      "Ġnatural": 2242,
      "Ġstocks": 2243,
      "Ġtransfer": 2244,
      "Ġactive": 2245,
      "ania": 2246,
      "inafter": 2247,
      "eur": 2248,
      "Ġable": 2249,
      "Ġinterested": 2250,
      "Ġmentioned": 2251,
      "Ġinformed": 2252,
      "Ġeffects": 2253,
      "emb": 2254,
      "Ġcompetit": 2255,
      "Ġproj": 2256,
      "Ġtem": 2257,
      "Ġopp": 2258,
      "ports": 2259,
      "part": 2260,
      "Ġcertificates": 2261,
      "76": 2262,
      "Ġer": 2263,
      "Ġinternal": 2264,
      "70": 2265,
      "31": 2266,
      "Ġhuman": 2267,
      "Ġimpact": 2268,
      "Ġcop": 2269,
      "earch": 2270,
      "Ġir": 2271,
      "uff": 2272,
      "Ġtransac": 2273,
      "Ġdefinition": 2274,
      "herlands": 2275,
      "Ġaffect": 2276,
      "34": 2277,
      "Ġobs": 2278,
      "mark": 2279,
      "tis": 2280,
      "Ġvarious": 2281,
      "Ġbene": 2282,
      "Ġsteel": 2283,
      "Ġconsiders": 2284,
      "encies": 2285,
      "ken": 2286,
      "Ġship": 2287,
      "Ġraw": 2288,
      "Ġcol": 2289,
      "Ġdescribed": 2290,
      "Ġswed": 2291,
      "Ġenerg": 2292,
      "Ġabovementioned": 2293,
      "Ġabs": 2294,
      "istics": 2295,
      "Ġscope": 2296,
      "Ġbodies": 2297,
      "Ġhigher": 2298,
      "Ġdisease": 2299,
      "Ġapplicant": 2300,
      "Ġfresh": 2301,
      "Ġconn": 2302,
      "stuff": 2303,
      "Ġfive": 2304,
      "Ġwhose": 2305,
      "Ġess": 2306,
      "Ġnetherlands": 2307,
      "Ġcourt": 2308,
      "cess": 2309,
      "Ġdeem": 2310,
      "Ġden": 2311,
      "ograph": 2312,
      "Ġregarding": 2313,
      "Ġmethods": 2314,
      "Ġapproval": 2315,
      "ache": 2316,
      "Ġweigh": 2317,
      "Ġlodged": 2318,
      "Ġprinciple": 2319,
      "Ġtreatment": 2320,
      "Ġvery": 2321,
      "Ġindustrial": 2322,
      "29": 2323,
      "Ġfull": 2324,
      "Ġsix": 2325,
      "Ġentered": 2326,
      "Ġren": 2327,
      "Ġusing": 2328,
      "ially": 2329,
      "Ġdetermine": 2330,
      "ires": 2331,
      "Ġmeeting": 2332,
      "19": 2333,
      "rim": 2334,
      "Ġadap": 2335,
      "65": 2336,
      "Ġdefinitive": 2337,
      "iii": 2338,
      "Ġbor": 2339,
      "Ġsuperv": 2340,
      "community": 2341,
      "Ġcontaining": 2342,
      "where": 2343,
      "Ġright": 2344,
      "Ġactual": 2345,
      "Ġpayments": 2346,
      "Ġlaws": 2347,
      "Ġenergy": 2348,
      "amending": 2349,
      "Ġweight": 2350,
      "Ġbenefici": 2351,
      "Ġoverall": 2352,
      "Ġaccounts": 2353,
      "Ġannexes": 2354,
      "Ġdrawn": 2355,
      "Ġwrit": 2356,
      "Ġsel": 2357,
      "Ġwhole": 2358,
      "Ġaustri": 2359,
      "Ġauthorisation": 2360,
      "Ġlower": 2361,
      "Ġcaus": 2362,
      "Ġwhile": 2363,
      "Ġresearch": 2364,
      "ato": 2365,
      "ned": 2366,
      "Ġauthorized": 2367,
      "Ġconsign": 2368,
      "Ġcontinu": 2369,
      "Ġcharacteristics": 2370,
      "Ġcoord": 2371,
      "Ġstructural": 2372,
      "Ġreturn": 2373,
      "pl": 2374,
      "Ġrelation": 2375,
      "ches": 2376,
      "Ġparagraphs": 2377,
      "Ġnotice": 2378,
      "atest": 2379,
      "Ġip": 2380,
      "Ġbalance": 2381,
      "Ġactivity": 2382,
      "lies": 2383,
      "ivered": 2384,
      "Ġcategory": 2385,
      "Ġaccepted": 2386,
      "Ġpublished": 2387,
      "Ġprojects": 2388,
      "Ġdelivered": 2389,
      "Ġsol": 2390,
      "Ġsever": 2391,
      "Ġinvolved": 2392,
      "Ġrecital": 2393,
      "Ġaim": 2394,
      "...": 2395,
      "Ġfisheries": 2396,
      "Ġabout": 2397,
      "anding": 2398,
      "Ġwat": 2399,
      "alled": 2400,
      "Ġexclud": 2401,
      "Ġprepar": 2402,
      "Ġinfring": 2403,
      "stuffs": 2404,
      "Ġexpressed": 2405,
      "asing": 2406,
      "lusive": 2407,
      "Ġeg": 2408,
      "Ġaud": 2409,
      "ece": 2410,
      "Ġfig": 2411,
      "Ġknown": 2412,
      "Ġvehicles": 2413,
      "Ġcontinue": 2414,
      "Ġresid": 2415,
      "Ġcomplain": 2416,
      "Ġpreferen": 2417,
      "ists": 2418,
      "xim": 2419,
      "ats": 2420,
      "Ġ1984": 2421,
      "Ġmaterials": 2422,
      "Ġindent": 2423,
      "62": 2424,
      "Ġentit": 2425,
      "Ġtransition": 2426,
      "oid": 2427,
      "aged": 2428,
      "anied": 2429,
      "Ġdeemed": 2430,
      "ner": 2431,
      "Ġpromo": 2432,
      "umped": 2433,
      "Ġtraining": 2434,
      "Ġsk": 2435,
      "lements": 2436,
      "Ġbovine": 2437,
      "Ġobligation": 2438,
      "Ġx": 2439,
      "Ġoli": 2440,
      "Ġoffer": 2441,
      "Ġgroups": 2442,
      "Ġdifference": 2443,
      "Ġconvention": 2444,
      "Ġfurthermore": 2445,
      "aging": 2446,
      "Ġ70": 2447,
      "Ġground": 2448,
      "Ġplants": 2449,
      "Ġceil": 2450,
      "Ġaccompanied": 2451,
      "Ġchina": 2452,
      "Ġupon": 2453,
      "Ġstock": 2454,
      "Ġlatest": 2455,
      "Ġsupplement": 2456,
      "isory": 2457,
      "td": 2458,
      "Ġpresented": 2459,
      "establ": 2460,
      "Â°": 2461,
      "Ġsubmission": 2462,
      "ming": 2463,
      "Ġdated": 2464,
      "Ġslo": 2465,
      "Ġconstitute": 2466,
      "lu": 2467,
      "Ġoutside": 2468,
      "cy": 2469,
      "Ġseveral": 2470,
      "ones": 2471,
      "45": 2472,
      "aries": 2473,
      "Ġdumped": 2474,
      "Ġcombined": 2475,
      "Ġlikely": 2476,
      "Ġconfirmed": 2477,
      "Ġtempor": 2478,
      "illed": 2479,
      "Ġline": 2480,
      "Ġcontained": 2481,
      "Ġlatter": 2482,
      "Ġdestination": 2483,
      "Ġperiods": 2484,
      "Ġinteg": 2485,
      "Ġincurred": 2486,
      "Ġeec": 2487,
      "ds": 2488,
      "Ġ95": 2489,
      "Ġdemand": 2490,
      "Ġnom": 2491,
      "ription": 2492,
      "Ġadvanta": 2493,
      "ireland": 2494,
      "Ġassociation": 2495,
      "dings": 2496,
      "Ġparts": 2497,
      "Ġfavour": 2498,
      "Ġassets": 2499,
      "Ġtoget": 2500,
      "Ġtogether": 2501,
      "Ġ36": 2502,
      "yl": 2503,
      "Ġrecover": 2504,
      "Ġ60": 2505,
      "Ġcontribut": 2506,
      "its": 2507,
      "Ġtele": 2508,
      "Ġnotify": 2509,
      "Ġwaters": 2510,
      "Ġinsurance": 2511,
      "Ġregul": 2512,
      "Ġbehalf": 2513,
      "Ġgrow": 2514,
      "Ġcodes": 2515,
      "42": 2516,
      "Ġexporters": 2517,
      "Ġtex": 2518,
      "Ġserious": 2519,
      "âĢ¦": 2520,
      "az": 2521,
      "Ġpass": 2522,
      "Ġaccept": 2523,
      "Ġbelgium": 2524,
      "Ġconsequently": 2525,
      "Ġfre": 2526,
      "ourg": 2527,
      "Ġdeb": 2528,
      "line": 2529,
      "fin": 2530,
      "47": 2531,
      "lying": 2532,
      "Ġproviding": 2533,
      "Ġbear": 2534,
      "eed": 2535,
      "Ġsum": 2536,
      "Ġgive": 2537,
      "round": 2538,
      "Ġsupplied": 2539,
      "Ġchange": 2540,
      "Ġmat": 2541,
      "ene": 2542,
      "Ġmove": 2543,
      "Ġmoreover": 2544,
      "encl": 2545,
      "Ġchapter": 2546,
      "Ġindependent": 2547,
      "ultry": 2548,
      "Ġmut": 2549,
      "Ġinstitutions": 2550,
      "Ġturn": 2551,
      "Ġ,": 2552,
      "Ġstaff": 2553,
      "Ġimmediately": 2554,
      "Ġapproxim": 2555,
      "Ġcontext": 2556,
      "Ġimportation": 2557,
      "Ġnomencl": 2558,
      "Ġfirms": 2559,
      "Ġstated": 2560,
      "Ġlocal": 2561,
      "Ġproceedings": 2562,
      "lled": 2563,
      "Ġdecre": 2564,
      "educ": 2565,
      "Ġfeder": 2566,
      "ister": 2567,
      "***": 2568,
      "Ġgeograph": 2569,
      "Ġlonger": 2570,
      "Ġspanish": 2571,
      "Ġnomenclature": 2572,
      "Ġdele": 2573,
      "...]": 2574,
      "bur": 2575,
      "Ġenvironmental": 2576,
      "Ġnoted": 2577,
      "Ġinvestments": 2578,
      "Ġpoultry": 2579,
      "Ġ**": 2580,
      "Ġbul": 2581,
      "atic": 2582,
      "Ġdispos": 2583,
      "Ġsweden": 2584,
      "Ġireland": 2585,
      "Ġagencies": 2586,
      "Ġur": 2587,
      "Ġcompetitors": 2588,
      "Ġgoverning": 2589,
      "Ġplac": 2590,
      "Ġagreed": 2591,
      "32": 2592,
      "Ġ*****": 2593,
      "ched": 2594,
      "omm": 2595,
      "Ġopport": 2596,
      "ices": 2597,
      "Ġessential": 2598,
      "Ġtend": 2599,
      "sive": 2600,
      "Ġvis": 2601,
      "Ġcompensation": 2602,
      "Ġfut": 2603,
      "Ġpossibility": 2604,
      "Ġemployment": 2605,
      "Ġimportant": 2606,
      "Ġconversion": 2607,
      "Ġear": 2608,
      "Ġ32": 2609,
      "Ġcompon": 2610,
      "Ġcirculation": 2611,
      "ronic": 2612,
      "Ġdetermining": 2613,
      "Ġopportun": 2614,
      "Ġadministration": 2615,
      "ison": 2616,
      "Ġtit": 2617,
      "ib": 2618,
      "Ġstill": 2619,
      "Ġneg": 2620,
      "Ġhy": 2621,
      "Ġelectric": 2622,
      "see": 2623,
      "rams": 2624,
      "outh": 2625,
      "Ġcalculation": 2626,
      "Ġinstruments": 2627,
      "52": 2628,
      ".'": 2629,
      "Ġltd": 2630,
      "laugh": 2631,
      "Ġavoid": 2632,
      "Ġparticularly": 2633,
      "Ġschemes": 2634,
      "Ġexcept": 2635,
      "na": 2636,
      "Ġextended": 2637,
      "Ġkil": 2638,
      "Ġdur": 2639,
      "78": 2640,
      "Ġdeal": 2641,
      "Ġrepealed": 2642,
      "usted": 2643,
      "Ġdecide": 2644,
      "Ġfores": 2645,
      "Ġadoption": 2646,
      "Ġslaugh": 2647,
      "Ġfuture": 2648,
      "produc": 2649,
      "Ġpurchase": 2650,
      "Ġpotential": 2651,
      "Ġselling": 2652,
      "Ġtransitional": 2653,
      "Ġharmon": 2654,
      "Ġamong": 2655,
      "Ġcategories": 2656,
      "Ġrelevance": 2657,
      "hentic": 2658,
      "Ġallocation": 2659,
      "Ġoriginal": 2660,
      "tail": 2661,
      "Ġexclusive": 2662,
      "Ġgreece": 2663,
      "uxemb": 2664,
      "Ġimplemented": 2665,
      "Ġfunction": 2666,
      "Ġmatter": 2667,
      "Ġauthentic": 2668,
      "Ġfactors": 2669,
      "Ġ88": 2670,
      "Ġmal": 2671,
      "Ġtest": 2672,
      "Ġflag": 2673,
      "Ġdepart": 2674,
      "Ġmedic": 2675,
      "Ġdiv": 2676,
      "Ġrecip": 2677,
      "Ġprinciples": 2678,
      "tially": 2679,
      "reng": 2680,
      "Ġfish": 2681,
      "rup": 2682,
      "Ġcompatible": 2683,
      "uxembourg": 2684,
      "Ġdisp": 2685,
      "Ġitself": 2686,
      "Ġinterests": 2687,
      "Ġprogramming": 2688,
      "Ġbran": 2689,
      "Ġconta": 2690,
      "Ġaustria": 2691,
      "ps": 2692,
      "Ġdescription": 2693,
      "Ġaltern": 2694,
      "Ġlead": 2695,
      "Ġstreng": 2696,
      "Ġconsideration": 2697,
      "Ġproble": 2698,
      "mon": 2699,
      "Ġ%,": 2700,
      "21": 2701,
      "Ġusers": 2702,
      "46": 2703,
      "Ġconduc": 2704,
      "ĠÃ": 2705,
      "Ġenable": 2706,
      "Ġclos": 2707,
      "Ġintroduced": 2708,
      "Ġstip": 2709,
      "ateral": 2710,
      "Ġrespectively": 2711,
      "Ġchem": 2712,
      "Ġbar": 2713,
      "Ġconformity": 2714,
      "Ġparticipation": 2715,
      "erted": 2716,
      "ners": 2717,
      "ple": 2718,
      "standing": 2719,
      "Ġvia": 2720,
      "Ġelectronic": 2721,
      "36": 2722,
      "28": 2723,
      "Ġegg": 2724,
      "Ġappo": 2725,
      "bo": 2726,
      "Ġpeop": 2727,
      "ouse": 2728,
      "Ġoperator": 2729,
      "ached": 2730,
      "Ġchanges": 2731,
      "Ġvir": 2732,
      "37": 2733,
      "ie": 2734,
      "atom": 2735,
      "Ġolive": 2736,
      "Ġ;": 2737,
      "bre": 2738,
      "Ġfacilit": 2739,
      "58": 2740,
      "Ġfail": 2741,
      "Ġpower": 2742,
      "ho": 2743,
      "ai": 2744,
      "Ġtas": 2745,
      "rate": 2746,
      "wards": 2747,
      "Ġsa": 2748,
      "Ġalco": 2749,
      "onst": 2750,
      "Ġzone": 2751,
      "39": 2752,
      "Ġcompetitive": 2753,
      "itial": 2754,
      "Ġadver": 2755,
      "âĢ¦]": 2756,
      "Ġevaluation": 2757,
      "Ġ[...]": 2758,
      "49": 2759,
      "Ġpeople": 2760,
      "uch": 2761,
      "Ġluxembourg": 2762,
      "Ġregular": 2763,
      "inated": 2764,
      "Ġpartners": 2765,
      "100": 2766,
      "Ġunless": 2767,
      "Ġremo": 2768,
      "Ġabsence": 2769,
      "ological": 2770,
      "Ġactually": 2771,
      "Ġnegotiations": 2772,
      "Ġpractice": 2773,
      "Ġcentral": 2774,
      "02": 2775,
      "Ġword": 2776,
      "Ġgas": 2777,
      "ient": 2778,
      "text": 2779,
      "ident": 2780,
      "ret": 2781,
      "Ġfer": 2782,
      "tices": 2783,
      "Ġconnection": 2784,
      "Ġbenefits": 2785,
      "59": 2786,
      "Ġfishery": 2787,
      "Ġloans": 2788,
      "however": 2789,
      "Ġsubsidi": 2790,
      "Ġ37": 2791,
      "Ġretail": 2792,
      "ute": 2793,
      "Ġcompared": 2794,
      "Ġfoot": 2795,
      "Ġaf": 2796,
      "Ġinitial": 2797,
      "mb": 2798,
      "Ġopened": 2799,
      "Ġrecomm": 2800,
      "Ġlevy": 2801,
      "Ġdirectives": 2802,
      "ience": 2803,
      "ught": 2804,
      "Ġke": 2805,
      "Ġsitu": 2806,
      "echan": 2807,
      "Ġstatement": 2808,
      "Ġactions": 2809,
      "Ġunits": 2810,
      "ixing": 2811,
      "Ġtren": 2812,
      "2008": 2813,
      "Ġexceeding": 2814,
      "Ġwaste": 2815,
      "ica": 2816,
      "Ġaddress": 2817,
      "Ġstatistical": 2818,
      "Ġkilog": 2819,
      "elves": 2820,
      "Ġintroduction": 2821,
      "eties": 2822,
      "Ġregarded": 2823,
      "mselves": 2824,
      "Ġthemselves": 2825,
      "Ġoffered": 2826,
      "Ġsubstantial": 2827,
      ".\"": 2828,
      "Ġmaking": 2829,
      "Ġrepresentatives": 2830,
      "48": 2831,
      "appro": 2832,
      "Ġfindings": 2833,
      "Ġmechan": 2834,
      "Ġseparate": 2835,
      "Ġcurrently": 2836,
      "Ġexpected": 2837,
      "Ġcopy": 2838,
      "izations": 2839,
      "Ġhead": 2840,
      "Ġelements": 2841,
      "Ġlosses": 2842,
      "rast": 2843,
      "Ġwhol": 2844,
      "Ġpoland": 2845,
      "term": 2846,
      "Ġexamined": 2847,
      "Ġsuccess": 2848,
      "Ġletters": 2849,
      "Ġcharged": 2850,
      "Ġobserv": 2851,
      "Ġconstruc": 2852,
      "Ġran": 2853,
      "Ġreal": 2854,
      "Ġdelivery": 2855,
      "ese": 2856,
      "Ġveal": 2857,
      "Ġuk": 2858,
      "Ġstud": 2859,
      "Ġpackaging": 2860,
      "33": 2861,
      "Ġfirm": 2862,
      "ditional": 2863,
      "Ġthereto": 2864,
      "69": 2865,
      "though": 2866,
      "hereinafter": 2867,
      "Ġreached": 2868,
      "Ġdemonst": 2869,
      "Ġstructure": 2870,
      "Ġvessel": 2871,
      "iry": 2872,
      "Ġalthough": 2873,
      "Ġamendments": 2874,
      "Ġconsumer": 2875,
      "chapter": 2876,
      "67": 2877,
      "Ġever": 2878,
      "ek": 2879,
      "Ġreser": 2880,
      "Ġkg": 2881,
      "tered": 2882,
      "Ġexcess": 2883,
      "Ġprogress": 2884,
      "po": 2885,
      "Ġorganisations": 2886,
      "Ġsubstance": 2887,
      "Ġ75": 2888,
      "Ġrom": 2889,
      "Ġdesignated": 2890,
      "Ġexerc": 2891,
      "Ġcounter": 2892,
      "ipp": 2893,
      "Ġauthorization": 2894,
      "ptions": 2895,
      "Ġclose": 2896,
      "Ġpreferential": 2897,
      "Ġliqu": 2898,
      "Ġ34": 2899,
      "Ġchair": 2900,
      "Ġopening": 2901,
      "Ġmulti": 2902,
      "Ġsole": 2903,
      "tra": 2904,
      "Ġcourse": 2905,
      "Ġcoal": 2906,
      "Ġsize": 2907,
      "Ġrequires": 2908,
      "Ġwater": 2909,
      "Ġallowed": 2910,
      "74": 2911,
      "Ġmodel": 2912,
      "atch": 2913,
      "Ġachieve": 2914,
      "Ġfederal": 2915,
      "Ġmach": 2916,
      "Ġenc": 2917,
      "Ġ89": 2918,
      "Ġformal": 2919,
      "Ġrestrictions": 2920,
      "Ġsuppliers": 2921,
      "bilities": 2922,
      "Ġrecorded": 2923,
      "Ġconsumers": 2924,
      "Ġtel": 2925,
      "Ġcompleted": 2926,
      "Ġmajority": 2927,
      "Ġturnover": 2928,
      "Ġmedicinal": 2929,
      "Ġdraft": 2930,
      "Ġtendere": 2931,
      ".âĢĻ": 2932,
      "illance": 2933,
      "Ġfinland": 2934,
      "Ġrequirement": 2935,
      "Ġrefl": 2936,
      "arent": 2937,
      "bs": 2938,
      "Ġproof": 2939,
      "Ġvarieties": 2940,
      "Ġkee": 2941,
      "iving": 2942,
      "Ġestimated": 2943,
      "Ġhar": 2944,
      "Ġsubsequent": 2945,
      "ides": 2946,
      "ifying": 2947,
      "Ġdistribut": 2948,
      "Ġtemporary": 2949,
      "Ġregistration": 2950,
      "Ġdri": 2951,
      "Ġidentified": 2952,
      "Ġstage": 2953,
      "Ġpreceding": 2954,
      "use": 2955,
      "Ġcomplete": 2956,
      "Ġdelay": 2957,
      "Ġ)": 2958,
      "only": 2959,
      "after": 2960,
      "Ġdifferences": 2961,
      "Ġregulatory": 2962,
      "Ġthen": 2963,
      "Ġgrounds": 2964,
      "orts": 2965,
      "Ġshort": 2966,
      "Ġwines": 2967,
      "Ġmight": 2968,
      "Ġsurveillance": 2969,
      "Ġ1983": 2970,
      "Ġstrateg": 2971,
      "Ġintra": 2972,
      "Ġswine": 2973,
      "Ġplaced": 2974,
      "38": 2975,
      "Ġsell": 2976,
      "fixing": 2977,
      "iform": 2978,
      "Ġbroad": 2979,
      "Ġdenmark": 2980,
      "Ġforms": 2981,
      "Ġadjustment": 2982,
      "Ġ&": 2983,
      "Ġreports": 2984,
      "Ġclaimed": 2985,
      "Ġadjusted": 2986,
      "Ġadvantage": 2987,
      "Ġenterpr": 2988,
      "Ġdisti": 2989,
      "Ġapplies": 2990,
      "Ġjud": 2991,
      "Ġknow": 2992,
      "Ġ96": 2993,
      "ably": 2994,
      "Ġbring": 2995,
      "Ġfulfil": 2996,
      "Ġbuil": 2997,
      "umn": 2998,
      "Ġcomparison": 2999,
      "Ġadequ": 3000,
      "Ġdeclared": 3001,
      "ather": 3002,
      "Ġneeds": 3003,
      "Ġcy": 3004,
      "iation": 3005,
      "Ġkeep": 3006,
      "Ġtitle": 3007,
      "Ġmot": 3008,
      "ced": 3009,
      "Ġreasonable": 3010,
      "tative": 3011,
      "Ġcommunication": 3012,
      "Ġatta": 3013,
      "Ġbeneficiary": 3014,
      "Ġincor": 3015,
      "Ġcz": 3016,
      "Ġflying": 3017,
      "Ġbl": 3018,
      "Ġfully": 3019,
      "Ġkilograms": 3020,
      "Ġpractices": 3021,
      "Ġvalidity": 3022,
      "apan": 3023,
      "Ġjustified": 3024,
      "Ġlive": 3025,
      "Ġfeed": 3026,
      "eu": 3027,
      "Ġalle": 3028,
      "Ġcaused": 3029,
      "Ġexistence": 3030,
      "73": 3031,
      "Ġ94": 3032,
      "64": 3033,
      "Ġcalcul": 3034,
      "Ġwhat": 3035,
      "Ġlia": 3036,
      "Ġplacing": 3037,
      "ash": 3038,
      "eng": 3039,
      "Ġrecovery": 3040,
      "Ġvehicle": 3041,
      "Ġquar": 3042,
      "Ġincomp": 3043,
      "Ġbi": 3044,
      "Ġevery": 3045,
      "reshold": 3046,
      "Ġaround": 3047,
      "Ġguarantees": 3048,
      "annex": 3049,
      "Ġpost": 3050,
      "arily": 3051,
      "Ġsignificantly": 3052,
      "ported": 3053,
      "Ġaffected": 3054,
      "Ġrelations": 3055,
      "Ġtechnology": 3056,
      "Ġtexti": 3057,
      "Ġfil": 3058,
      "Ġachieved": 3059,
      "ulties": 3060,
      "Ġcommunicate": 3061,
      "Ġadapt": 3062,
      "wise": 3063,
      "Ġ1260": 3064,
      "Ġreim": 3065,
      "Ġthreshold": 3066,
      "Ġwhite": 3067,
      "Ġfacilities": 3068,
      "Ġsupplies": 3069,
      "Ġdifficulties": 3070,
      "Ġonce": 3071,
      "Ġcoordination": 3072,
      "Ġperformance": 3073,
      "Ġjapan": 3074,
      "Ġsetting": 3075,
      "ick": 3076,
      "oice": 3077,
      "Ġbillion": 3078,
      "Ġcorrespond": 3079,
      "Ġtransactions": 3080,
      "Ġclearly": 3081,
      "51": 3082,
      "be": 3083,
      "Ġtook": 3084,
      "Ġczech": 3085,
      "Ġotherwise": 3086,
      "Ġslaughter": 3087,
      "vak": 3088,
      "Ġcolumn": 3089,
      "Ġdi": 3090,
      "Ġasp": 3091,
      "notified": 3092,
      "Ġsoon": 3093,
      "Ġ300": 3094,
      "Ġcharge": 3095,
      "Ġaccounting": 3096,
      "Ġproblems": 3097,
      "Ġsharehol": 3098,
      "Ġduration": 3099,
      "Ġreduce": 3100,
      "Ġprim": 3101,
      "ism": 3102,
      "Ġsectors": 3103,
      "Ġdifficult": 3104,
      "Ġmanner": 3105,
      "Ġali": 3106,
      "comp": 3107,
      "Ġexperience": 3108,
      "Ġinflu": 3109,
      "Ġcross": 3110,
      "Ġharves": 3111,
      "Ġbegin": 3112,
      "Ġstatistics": 3113,
      "Ġexpiry": 3114,
      "Ġ1766": 3115,
      "ems": 3116,
      "Ġweighted": 3117,
      "Ġstatus": 3118,
      "Ġprep": 3119,
      "Ġher": 3120,
      "Ġnegative": 3121,
      "Ġdetermination": 3122,
      "Ġinfringement": 3123,
      "atus": 3124,
      "rastruct": 3125,
      "Ġrisks": 3126,
      "Ġcommitments": 3127,
      "Ġgeographical": 3128,
      "Ġchairman": 3129,
      "Ġfacilitate": 3130,
      "Ġexporter": 3131,
      "gment": 3132,
      "Ġ1981": 3133,
      "Ġresponse": 3134,
      "Ġclaims": 3135,
      "Ġtakes": 3136,
      "\".": 3137,
      "inese": 3138,
      "Ġclassification": 3139,
      "Ġsto": 3140,
      "veness": 3141,
      "Ġ322": 3142,
      "Ġreven": 3143,
      "Ġadvisory": 3144,
      "Ġformer": 3145,
      "atoes": 3146,
      "Ġinfrastruct": 3147,
      "Ġmanufacturers": 3148,
      "Ġacting": 3149,
      "ging": 3150,
      "withstanding": 3151,
      "Ġdomin": 3152,
      "Ġverification": 3153,
      "Ġtransmission": 3154,
      "Ġchinese": 3155,
      "ecom": 3156,
      "Ġquantitative": 3157,
      "Ġprohibited": 3158,
      "ality": 3159,
      "Ġestablishments": 3160,
      "Ġdead": 3161,
      "Ġ500": 3162,
      "Ġcharges": 3163,
      "Ġfigures": 3164,
      "ecu": 3165,
      "Ġelectricity": 3166,
      "Ġeggs": 3167,
      "Ġreleased": 3168,
      "Ġtarget": 3169,
      "Ġfoodstuffs": 3170,
      "Ġnotes": 3171,
      "Ġcollection": 3172,
      "Ġrelease": 3173,
      "Ġsafe": 3174,
      "Ã³": 3175,
      "Ġmotor": 3176,
      "Ġcoef": 3177,
      "Ġelim": 3178,
      "Ġlabor": 3179,
      "ibility": 3180,
      "Ġ97": 3181,
      "Ġappar": 3182,
      "Ġlan": 3183,
      "Ġmerg": 3184,
      "Ġdeg": 3185,
      "Ġesp": 3186,
      "Ã¡": 3187,
      "Ġtr": 3188,
      "Ġ86": 3189,
      "Ġ77": 3190,
      "gen": 3191,
      "Ġapparatus": 3192,
      "Ġdisposal": 3193,
      "Ġdistill": 3194,
      "ulture": 3195,
      "cer": 3196,
      "Ġrecommend": 3197,
      "Ġkore": 3198,
      "rel": 3199,
      "olution": 3200,
      "Ġtelecom": 3201,
      "Ġet": 3202,
      "Ġpen": 3203,
      "Ġef": 3204,
      "ira": 3205,
      "Ġaudit": 3206,
      "Ġorganizations": 3207,
      "Ġround": 3208,
      "Ġcarrying": 3209,
      "ically": 3210,
      "ication": 3211,
      "Ġshows": 3212,
      "Ġcot": 3213,
      "inted": 3214,
      "tiveness": 3215,
      "Ġterritories": 3216,
      "utes": 3217,
      "Ġdesigned": 3218,
      "Ġexplain": 3219,
      "ests": 3220,
      "itals": 3221,
      "Ġ1982": 3222,
      "Ġexceptional": 3223,
      "Ġreli": 3224,
      "Ġplans": 3225,
      "Ġsubsidy": 3226,
      "Ġfle": 3227,
      "Ġsea": 3228,
      "Ġacquis": 3229,
      "Ġ98": 3230,
      "Ġconcerns": 3231,
      "ÃŃ": 3232,
      "ier": 3233,
      "Ġuniform": 3234,
      "Ġtonne": 3235,
      "ock": 3236,
      "come": 3237,
      "Ġdetails": 3238,
      "Ġholdings": 3239,
      "Ġdebt": 3240,
      "Ġoj": 3241,
      "Ġislands": 3242,
      "Ġ39": 3243,
      "Ġpresentation": 3244,
      "Ġ38": 3245,
      "Ġindicate": 3246,
      "Ġimporter": 3247,
      "61": 3248,
      "Ġnam": 3249,
      "ections": 3250,
      "Ġconsultation": 3251,
      "Ġprofession": 3252,
      "Ġmovement": 3253,
      "ness": 3254,
      "Ġcotton": 3255,
      "ource": 3256,
      "lor": 3257,
      "ild": 3258,
      "Ġsigned": 3259,
      "Ġbecome": 3260,
      "Ġreceip": 3261,
      "Ġthroughout": 3262,
      "Ġdivision": 3263,
      "Ġassociated": 3264,
      "Ġrequests": 3265,
      "Ġrange": 3266,
      "Ġinstrument": 3267,
      "ungary": 3268,
      "ternal": 3269,
      "41": 3270,
      "Ġdeleted": 3271,
      "Ġgood": 3272,
      "den": 3273,
      "Ġbase": 3274,
      "Ġclar": 3275,
      "Ġsupplier": 3276,
      "Ġcr": 3277,
      "Ġeuratom": 3278,
      "Ġromania": 3279,
      "ler": 3280,
      "Ġincome": 3281,
      "ood": 3282,
      "Ġ3223": 3283,
      "Ġrail": 3284,
      "jected": 3285,
      "ule": 3286,
      "Ġextension": 3287,
      "000": 3288,
      "los": 3289,
      "Ġentity": 3290,
      "aring": 3291,
      "Ġeconomy": 3292,
      ".,": 3293,
      "Ġwheat": 3294,
      "ator": 3295,
      "Ġoperational": 3296,
      "Ġworkers": 3297,
      "ervation": 3298,
      "garia": 3299,
      "Ġroad": 3300,
      "Ã¤": 3301,
      "Ġfu": 3302,
      "Ġpet": 3303,
      "Ġpartial": 3304,
      "Ġrad": 3305,
      "Ġtextile": 3306,
      "bal": 3307,
      "Ġflow": 3308,
      "Ġmeetings": 3309,
      "Ġconstitutes": 3310,
      "Ġensuring": 3311,
      "Ġnow": 3312,
      "Ġfacts": 3313,
      "Ġentitled": 3314,
      "Ġgmb": 3315,
      "Ġidentification": 3316,
      "Ġdev": 3317,
      "Ġrelative": 3318,
      "Ġphys": 3319,
      "\",": 3320,
      "Ġcovering": 3321,
      "Ġerad": 3322,
      "Ġsuff": 3323,
      "iner": 3324,
      "Ġindirec": 3325,
      "Ġcorrec": 3326,
      "Ġneeded": 3327,
      "Ġfair": 3328,
      "Ġquarter": 3329,
      "Ġlocated": 3330,
      "Ġgreater": 3331,
      "Ġtransmit": 3332,
      "tifying": 3333,
      "Ġceiling": 3334,
      "burs": 3335,
      "Ġadequate": 3336,
      "Ġnormally": 3337,
      "Ġinitiation": 3338,
      "Ġforec": 3339,
      "Ġfore": 3340,
      "Ġuses": 3341,
      "Ġconcentrated": 3342,
      "ior": 3343,
      "Ġcontribute": 3344,
      "Ġmanufacturer": 3345,
      "05": 3346,
      "Ġhungary": 3347,
      "lan": 3348,
      "rary": 3349,
      "inate": 3350,
      "Ġamer": 3351,
      "Ġargued": 3352,
      "Ġcall": 3353,
      "Ġawarded": 3354,
      "Ġpreparation": 3355,
      "Ġtransp": 3356,
      "Ġsecurities": 3357,
      "Ġvacc": 3358,
      "2009": 3359,
      "rect": 3360,
      "Ġairc": 3361,
      "Ġpayable": 3362,
      "ivers": 3363,
      "Ġ1980": 3364,
      "Ġnever": 3365,
      "04": 3366,
      "ans": 3367,
      "Ġindia": 3368,
      "Ġprofitability": 3369,
      "itable": 3370,
      "'.": 3371,
      "Ġtowards": 3372,
      "Ġlangu": 3373,
      "Ġcompos": 3374,
      "Ġ45": 3375,
      "Ġgmbh": 3376,
      "Ġinfrastructure": 3377,
      "urb": 3378,
      "Ġexternal": 3379,
      "Ġcompr": 3380,
      "Ġsuspended": 3381,
      "Ġaqu": 3382,
      "zen": 3383,
      "Ġdeduc": 3384,
      "sh": 3385,
      "Ġnetworks": 3386,
      "Ġaircraft": 3387,
      "alog": 3388,
      "Ġagriculture": 3389,
      "Ġimposition": 3390,
      "Ġmedium": 3391,
      "Ġregister": 3392,
      "Ġsatisfy": 3393,
      "Ġincorpor": 3394,
      "44": 3395,
      "lines": 3396,
      "Ġcheck": 3397,
      "Ġtasks": 3398,
      "ators": 3399,
      "Ġswit": 3400,
      "Ġstep": 3401,
      "Ġnorway": 3402,
      "Ġ43": 3403,
      "Ġcomparable": 3404,
      "Ġexh": 3405,
      "row": 3406,
      "Ġbuying": 3407,
      "Ġperman": 3408,
      "Ġforth": 3409,
      "establishing": 3410,
      "Ġnr": 3411,
      "63": 3412,
      "Ġexpos": 3413,
      "Ġliquid": 3414,
      "Ġalcohol": 3415,
      "Ġundertaken": 3416,
      "Ġplanned": 3417,
      "Ġprc": 3418,
      "Ġalia": 3419,
      "Ġinterim": 3420,
      "Ġcustomer": 3421,
      "Ġportugues": 3422,
      "Ġremaining": 3423,
      "414": 3424,
      "Ġwriting": 3425,
      "Ġreceive": 3426,
      "Ġmatters": 3427,
      "ishes": 3428,
      "Ġportuguese": 3429,
      "Ġbudgetary": 3430,
      "gener": 3431,
      "Ġmanufactured": 3432,
      "Ġvii": 3433,
      "Ġbanks": 3434,
      "Ġpartnership": 3435,
      "Ġincompatible": 3436,
      "Ġindication": 3437,
      "):": 3438,
      "Ġcommunicated": 3439,
      "Ġsupervision": 3440,
      "Ġattached": 3441,
      "Ġinstall": 3442,
      "ath": 3443,
      "Ġwords": 3444,
      "Ġproduce": 3445,
      "Ġcarc": 3446,
      "Ġfulfilled": 3447,
      "Ġvariety": 3448,
      "Ġalternative": 3449,
      "Ġlinked": 3450,
      "Ġcooperating": 3451,
      "Ġpigs": 3452,
      "Ġfeeding": 3453,
      "Ġbulgaria": 3454,
      "Ġappears": 3455,
      "Ġslovak": 3456,
      "Ġnamely": 3457,
      "aper": 3458,
      "Ġzones": 3459,
      "Ġassessed": 3460,
      "ffic": 3461,
      "Ġpromote": 3462,
      "Ġrenew": 3463,
      "Ġencour": 3464,
      "Ġtraditional": 3465,
      "Ġissuing": 3466,
      "Ġreserve": 3467,
      "Ġdoub": 3468,
      "Ġconclusions": 3469,
      "Ġreceipt": 3470,
      "Ġincreasing": 3471,
      "Ġexercise": 3472,
      "Ġinserted": 3473,
      "ends": 3474,
      "Ġentities": 3475,
      "Ġmerger": 3476,
      "Ġannexed": 3477,
      "Ġpresence": 3478,
      "Ġtransit": 3479,
      "Ġsources": 3480,
      "Ġ1975": 3481,
      "Ġupd": 3482,
      "Ġcatches": 3483,
      "idential": 3484,
      "Ġrecitals": 3485,
      "Ġhel": 3486,
      "Ġproposals": 3487,
      "57": 3488,
      "Ġdominant": 3489,
      "Ġlabe": 3490,
      "sub": 3491,
      "Ġlit": 3492,
      "Ġrefer": 3493,
      "erences": 3494,
      "ways": 3495,
      "Ġreply": 3496,
      "Ġbelong": 3497,
      "Ġcorpor": 3498,
      "Ġarg": 3499,
      "Ġtenderer": 3500,
      "Ġpi": 3501,
      "Ġenvis": 3502,
      "Ġback": 3503,
      "dec": 3504,
      "Ġmr": 3505,
      "ailing": 3506,
      "Ġcontrols": 3507,
      "Ġbuy": 3508,
      "Ġchemical": 3509,
      "Ġcertification": 3510,
      "Ġsumm": 3511,
      "Ġtransaction": 3512,
      "Ġ81": 3513,
      "Ġcontrary": 3514,
      "tier": 3515,
      "Ġpremises": 3516,
      "vent": 3517,
      "yc": 3518,
      "Ġsen": 3519,
      "etary": 3520,
      "Ġindeed": 3521,
      "Ġtelecommun": 3522,
      "Ġsuccessful": 3523,
      "Ġfat": 3524,
      "Ġeas": 3525,
      "Ġcentre": 3526,
      "section": 3527,
      "Ġcompletion": 3528,
      "Ġmarketed": 3529,
      "Ġvolumes": 3530,
      "Ġadjustments": 3531,
      "Ġenterprises": 3532,
      "Ġtur": 3533,
      "Ġdan": 3534,
      "Ġmanufacturing": 3535,
      "bly": 3536,
      "Ġmer": 3537,
      "Ġstrengthe": 3538,
      "Ġrule": 3539,
      "Ġarising": 3540,
      "Ġ425": 3541,
      "Ġholder": 3542,
      "Ġphysical": 3543,
      "Ġeradication": 3544,
      "Ġ72": 3545,
      "Ġquestionna": 3546,
      "Ġmargins": 3547,
      "Ġreimburs": 3548,
      "wide": 3549,
      "Ġexample": 3550,
      "gest": 3551,
      "mp": 3552,
      "Ġemission": 3553,
      "Ġsem": 3554,
      "Ġlif": 3555,
      "tenance": 3556,
      "Ġkept": 3557,
      "Ġbeginning": 3558,
      "Ġconcentration": 3559,
      "Ġwritten": 3560,
      "[âĢ¦]": 3561,
      "Ġpowers": 3562,
      "Ġrun": 3563,
      "Ġcompensatory": 3564,
      "va": 3565,
      "ounted": 3566,
      "Ġcomplied": 3567,
      "Ġsl": 3568,
      "Ġfinanced": 3569,
      "Ġsituated": 3570,
      "Ġopportunity": 3571,
      "08": 3572,
      "vision": 3573,
      "uay": 3574,
      "Ġimportance": 3575,
      "Ġtests": 3576,
      "Ġfinance": 3577,
      "Ġnotwithstanding": 3578,
      "Ġfarmers": 3579,
      "Ġcomponents": 3580,
      "Ġtrading": 3581,
      "Ġsample": 3582,
      "Ġbra": 3583,
      "day": 3584,
      "reek": 3585,
      "Ġguidance": 3586,
      "Ġbelgian": 3587,
      "Ġexhaus": 3588,
      "used": 3589,
      "eration": 3590,
      "Ġwhereby": 3591,
      "Ġmaintenance": 3592,
      "Ġchain": 3593,
      "Ġrecipient": 3594,
      "related": 3595,
      "Ġamendment": 3596,
      "ards": 3597,
      "lav": 3598,
      "ications": 3599,
      "53": 3600,
      "house": 3601,
      "pid": 3602,
      "char": 3603,
      "year": 3604,
      "Ġtraffic": 3605,
      "Ġgreek": 3606,
      "Ġdutch": 3607,
      "Ġsubsequently": 3608,
      "Ġoutcome": 3609,
      "Ġcontracting": 3610,
      "Ġbreak": 3611,
      "Ġgrowth": 3612,
      "Ġlists": 3613,
      "Ġmainly": 3614,
      "ield": 3615,
      "wan": 3616,
      "Ġqualified": 3617,
      "',": 3618,
      "reat": 3619,
      "56": 3620,
      "]*": 3621,
      "Ġresponsibility": 3622,
      "Ġacceptance": 3623,
      "Ġderogations": 3624,
      "Ġfourth": 3625,
      "Ġrevenue": 3626,
      "rain": 3627,
      "Ġsuspension": 3628,
      "Ġcollected": 3629,
      "Ġimprovement": 3630,
      "Ġapproximately": 3631,
      "Ġexcluded": 3632,
      "Ġhalf": 3633,
      "Ġbox": 3634,
      "Ġparticulars": 3635,
      "Ġexperts": 3636,
      "Ġrecognised": 3637,
      "ifications": 3638,
      "tar": 3639,
      "isc": 3640,
      "utting": 3641,
      "Ġ99": 3642,
      "Ġdistor": 3643,
      "ledge": 3644,
      "Ġfunctioning": 3645,
      "Ġsimpl": 3646,
      "Ġwithdrawal": 3647,
      "uguay": 3648,
      "Ġmaize": 3649,
      "Ġalleged": 3650,
      "Ġaspects": 3651,
      "Ġpersonal": 3652,
      "Ġcomplaint": 3653,
      "atibility": 3654,
      "Ġbroadc": 3655,
      "Ġforthwith": 3656,
      "Ġsupplementary": 3657,
      "order": 3658,
      "Ġcontributions": 3659,
      "Ġconstruction": 3660,
      "Ġwithdrawn": 3661,
      "pur": 3662,
      "Ġmultil": 3663,
      "Ġintegrated": 3664,
      "Ġcart": 3665,
      "za": 3666,
      "yond": 3667,
      "Ġairport": 3668,
      "coun": 3669,
      "law": 3670,
      "euro": 3671,
      "iss": 3672,
      "general": 3673,
      "Ġuruguay": 3674,
      "Ġcalculating": 3675,
      "Ġund": 3676,
      "Ġstipulated": 3677,
      "Ġbeyond": 3678,
      "Ġgenerally": 3679,
      "Ġafric": 3680,
      "enses": 3681,
      "Ġautom": 3682,
      "Ġsentence": 3683,
      "Ġenvisaged": 3684,
      "oy": 3685,
      "Ġyet": 3686,
      "Ġdam": 3687,
      "Ġdr": 3688,
      "tivity": 3689,
      "Ġexamine": 3690,
      "ering": 3691,
      "Ġpress": 3692,
      "Ġcalled": 3693,
      "olid": 3694,
      "Ġpenal": 3695,
      "Ġtrend": 3696,
      "ls": 3697,
      "Ġpermitted": 3698,
      "Ġdisturb": 3699,
      "Ġpriorities": 3700,
      "Ġreplac": 3701,
      "eg": 3702,
      "Ġofficials": 3703,
      "Ġinitiate": 3704,
      "zo": 3705,
      "Ġfever": 3706,
      "Ġmultilateral": 3707,
      "bac": 3708,
      "Ġvirt": 3709,
      "eth": 3710,
      "Ġheading": 3711,
      "Ġincludes": 3712,
      "Ġcounterv": 3713,
      "197": 3714,
      "Ġprofessional": 3715,
      "Ġappe": 3716,
      "Ġtreated": 3717,
      "Ġsafegu": 3718,
      "endar": 3719,
      "Ġassociations": 3720,
      "Ġoils": 3721,
      "Ġdevelopments": 3722,
      "prus": 3723,
      "Ġforeign": 3724,
      "Ġrecognition": 3725,
      "Ġaids": 3726,
      "Ġceilings": 3727,
      "Ġcalendar": 3728,
      "zer": 3729,
      "Ġpoly": 3730,
      "Ġinvestor": 3731,
      "Ġpaper": 3732,
      "anced": 3733,
      "Ġremun": 3734,
      "erved": 3735,
      "Ġgl": 3736,
      "vi": 3737,
      "Ġtun": 3738,
      "Ġrelate": 3739,
      "09": 3740,
      "immed": 3741,
      "Ġincreases": 3742,
      "Ġstrong": 3743,
      "Ġsubhe": 3744,
      "Ġrepresented": 3745,
      "Ġdeclarations": 3746,
      "Ġjustice": 3747,
      "Ġforwarded": 3748,
      "Ġic": 3749,
      "Ġtransferred": 3750,
      "Ġsouth": 3751,
      "Ġprepared": 3752,
      "Ġfavourable": 3753,
      "Ġdecreased": 3754,
      "Ġnames": 3755,
      "Ġecsc": 3756,
      "Ġtelecommunications": 3757,
      "Ġ1255": 3758,
      "ecting": 3759,
      "approval": 3760,
      "council": 3761,
      "Ġfixes": 3762,
      "Ġshowed": 3763,
      "lin": 3764,
      "Ġamerica": 3765,
      "Ġhereinafter": 3766,
      "Ġgrape": 3767,
      "Ġstrategy": 3768,
      "Ġconsignment": 3769,
      "Ġconduct": 3770,
      "Ġrise": 3771,
      "agg": 3772,
      "tained": 3773,
      "conc": 3774,
      "Ġappointed": 3775,
      "Ġpast": 3776,
      "Ġplay": 3777,
      "Ġsheep": 3778,
      "fo": 3779,
      "Ġcommitment": 3780,
      "Ġwholes": 3781,
      "au": 3782,
      ".`": 3783,
      "Ġrecords": 3784,
      "Ġevalu": 3785,
      "Ġinspections": 3786,
      "Ġciv": 3787,
      "Ġpoll": 3788,
      "rought": 3789,
      "Ã¼": 3790,
      "Ġdistillation": 3791,
      "Ġ41": 3792,
      "Ġspecify": 3793,
      "Ġcontains": 3794,
      "Ġskimmed": 3795,
      "fl": 3796,
      "Ġsupporting": 3797,
      "07": 3798,
      "Ġpigmeat": 3799,
      "asion": 3800,
      "Ġconcession": 3801,
      "Ġmic": 3802,
      "Ġknowledge": 3803,
      "Ġexplained": 3804,
      "alle": 3805,
      "Ġmix": 3806,
      "Ġkorea": 3807,
      "Ġshipp": 3808,
      "Ġextend": 3809,
      "Ġcyprus": 3810,
      "Ġlabelling": 3811,
      "rozen": 3812,
      "Ġpowder": 3813,
      "Ġgr": 3814,
      "Ġgain": 3815,
      "Ġhold": 3816,
      "Ġconservation": 3817,
      "âĢĻ.": 3818,
      "ae": 3819,
      "Ġchann": 3820,
      "ficiency": 3821,
      "Ġoperate": 3822,
      "Ġdeveloping": 3823,
      "Ġtherein": 3824,
      "ording": 3825,
      "Ġkind": 3826,
      "Ġexclusively": 3827,
      "aculture": 3828,
      "ban": 3829,
      "Ġstric": 3830,
      "ours": 3831,
      "Ġpromotion": 3832,
      "Ġindicative": 3833,
      "Ġthreat": 3834,
      "Ġwar": 3835,
      "oslav": 3836,
      "Ġcivil": 3837,
      "Ġ09": 3838,
      "Ġsecret": 3839,
      "ithu": 3840,
      "Ġ55": 3841,
      "ugoslav": 3842,
      "iqu": 3843,
      "Ġappropriations": 3844,
      "Ġcurrency": 3845,
      "Ġproperty": 3846,
      "Ġexpenses": 3847,
      "Ġpermanent": 3848,
      "Ġunderc": 3849,
      "Ġspecifications": 3850,
      "Ġdegree": 3851,
      "Ġ76": 3852,
      "Ġincen": 3853,
      "Ġmakes": 3854,
      "Ġselected": 3855,
      "ening": 3856,
      "Ġbroken": 3857,
      "Ġdeadline": 3858,
      "Ġmand": 3859,
      "put": 3860,
      "zil": 3861,
      "Ġduly": 3862,
      "when": 3863,
      "Ġlevying": 3864,
      "Ġargument": 3865,
      "Ġfollowed": 3866,
      "cept": 3867,
      "Ġcompatibility": 3868,
      "Ġpolicies": 3869,
      "Ġmodified": 3870,
      "Ġaquaculture": 3871,
      "Ġbest": 3872,
      "ake": 3873,
      "Ġ1979": 3874,
      "Ġcertified": 3875,
      "Ġverify": 3876,
      "Ġreach": 3877,
      "Ġ64": 3878,
      "agn": 3879,
      "Ġrecent": 3880,
      "Ġread": 3881,
      "pow": 3882,
      "key": 3883,
      "Ġpresident": 3884,
      "Ġinvolve": 3885,
      "oj": 3886,
      "Ġfit": 3887,
      "Ġapproach": 3888,
      "Ġdanger": 3889,
      "under": 3890,
      "Ġyugoslav": 3891,
      "Ġcontinued": 3892,
      "Ġaccompany": 3893,
      "Ġefficient": 3894,
      "Ġ42": 3895,
      "bacco": 3896,
      "Ġprohibition": 3897,
      "Ġviews": 3898,
      "Ġadverse": 3899,
      "Ġca": 3900,
      "Ġfeedingstuffs": 3901,
      "ma": 3902,
      "Ġlat": 3903,
      "Ġexceeded": 3904,
      "Ġlithu": 3905,
      "Ġparticipating": 3906,
      "Ġcash": 3907,
      "theless": 3908,
      "Ġcomponent": 3909,
      "ware": 3910,
      "Ġcoefficient": 3911,
      "Ġacquisition": 3912,
      "Ġtai": 3913,
      "Ġremuneration": 3914,
      "Ġliable": 3915,
      "according": 3916,
      "Ġofficially": 3917,
      "Ġderived": 3918,
      "Ġwest": 3919,
      "Ġhelp": 3920,
      "Î±": 3921,
      "Ġstructures": 3922,
      "Ġenfor": 3923,
      "Ġbeneficiaries": 3924,
      "Ġemployees": 3925,
      "Ġbrazil": 3926,
      "iring": 3927,
      "Ġ2010": 3928,
      "03": 3929,
      "Ġdos": 3930,
      "Ġassign": 3931,
      "Ġmaintained": 3932,
      "dic": 3933,
      "Ġtobacco": 3934,
      "Ġqualify": 3935,
      "Ġsound": 3936,
      "Ġ73": 3937,
      "from": 3938,
      "ecsc": 3939,
      "Ġ1977": 3940,
      "Ġsuitable": 3941,
      "ients": 3942,
      "ancing": 3943,
      "based": 3944,
      "Ġdiseases": 3945,
      "Ġsloven": 3946,
      "Ġmechanism": 3947,
      "Ġconsiderable": 3948,
      "Ġscale": 3949,
      "Ġopportunities": 3950,
      "ology": 3951,
      "Ġbur": 3952,
      "ailand": 3953,
      "Ġemerg": 3954,
      "bon": 3955,
      "Ġexec": 3956,
      "Ġconsulting": 3957,
      "Ġextra": 3958,
      "Ġdirector": 3959,
      "direc": 3960,
      "Ġrejected": 3961,
      "Ġclassified": 3962,
      "Ġcentres": 3963,
      "Ġcreation": 3964,
      "Ġverified": 3965,
      "Ġsteps": 3966,
      "Ġagg": 3967,
      "Ġtimes": 3968,
      "Ġcome": 3969,
      "Ġinvolving": 3970,
      "Ġrelationship": 3971,
      "avi": 3972,
      "Ġconfidential": 3973,
      "Ġcause": 3974,
      "Ġps": 3975,
      "Ġsyn": 3976,
      "Ġobjections": 3977,
      "Ġowners": 3978,
      "Ġsend": 3979,
      "Ġpac": 3980,
      "Ġcorrect": 3981,
      "Ġprohibit": 3982,
      "Ġpotatoes": 3983,
      "Ġfrequ": 3984,
      "Ġexpress": 3985,
      "mis": 3986,
      "Ġautonom": 3987,
      "Ġsubsidiary": 3988,
      "Ġsuffered": 3989,
      "Ġconsolid": 3990,
      "Ġplus": 3991,
      "Ġnorth": 3992,
      "Ġspecifically": 3993,
      "Ġrestricted": 3994,
      "Ġconsistent": 3995,
      "Ġprotected": 3996,
      "inations": 3997,
      "ane": 3998,
      "Ġpriority": 3999,
      "Ġoccasion": 4000,
      "Ġfinally": 4001,
      "Ġpor": 4002,
      "decision": 4003,
      "Ġbon": 4004,
      "Ġbetter": 4005,
      "Ġsoci": 4006,
      "fur": 4007,
      "Ġfam": 4008,
      "Ġaffecting": 4009,
      "most": 4010,
      "ilk": 4011,
      "Ġdeveloped": 4012,
      "umin": 4013,
      "Ġindustries": 4014,
      "Ġcatch": 4015,
      "Ġapproximation": 4016,
      "cs": 4017,
      "Ġfrozen": 4018,
      "Ġinitiated": 4019,
      "Ġdisclos": 4020,
      "Ġpreviously": 4021,
      "izing": 4022,
      "tically": 4023,
      "Ġri": 4024,
      "Ġcif": 4025,
      "Ġhome": 4026,
      "ensity": 4027,
      "Ġglo": 4028,
      "ream": 4029,
      "Ġadvertis": 4030,
      "Ġpurchas": 4031,
      "Ġitems": 4032,
      "Ġlicens": 4033,
      "Ġviability": 4034,
      "Ġrural": 4035,
      "Ġminim": 4036,
      "Ġdried": 4037,
      "Ġpop": 4038,
      "Ġfron": 4039,
      "Ġ2052": 4040,
      "Ġsatisfied": 4041,
      "Ġsampling": 4042,
      "itary": 4043,
      "Ġacid": 4044,
      "down": 4045,
      "Ġtendering": 4046,
      "via": 4047,
      "oting": 4048,
      "Ġnevertheless": 4049,
      "Ġexhausted": 4050,
      "Ġlaboratory": 4051,
      "06": 4052,
      "Ã¶": 4053,
      "Ġrather": 4054,
      "Ġraised": 4055,
      "anges": 4056,
      "Ġnote": 4057,
      "Î¿": 4058,
      "Ġinitiative": 4059,
      "kel": 4060,
      "Ġtaiwan": 4061,
      "Ġspread": 4062,
      "Ġanalog": 4063,
      "Ġuser": 4064,
      "Ġ53": 4065,
      "Ġsufficiently": 4066,
      "cf": 4067,
      "Ġsafeguard": 4068,
      "Ġreductions": 4069,
      "Ġchoice": 4070,
      "Ġallowance": 4071,
      "Ġespec": 4072,
      "Ġ66": 4073,
      "Ġneither": 4074,
      "inter": 4075,
      "employ": 4076,
      "Ġices": 4077,
      "Ġpending": 4078,
      "Ġengine": 4079,
      "Ġlithuania": 4080,
      "aviour": 4081,
      "Ġthailand": 4082,
      "free": 4083,
      "Ġ51": 4084,
      "Ġ4253": 4085,
      "Ġassum": 4086,
      "Ġhim": 4087,
      "Ġcoming": 4088,
      "Ġrole": 4089,
      "Ġacp": 4090,
      "ote": 4091,
      "Ġversion": 4092,
      "Ġguaranteed": 4093,
      "Ġ44": 4094,
      "Ġ48": 4095,
      "Ġbehaviour": 4096,
      "Ġyield": 4097,
      "Ġ3072": 4098,
      "ays": 4099,
      "Ġfuel": 4100,
      "Ġlines": 4101,
      "Ġharmful": 4102,
      "Ġcul": 4103,
      "ari": 4104,
      "Ġpoultrymeat": 4105,
      "sured": 4106,
      "Ġassisted": 4107,
      "Ġindications": 4108,
      "Ġgiving": 4109,
      "Ġinterp": 4110,
      "Ġbrought": 4111,
      "Ġintermedi": 4112,
      "ns": 4113,
      "Ġpension": 4114,
      "468": 4115,
      "Ġsource": 4116,
      "Ġreferences": 4117,
      "Ġstipul": 4118,
      "Ġtesting": 4119,
      "mouth": 4120,
      "Ġarguments": 4121,
      "Ġstart": 4122,
      "Ġ:": 4123,
      "regular": 4124,
      "Ġ[...]*": 4125,
      "Ġeston": 4126,
      "Ġresolution": 4127,
      "stat": 4128,
      "Ġvent": 4129,
      "luding": 4130,
      "lim": 4131,
      "Ġstored": 4132,
      "Ġinvestigations": 4133,
      "Ġsubstantially": 4134,
      "Ġborne": 4135,
      "vo": 4136,
      "Ġweek": 4137,
      "Ġmuch": 4138,
      "Ġaimed": 4139,
      "Ġ79": 4140,
      "Ġgrants": 4141,
      "Ġimproving": 4142,
      "Ġgrapes": 4143,
      "trans": 4144,
      "Ġdiscrim": 4145,
      "Ġespecially": 4146,
      "Ġsee": 4147,
      "Ġresidues": 4148,
      "Ġslovenia": 4149,
      "Ġconsiderations": 4150,
      "Ġled": 4151,
      "Ġexplo": 4152,
      "Ġfunding": 4153,
      "aking": 4154,
      "uter": 4155,
      "wer": 4156,
      "lets": 4157,
      "Ġcontact": 4158,
      "overed": 4159,
      "Ġeffectively": 4160,
      "Ġintention": 4161,
      "tle": 4162,
      "isations": 4163,
      "itives": 4164,
      "ude": 4165,
      "Ġestablishes": 4166,
      "ussia": 4167,
      "Ġ020": 4168,
      "pite": 4169,
      "Ġships": 4170,
      "concern": 4171,
      "uls": 4172,
      "Ġstudy": 4173,
      "Ġpositive": 4174,
      "iable": 4175,
      "Ġsupervisory": 4176,
      "Ġoffers": 4177,
      "Ġarrangement": 4178,
      "spec": 4179,
      "Ġautonomous": 4180,
      "ang": 4181,
      "Ġvary": 4182,
      "Ġrevised": 4183,
      "Ġ62": 4184,
      "Ġadditives": 4185,
      "unctions": 4186,
      "Ġindones": 4187,
      "Ġdecrease": 4188,
      "Ġsamples": 4189,
      "Ġeduc": 4190,
      "ectiveness": 4191,
      "Ġhow": 4192,
      "Ġil": 4193,
      "Ġvat": 4194,
      "Ġmany": 4195,
      "Ġrepealing": 4196,
      "Ġmonetary": 4197,
      "car": 4198,
      "pag": 4199,
      "Ġdepend": 4200,
      "osis": 4201,
      "Ġ2454": 4202,
      "ada": 4203,
      "Ġsug": 4204,
      "Ġconsul": 4205,
      "Ġdepartments": 4206,
      "Ġborder": 4207,
      "Ġearli": 4208,
      "Ġinclusion": 4209,
      "Ġware": 4210,
      "Ġnumbers": 4211,
      "Ġefficiency": 4212,
      "Ġed": 4213,
      "Ġsustain": 4214,
      "set": 4215,
      "Ġwa": 4216,
      "Ġcommunications": 4217,
      "Ġdefinitions": 4218,
      "Ġutil": 4219,
      "Ġremoval": 4220,
      "Ġfurn": 4221,
      "Ġreporting": 4222,
      "Ġvirtue": 4223,
      "âĢĻ,": 4224,
      "Ġforecast": 4225,
      "Ġrelatively": 4226,
      "Ġmoder": 4227,
      "bu": 4228,
      "Ġempow": 4229,
      "off": 4230,
      "Ġirregular": 4231,
      "xic": 4232,
      "Ġprecise": 4233,
      "Ġreceiving": 4234,
      "ason": 4235,
      "Ġacquired": 4236,
      "Ġglobal": 4237,
      "Ġprotective": 4238,
      "Ġbv": 4239,
      "Ġ65": 4240,
      "Ġtri": 4241,
      "Ġsets": 4242,
      "Ġallows": 4243,
      "Ã§": 4244,
      "Ġdates": 4245,
      "Ġbri": 4246,
      "Ġdrawing": 4247,
      "Ġrepay": 4248,
      "Ġdeter": 4249,
      "Ġapplicants": 4250,
      "Ġconclude": 4251,
      "concerning": 4252,
      "Ġseeds": 4253,
      "cement": 4254,
      "Ġstrength": 4255,
      "aggf": 4256,
      "Ġdischar": 4257,
      "Ġcartel": 4258,
      "Ġestonia": 4259,
      "Ġ82": 4260,
      "Ġmutual": 4261,
      "Ġquestionnaire": 4262,
      "Ġconsequence": 4263,
      "Ġexposure": 4264,
      "oroc": 4265,
      "Ġmodels": 4266,
      "Ġpresc": 4267,
      "Ã¨": 4268,
      "Ġoccur": 4269,
      "Ġ1976": 4270,
      "Ġcontrolled": 4271,
      "Ġfunctions": 4272,
      "Ġauthorise": 4273,
      "Ġcanary": 4274,
      "Ġreducing": 4275,
      "Ġdivid": 4276,
      "ded": 4277,
      "Ġrussia": 4278,
      "Ġfee": 4279,
      "Ġturkey": 4280,
      "Ġsch": 4281,
      "oney": 4282,
      "Ġdossi": 4283,
      "Ġdepos": 4284,
      "kn": 4285,
      "ensive": 4286,
      "sibilities": 4287,
      "break": 4288,
      "Ġintroducing": 4289,
      "Ġdispatch": 4290,
      "illing": 4291,
      "Ġrestriction": 4292,
      "Ġconstituted": 4293,
      "Ġfailure": 4294,
      ".âĢĻ;": 4295,
      "Ġlatvia": 4296,
      "Ġing": 4297,
      "Ġlife": 4298,
      "Ġclassical": 4299,
      "inery": 4300,
      "pursu": 4301,
      "rest": 4302,
      "Ġconj": 4303,
      "Ġflat": 4304,
      "Ġagents": 4305,
      "ength": 4306,
      "Ġremed": 4307,
      "Ġrepresenting": 4308,
      "Ġconfirm": 4309,
      "like": 4310,
      "Ġworks": 4311,
      "Ġconcludes": 4312,
      "Ġdespite": 4313,
      "Ġred": 4314,
      "Ġexcluding": 4315,
      "ĠÂ": 4316,
      "spot": 4317,
      "Ġsn": 4318,
      "irds": 4319,
      "seas": 4320,
      "amento": 4321,
      "Ġsolv": 4322,
      "Ġmm": 4323,
      "pursuant": 4324,
      "Ġreflect": 4325,
      "Ġprotect": 4326,
      "enic": 4327,
      "cta": 4328,
      "Ġprofits": 4329,
      "Ġrecognized": 4330,
      "Ġ=": 4331,
      "Ġadvertising": 4332,
      "Ġarri": 4333,
      "Ġjustify": 4334,
      "Ġthereby": 4335,
      "Ġcompound": 4336,
      "Ġoption": 4337,
      "oked": 4338,
      "ley": 4339,
      "Ġenabl": 4340,
      "Ġsubstitut": 4341,
      "Ġsolely": 4342,
      "action": 4343,
      "Ġprovisionally": 4344,
      "Ġ2200": 4345,
      "Ġwholly": 4346,
      "venth": 4347,
      "Ġpublish": 4348,
      "Ġemployed": 4349,
      "ously": 4350,
      "Ġfactor": 4351,
      "ik": 4352,
      "Ġbid": 4353,
      "Ã¯": 4354,
      "Ġundercutting": 4355,
      "Ġexceeds": 4356,
      "Ġorganisms": 4357,
      "Ġpharm": 4358,
      "Ġrati": 4359,
      "leg": 4360,
      "Ġsubheading": 4361,
      "Ġconjunction": 4362,
      "Ġdanish": 4363,
      "Ġ1784": 4364,
      "Ġdesignate": 4365,
      "nce": 4366,
      "Ġgreen": 4367,
      "tish": 4368,
      "ested": 4369,
      "cont": 4370,
      "Ġcorporation": 4371,
      "Ġlanguage": 4372,
      "Ġauthorisations": 4373,
      "Ġeffectiveness": 4374,
      "Ġcreated": 4375,
      "Ġdig": 4376,
      "olit": 4377,
      "Ġattribut": 4378,
      "aled": 4379,
      "Ġparticipate": 4380,
      "Ġproducing": 4381,
      "Ġradio": 4382,
      "milk": 4383,
      "title": 4384,
      "ero": 4385,
      "Ġcultiv": 4386,
      "Ġinstance": 4387,
      "Ġconsultations": 4388,
      "Ġimmediate": 4389,
      "Ġsite": 4390,
      "Ġ1968": 4391,
      "Ġaltered": 4392,
      "Ġtechnological": 4393,
      "Ġord": 4394,
      "Ġlength": 4395,
      "Ġ59": 4396,
      "Ġbuilding": 4397,
      "rop": 4398,
      "Ġcereal": 4399,
      "Ġsatisfact": 4400,
      "Ġreimbursement": 4401,
      "lig": 4402,
      "fr": 4403,
      "edom": 4404,
      "uled": 4405,
      "Ġforest": 4406,
      "Ġemissions": 4407,
      "products": 4408,
      "roduce": 4409,
      "Ġdoubts": 4410,
      "ime": 4411,
      "ultural": 4412,
      "tings": 4413,
      "Ġfif": 4414,
      "Ġoverseas": 4415,
      "ze": 4416,
      "Ġself": 4417,
      "Ġcrops": 4418,
      "Ġlog": 4419,
      "Ġposs": 4420,
      "Ġrestrictive": 4421,
      "Ġha": 4422,
      "Ġpressure": 4423,
      "Ġdone": 4424,
      "Ġseventh": 4425,
      "thern": 4426,
      "Ġprelim": 4427,
      "Ġtom": 4428,
      "atell": 4429,
      "cal": 4430,
      "Ġbreakdown": 4431,
      "missible": 4432,
      "Ġconducted": 4433,
      "Ġdm": 4434,
      "ecutive": 4435,
      "Ġpopulation": 4436,
      "Ġprom": 4437,
      "Ġ83": 4438,
      "Ġprimary": 4439,
      "Ġexcessive": 4440,
      "Ġexempt": 4441,
      "Ġsubsidies": 4442,
      "Ġfran": 4443,
      "Ġoutbreak": 4444,
      "tili": 4445,
      "Ġbearing": 4446,
      "Ġhecta": 4447,
      "Ġ136": 4448,
      "Ġlabour": 4449,
      "Ġacts": 4450,
      "Ġnit": 4451,
      "Ġpreliminary": 4452,
      "Ġothers": 4453,
      "Ġrapid": 4454,
      "Ġdiss": 4455,
      "ba": 4456,
      "Ġeffected": 4457,
      "Ġimpose": 4458,
      "Ġ040": 4459,
      "Ġlot": 4460,
      "Ġindicating": 4461,
      "nov": 4462,
      "ott": 4463,
      "Ġexploit": 4464,
      "ref": 4465,
      "Ġsheet": 4466,
      "Ġtransmitted": 4467,
      "Ġmonthly": 4468,
      "Ġcreate": 4469,
      "Ġ[âĢ¦]": 4470,
      "Ġpreparations": 4471,
      "orted": 4472,
      "Ġcountervailing": 4473,
      "Ġofficer": 4474,
      "Ġsolution": 4475,
      "Ġemergency": 4476,
      "Ġ113": 4477,
      "Ġcod": 4478,
      "certain": 4479,
      "Ġdistort": 4480,
      "Ġconcessions": 4481,
      "allel": 4482,
      "Ġemb": 4483,
      "Ġsubsidiaries": 4484,
      "Ġsmaller": 4485,
      "Ġbanan": 4486,
      "aut": 4487,
      "fe": 4488,
      "Ġcompuls": 4489,
      "Ġalmost": 4490,
      "Ġstudies": 4491,
      "Ġhearing": 4492,
      "Ġseparately": 4493,
      "Ġdamage": 4494,
      "Ġfibre": 4495,
      "Ġ1978": 4496,
      "Ġaccompanying": 4497,
      "annual": 4498,
      "pted": 4499,
      "fa": 4500,
      "Ġdifficulty": 4501,
      "Ġobject": 4502,
      "Ġcomplainant": 4503,
      "dro": 4504,
      "Ġreported": 4505,
      "istic": 4506,
      "Ġmis": 4507,
      "Ġindirect": 4508,
      "Ġtot": 4509,
      "Ġasked": 4510,
      "Ġmodern": 4511,
      "Ġcance": 4512,
      "Ġlargest": 4513,
      "Ġrational": 4514,
      "ony": 4515,
      "Ġparallel": 4516,
      "Ġgoverned": 4517,
      "Ġcarriers": 4518,
      "Ġobserved": 4519,
      "Ġjoin": 4520,
      "Ġpenalties": 4521,
      "Ġfreedom": 4522,
      "Ġmicro": 4523,
      "Ġempowered": 4524,
      "Ġconsequences": 4525,
      "Ġlack": 4526,
      "Ġquotations": 4527,
      "Ġcooperate": 4528,
      "ops": 4529,
      "Ġparent": 4530,
      "aster": 4531,
      "Ġremained": 4532,
      "Ġencourage": 4533,
      "enger": 4534,
      "acy": 4535,
      "border": 4536,
      "Ġsatell": 4537,
      "eks": 4538,
      "applic": 4539,
      "Î¹": 4540,
      "Ġ71": 4541,
      "Ġobservations": 4542,
      "198": 4543,
      "Ġgene": 4544,
      "Ġshareholders": 4545,
      "Ġexemptions": 4546,
      "communities": 4547,
      "Ġjudgment": 4548,
      "Ġreplacement": 4549,
      "Ġnorthern": 4550,
      "Ġprevention": 4551,
      "Ġcomputer": 4552,
      "process": 4553,
      "Ġ49": 4554,
      "Ġgross": 4555,
      "Ġsummary": 4556,
      "europe": 4557,
      "Ġ384": 4558,
      "Ġrecommendation": 4559,
      "Ġurg": 4560,
      "ox": 4561,
      "Ġhandling": 4562,
      "tu": 4563,
      "inating": 4564,
      "Ġelement": 4565,
      "enza": 4566,
      "Ġcarrier": 4567,
      "pol": 4568,
      "Ġreviewed": 4569,
      "Ġnext": 4570,
      "Ġautomatic": 4571,
      "Ġfigure": 4572,
      "Ġresidue": 4573,
      "cap": 4574,
      "Ġremoved": 4575,
      "Ġliv": 4576,
      "Ġinstruc": 4577,
      "Ġtelevision": 4578,
      "Ġtaxes": 4579,
      "Ġtrends": 4580,
      "Ġventure": 4581,
      "Ġliability": 4582,
      "bres": 4583,
      "Ġeligibility": 4584,
      "Ġefforts": 4585,
      "inting": 4586,
      "Ġage": 4587,
      "Ġ52": 4588,
      "Ġmachines": 4589,
      "Ġhor": 4590,
      "Ġprocesses": 4591,
      "Ġestimates": 4592,
      "Ġhours": 4593,
      "Ġearly": 4594,
      "Ġconsulted": 4595,
      "Ġresidence": 4596,
      "Ġmalta": 4597,
      "Ġexecution": 4598,
      "rol": 4599,
      "Ġenj": 4600,
      "sian": 4601,
      "itime": 4602,
      "iter": 4603,
      "Ġadapted": 4604,
      "Ġdeterior": 4605,
      "Ġcompulsory": 4606,
      "Ġstarch": 4607,
      "Ġsil": 4608,
      "Ġallowing": 4609,
      "Ġcontainers": 4610,
      "Ġcomplement": 4611,
      "Ġundertake": 4612,
      "Ġeffort": 4613,
      "tonn": 4614,
      "Ġselection": 4615,
      "Ġaccur": 4616,
      "Ġentail": 4617,
      "âĢĿ": 4618,
      "export": 4619,
      "âĢľ": 4620,
      "Ġvegetable": 4621,
      "vis": 4622,
      "Ġintroduce": 4623,
      "Ġinstal": 4624,
      "Ġlink": 4625,
      "ility": 4626,
      "Ġleading": 4627,
      "Ġreplace": 4628,
      "Ġjur": 4629,
      "Ġfibres": 4630,
      "Ġstore": 4631,
      "Ġ47": 4632,
      "Ġshowing": 4633,
      "Ġrecovered": 4634,
      "Ġreve": 4635,
      "Ġmail": 4636,
      "Ġparticipants": 4637,
      "Ġpassenger": 4638,
      "Ġsurvey": 4639,
      "ressive": 4640,
      "tifications": 4641,
      "Ġeth": 4642,
      "Ġ78": 4643,
      "Ã±": 4644,
      "Ġairlines": 4645,
      "Ġ84": 4646,
      "Ġbarri": 4647,
      "Ã´": 4648,
      "Ġfamily": 4649,
      "Ġannoun": 4650,
      "Ġviii": 4651,
      "Ġweeks": 4652,
      "Ġ1972": 4653,
      "Ġcopies": 4654,
      "Ġsustainable": 4655,
      "wh": 4656,
      "Ġdecree": 4657,
      "Ġ69": 4658,
      "Ġhighly": 4659,
      "Ġfa": 4660,
      "Ġwide": 4661,
      "Ġspir": 4662,
      "Ġearlier": 4663,
      "making": 4664,
      "Ġrein": 4665,
      "Ġdistributors": 4666,
      "Ġdealers": 4667,
      "organ": 4668,
      "sufficient": 4669,
      "Ġglass": 4670,
      "Ġequity": 4671,
      "Ġprincipal": 4672,
      "ylene": 4673,
      "Ġinstitut": 4674,
      "asters": 4675,
      "Ġchanged": 4676,
      "Ġgreat": 4677,
      "Ġmid": 4678,
      "ctolit": 4679,
      "Ġalter": 4680,
      "tiliz": 4681,
      "raine": 4682,
      "Ġadopting": 4683,
      "Ġbelonging": 4684,
      "Ġassigned": 4685,
      "ilateral": 4686,
      "Ġ67": 4687,
      "aches": 4688,
      "oth": 4689,
      "Ġfees": 4690,
      "Ġcontractual": 4691,
      "Ġjapanese": 4692,
      "sa": 4693,
      "Ġexceptions": 4694,
      "Ġmaritime": 4695,
      "Ġgen": 4696,
      "Ġevents": 4697,
      "Ġmachinery": 4698,
      "Ġinfluenza": 4699,
      "ka": 4700,
      "Ġmanaged": 4701,
      "Ġindonesia": 4702,
      "Ġpreferences": 4703,
      "entially": 4704,
      "Ġfarming": 4705,
      "Ġunable": 4706,
      "lear": 4707,
      "Ġrelates": 4708,
      "ifies": 4709,
      "Ġliabilities": 4710,
      "ert": 4711,
      "Ġpat": 4712,
      "including": 4713,
      "Ġlocation": 4714,
      "ector": 4715,
      "Ġclause": 4716,
      "hand": 4717,
      "estern": 4718,
      "Ġtub": 4719,
      "Ġentering": 4720,
      "Ã³n": 4721,
      "alling": 4722,
      "Ġindicates": 4723,
      "Ġunf": 4724,
      "Ġconcept": 4725,
      "Ġpurchasing": 4726,
      "Ġ%)": 4727,
      "Ġassessing": 4728,
      "Ġinterven": 4729,
      "Ġgrain": 4730,
      "point": 4731,
      "Ġ1234": 4732,
      "Ġpermits": 4733,
      "Ġowned": 4734,
      "arency": 4735,
      "diction": 4736,
      "Ġingred": 4737,
      "amet": 4738,
      "Ġfine": 4739,
      "Ġpackage": 4740,
      "ell": 4741,
      "Ġharvest": 4742,
      "Ġspe": 4743,
      "Ġ...": 4744,
      "Ġlabel": 4745,
      "Ġterminated": 4746,
      "established": 4747,
      "Ġjuris": 4748,
      "Ġoccup": 4749,
      "Ġara": 4750,
      "Ġoperated": 4751,
      "Ġability": 4752,
      "Ġhectolit": 4753,
      "asses": 4754,
      "without": 4755,
      "Ġsegment": 4756,
      "Ġusa": 4757,
      "Ġ822": 4758,
      "Ġcream": 4759,
      "Ġ1501": 4760,
      "hy": 4761,
      "rut": 4762,
      "Ġmedical": 4763,
      "Ġcarcases": 4764,
      "Ġadvantages": 4765,
      "Ġliber": 4766,
      "Ġpractical": 4767,
      "Ġheav": 4768,
      "Ġabol": 4769,
      "ou": 4770,
      "rations": 4771,
      "cep": 4772,
      "Ġports": 4773,
      "Ġwhom": 4774,
      "enced": 4775,
      "Ġ46": 4776,
      "Ġcapable": 4777,
      "att": 4778,
      "Ġdemonstrated": 4779,
      "Ġpure": 4780,
      "Ġcommitted": 4781,
      "Ġoccurred": 4782,
      "isms": 4783,
      "Ġadaptation": 4784,
      "Ġbananas": 4785,
      "Ġdepending": 4786,
      "market": 4787,
      "Ġbritish": 4788,
      "Ġow": 4789,
      "ingu": 4790,
      "Ġregime": 4791,
      "Ġamounting": 4792,
      "Ġpurchased": 4793,
      "directive": 4794,
      "Ġendors": 4795,
      "licit": 4796,
      "Ġfleet": 4797,
      "Ġcompetitor": 4798,
      "Ġpartly": 4799,
      "Ġestimate": 4800,
      "atures": 4801,
      "Ġentries": 4802,
      "Ġconsignments": 4803,
      "Ġanalogue": 4804,
      "Ġcarbon": 4805,
      "Ġcomposition": 4806,
      "ression": 4807,
      "men": 4808,
      "Ġinsufficient": 4809,
      "Ġbirds": 4810,
      "Ġwild": 4811,
      "Ġpointed": 4812,
      "Ġratio": 4813,
      "Ġseven": 4814,
      "Ġimporting": 4815,
      "Ġju": 4816,
      "Ġhouse": 4817,
      "Ġsites": 4818,
      "ha": 4819,
      "Ġchild": 4820,
      "hold": 4821,
      "Ġidentical": 4822,
      "ĠÎ": 4823,
      "Ġdefic": 4824,
      "Ġdisturbance": 4825,
      "rutin": 4826,
      "ws": 4827,
      "disc": 4828,
      "Ġ2913": 4829,
      "Ġharmonised": 4830,
      "Ġtransparency": 4831,
      "Ġunlike": 4832,
      "Ġfile": 4833,
      "`.": 4834,
      "Ġpp": 4835,
      "Ġcum": 4836,
      "ussion": 4837,
      "Ġafrican": 4838,
      "ental": 4839,
      "Ġintensity": 4840,
      "Ġpaying": 4841,
      "Ġresc": 4842,
      "amental": 4843,
      "ead": 4844,
      "Ġsituations": 4845,
      "ense": 4846,
      "cfsp": 4847,
      "Ġscrutin": 4848,
      "Ġindex": 4849,
      "Ġinnov": 4850,
      "Ġconferred": 4851,
      "let": 4852,
      "Ġincorporated": 4853,
      "european": 4854,
      "Ġbeet": 4855,
      "Ġstarting": 4856,
      "Ġauthorize": 4857,
      "Ġtransported": 4858,
      "count": 4859,
      "Ġfra": 4860,
      "ider": 4861,
      "Ġsought": 4862,
      "Ġinvo": 4863,
      "bile": 4864,
      "Ġnut": 4865,
      "Ġpollution": 4866,
      "een": 4867,
      "Ġpremiums": 4868,
      "Ïģ": 4869,
      "Ġappoint": 4870,
      "irable": 4871,
      "tiated": 4872,
      "ulph": 4873,
      "aps": 4874,
      "Ġukraine": 4875,
      "Ġauditors": 4876,
      "Ġep": 4877,
      "Ġbarley": 4878,
      "Ġseries": 4879,
      "Ġharvested": 4880,
      "Ġprosp": 4881,
      "Ġrus": 4882,
      "sw": 4883,
      "Ġstipulates": 4884,
      "Ġexpert": 4885,
      "Ġinfluence": 4886,
      "Ġpricing": 4887,
      "Ġteleph": 4888,
      "Ġlanding": 4889,
      "Ġcovers": 4890,
      "Ġdry": 4891,
      "Ġdesignation": 4892,
      "Ġbroadcast": 4893,
      "Ġidentify": 4894,
      "rowing": 4895,
      "ngen": 4896,
      "Ġtranship": 4897,
      "Ġindirectly": 4898,
      "tably": 4899,
      "Ġallowances": 4900,
      "Ġ61": 4901,
      "Ġsyrup": 4902,
      "Ġaggreg": 4903,
      "Ġtransfers": 4904,
      "Ġincentive": 4905,
      "Ġtexts": 4906,
      "Ġorders": 4907,
      "Ġpatter": 4908,
      "zerland": 4909,
      "such": 4910,
      "Ġupdated": 4911,
      "Ġ1782": 4912,
      "Ġbrand": 4913,
      "Ġacceptable": 4914,
      "Ġmultip": 4915,
      "Ġbought": 4916,
      "Ġvaccination": 4917,
      "Ġroutes": 4918,
      "df": 4919,
      "pping": 4920,
      "Ġhaz": 4921,
      "Ġordinary": 4922,
      "ker": 4923,
      "Ġengaged": 4924,
      "Ġentitlement": 4925,
      "Ġdevices": 4926,
      "Ġdossier": 4927,
      "Ġjointly": 4928,
      "Ġfats": 4929,
      "Ġoutput": 4930,
      "Ġavian": 4931,
      "Ġ1493": 4932,
      "Ġcli": 4933,
      "vals": 4934,
      "Ġmarking": 4935,
      "Ġwood": 4936,
      "Ġjurisdiction": 4937,
      "Ġterminal": 4938,
      "Ġ400": 4939,
      "Ġinstead": 4940,
      "there": 4941,
      "Ġdim": 4942,
      "Ġsupported": 4943,
      "Ġschengen": 4944,
      "fron": 4945,
      "Ġenforcement": 4946,
      "Ġtu": 4947,
      "Ġfacility": 4948,
      "Ġbeli": 4949,
      "Ġdocumentation": 4950,
      "Ġwestern": 4951,
      "Ġnotably": 4952,
      "issu": 4953,
      "ives": 4954,
      "Ġissues": 4955,
      "adv": 4956,
      "they": 4957,
      "Ġdangerous": 4958,
      "Ġcable": 4959,
      "Ġ1970": 4960,
      "Ġcontinuation": 4961,
      "Ġdisclosure": 4962,
      "inatory": 4963,
      "Ġfew": 4964,
      "hous": 4965,
      "Ġ104": 4966,
      "Ġcompeting": 4967,
      "Ġresale": 4968,
      "Ġgeographic": 4969,
      "mitted": 4970,
      "sta": 4971,
      "Ġobliged": 4972,
      "Ġgoat": 4973,
      "Ġsubsc": 4974,
      "engers": 4975,
      "Ġdigital": 4976,
      "Ġproperly": 4977,
      "bp": 4978,
      "Ġconsisting": 4979,
      "Ġdepartment": 4980,
      "Ġ54": 4981,
      "unt": 4982,
      "Ġproviders": 4983,
      "buil": 4984,
      "Ġexempted": 4985,
      "Ġslovakia": 4986,
      "Ġsatisfactory": 4987,
      "eds": 4988,
      "Ġ1035": 4989,
      "Ġsched": 4990,
      "ses": 4991,
      "Ġpan": 4992,
      "Ġapprec": 4993,
      "Ġregularly": 4994,
      "Ġswitch": 4995,
      "Ġmill": 4996,
      "Ġbound": 4997,
      "Ġchannels": 4998,
      "Ġfod": 4999,
      "Ġphase": 5000,
      "gments": 5001,
      "vers": 5002,
      "Ġpassengers": 5003,
      "Ġtac": 5004,
      "102": 5005,
      "Ġobtaining": 5006,
      "Ġ804": 5007,
      "nam": 5008,
      "asts": 5009,
      "Ġitem": 5010,
      "Ġtaxable": 5011,
      "Ġrussian": 5012,
      "Ġsett": 5013,
      "Ġ1785": 5014,
      "Ġleft": 5015,
      "Ġplas": 5016,
      "taric": 5017,
      "Ġlevies": 5018,
      "Ġdeleg": 5019,
      "oured": 5020,
      "Ġiron": 5021,
      "Ġcorrective": 5022,
      "Ġgd": 5023,
      "Ġappeal": 5024,
      "Ġetc": 5025,
      "Ġcare": 5026,
      "Ġnotifications": 5027,
      "âĢĻ;": 5028,
      "Ġbreeding": 5029,
      "Ġperformed": 5030,
      "cb": 5031,
      "Ġdemonstrate": 5032,
      "cl": 5033,
      "istry": 5034,
      "Ġfab": 5035,
      "Ġmus": 5036,
      "insurance": 5037,
      "active": 5038,
      "Ġinterc": 5039,
      "Ġcollective": 5040,
      "Ġmes": 5041,
      "country": 5042,
      "rep": 5043,
      "Ġformalities": 5044,
      "Ġeducation": 5045,
      "know": 5046,
      "Ġcrop": 5047,
      "sec": 5048,
      "Ġexcise": 5049,
      "time": 5050,
      "Ġ800": 5051,
      "Ġlodging": 5052,
      "Ġmethodology": 5053,
      "104": 5054,
      "Ġcohe": 5055,
      "Ġprocessors": 5056,
      "Ġbanking": 5057,
      "Ġsatellite": 5058,
      "Ġcanada": 5059,
      "Ġfarmer": 5060,
      "Ġnone": 5061,
      "rupt": 5062,
      "lawful": 5063,
      "Ġ383": 5064,
      "Ġseason": 5065,
      "Ġconnected": 5066,
      "Ġnutri": 5067,
      "Ġeight": 5068,
      "Ġeaggf": 5069,
      "Ġpropag": 5070,
      "Ġconcerted": 5071,
      "Ġinjurious": 5072,
      "etra": 5073,
      "istan": 5074,
      "Ġrepresents": 5075,
      "board": 5076,
      "urrence": 5077,
      "icial": 5078,
      "Ġ63": 5079,
      "Ġshipping": 5080,
      "since": 5081,
      "ye": 5082,
      "Ġutilisation": 5083,
      "dered": 5084,
      "Ġtoo": 5085,
      "Ġdeficit": 5086,
      "Ġconstructed": 5087,
      "ÏĦ": 5088,
      "Ġ2658": 5089,
      "Ġrestrict": 5090,
      "rane": 5091,
      "Ġnationals": 5092,
      "plus": 5093,
      "Ġbay": 5094,
      "Ġavailability": 5095,
      "Ġdemoc": 5096,
      "Ġlarger": 5097,
      "Ġobser": 5098,
      "Ġgives": 5099,
      "Ġformul": 5100,
      "ont": 5101,
      "Ġhence": 5102,
      "Ġcohesion": 5103,
      "Ġseen": 5104,
      "Ġmixt": 5105,
      "Ġunlawful": 5106,
      "Ġinvited": 5107,
      "Ġreb": 5108,
      "Ġclosing": 5109,
      "Ġhost": 5110,
      "Ġprocure": 5111,
      "Ġretain": 5112,
      "Ġdiscuss": 5113,
      "atories": 5114,
      "Ġintegration": 5115,
      "Ġmol": 5116,
      "tac": 5117,
      "limit": 5118,
      "rid": 5119,
      "month": 5120,
      "germ": 5121,
      "Ġvine": 5122,
      "aa": 5123,
      "Ġextending": 5124,
      "Ġdistinc": 5125,
      "holic": 5126,
      "Ġyugoslavia": 5127,
      "onia": 5128,
      "Ġfields": 5129,
      "Ġdeliveries": 5130,
      "amps": 5131,
      "Ġremains": 5132,
      "Ġ57": 5133,
      "Ġfifth": 5134,
      "Ġ74": 5135,
      "Ġenh": 5136,
      "Ġtemporarily": 5137,
      "Ã¸": 5138,
      "Ġcontinuous": 5139,
      "Ġinvestors": 5140,
      "Ġpil": 5141,
      "Ġretailers": 5142,
      "Ġimproved": 5143,
      "Ġpurchaser": 5144,
      "hest": 5145,
      "aying": 5146,
      "Ġinstallation": 5147,
      "';": 5148,
      "omes": 5149,
      "Ġzo": 5150,
      "Ġprivatis": 5151,
      "tes": 5152,
      "Ġunivers": 5153,
      "opo": 5154,
      "entry": 5155,
      "Ġalways": 5156,
      "Ġattention": 5157,
      "cell": 5158,
      "Ġcombination": 5159,
      "Ġaustrian": 5160,
      "Ġpolish": 5161,
      "Ġox": 5162,
      "Ġrailway": 5163,
      "arian": 5164,
      "Ġclarity": 5165,
      "Ġmarine": 5166,
      "estock": 5167,
      "Ġlimitations": 5168,
      "Ġsan": 5169,
      "itim": 5170,
      "Ġstatements": 5171,
      "Ġburden": 5172,
      "\"(": 5173,
      "Ġlivestock": 5174,
      "Ġacknow": 5175,
      "Ġnations": 5176,
      "Ġcommittees": 5177,
      "Ġinfringements": 5178,
      "Ġhydro": 5179,
      "Ġswitzerland": 5180,
      "net": 5181,
      "Ġproductivity": 5182,
      "onnel": 5183,
      "Ġnuc": 5184,
      "Ġrefus": 5185,
      "Ġold": 5186,
      "these": 5187,
      "det": 5188,
      "org": 5189,
      "ky": 5190,
      "Ġba": 5191,
      "Ġstable": 5192,
      "Ġcomment": 5193,
      "andis": 5194,
      "Ġinstallations": 5195,
      "icals": 5196,
      "Ġreplies": 5197,
      "Ġdiscussion": 5198,
      "frontier": 5199,
      "quar": 5200,
      "Ġ]": 5201,
      "Ġ600": 5202,
      "Ġtask": 5203,
      "Ġcomposed": 5204,
      "osp": 5205,
      "gra": 5206,
      "Ġmarked": 5207,
      "118": 5208,
      "Ġhighest": 5209,
      "ko": 5210,
      "cooper": 5211,
      "Ġmutandis": 5212,
      "156": 5213,
      "Ġaer": 5214,
      "Ġcarriage": 5215,
      "Ġexploitation": 5216,
      "Ġclosure": 5217,
      "Ġmutatis": 5218,
      "Ġexpire": 5219,
      "Ġdistingu": 5220,
      "Ġlegitim": 5221,
      "eeable": 5222,
      "Ġtechnologies": 5223,
      "Ġ68": 5224,
      "abor": 5225,
      "Ġirish": 5226,
      "Ġsemen": 5227,
      "Ġdefine": 5228,
      "Ġcultural": 5229,
      "Ġagree": 5230,
      "Ġtermination": 5231,
      "oft": 5232,
      "Ġenabling": 5233,
      "Ġ58": 5234,
      "Ġneglig": 5235,
      "Ġmission": 5236,
      "nt": 5237,
      "Ġfrf": 5238,
      "Ġtraders": 5239,
      "Ġscrutiny": 5240,
      "Ġspace": 5241,
      "Ġplat": 5242,
      "Ġsalmon": 5243,
      "Ġindicators": 5244,
      "Ġbilateral": 5245,
      "Ġtaxation": 5246,
      "Ġclosely": 5247,
      "Ġfodder": 5248,
      "Ġcalls": 5249,
      "bank": 5250,
      "Ġtuna": 5251,
      "Ġmanaging": 5252,
      "Ġfertil": 5253,
      "Ġmoroc": 5254,
      "Ġ792": 5255,
      "Ġcompete": 5256,
      "Ġorganic": 5257,
      "Ġvirus": 5258,
      "Ġmem": 5259,
      "ams": 5260,
      "Ġowner": 5261,
      "Ġprofitable": 5262,
      "Ġalcoholic": 5263,
      "ino": 5264,
      "sis": 5265,
      "Ġreproduc": 5266,
      "Ġcriterion": 5267,
      "face": 5268,
      "tv": 5269,
      "Ġheavy": 5270,
      "Ġexportation": 5271,
      "bia": 5272,
      "Ġspecim": 5273,
      "Ġagent": 5274,
      "euratom": 5275,
      "Ġflex": 5276,
      "avoured": 5277,
      "Ġensured": 5278,
      "Ġmadeira": 5279,
      "Ġalumin": 5280,
      "building": 5281,
      "Ġsg": 5282,
      "ticip": 5283,
      "Ġsugges": 5284,
      "Ġoppos": 5285,
      "Ġswedish": 5286,
      "Ġdivided": 5287,
      "burg": 5288,
      "Ġprescribed": 5289,
      "Ġfinished": 5290,
      "Ġbreach": 5291,
      "hl": 5292,
      "Ġ318": 5293,
      "Ġtetra": 5294,
      "Ġexclusion": 5295,
      "lantic": 5296,
      "Ġapproving": 5297,
      "Ġbott": 5298,
      "Ġtariffs": 5299,
      "Ġeastern": 5300,
      "Ġreserves": 5301,
      "further": 5302,
      "ored": 5303,
      "Ġeliminate": 5304,
      "Ġcit": 5305,
      "Ġcut": 5306,
      "oung": 5307,
      "Ġpositions": 5308,
      "Ġrecommendations": 5309,
      "Ġsensi": 5310,
      "follow": 5311,
      "eure": 5312,
      "Ġilleg": 5313,
      "Ġvolunt": 5314,
      "Ã£": 5315,
      "Ġcomplies": 5316,
      "Ġdeparture": 5317,
      "Ġdissem": 5318,
      "itions": 5319,
      "Ġoffset": 5320,
      "Ġfrontier": 5321,
      "Ġeurostat": 5322,
      "Ġcomplying": 5323,
      "titu": 5324,
      "Ġ150": 5325,
      "Ġidentity": 5326,
      "Ġtrue": 5327,
      "Ġlimitation": 5328,
      "Ġminor": 5329,
      "Ġsections": 5330,
      "Ġsuspend": 5331,
      "Ġauthorising": 5332,
      "index": 5333,
      "discrim": 5334,
      "Ġthough": 5335,
      "ales": 5336,
      "Ġdistortion": 5337,
      "Ġdiscrimination": 5338,
      "Ġ(âĢĺ": 5339,
      "Ġdeducted": 5340,
      "Ġgave": 5341,
      "Ġinvitations": 5342,
      "Ġattain": 5343,
      "Ġaviation": 5344,
      "Ġexpect": 5345,
      "Ġconsolidated": 5346,
      "Ġgrowing": 5347,
      "Ġmechanisms": 5348,
      "Ġbelie": 5349,
      "Ġlanguages": 5350,
      "Ġtour": 5351,
      "Ġvan": 5352,
      "Ġcand": 5353,
      "Ġenjoy": 5354,
      "lish": 5355,
      "gian": 5356,
      "Ġatom": 5357,
      "Ġamounted": 5358,
      "each": 5359,
      "Ġimposing": 5360,
      "Ġnomin": 5361,
      "author": 5362,
      "Ġjobs": 5363,
      "rael": 5364,
      "Ġrh": 5365,
      "Ġlaun": 5366,
      "ilst": 5367,
      "Ġintends": 5368,
      "Ġmaintaining": 5369,
      "Ġminimis": 5370,
      "lb": 5371,
      "sized": 5372,
      "Ġstabil": 5373,
      "Ġcoast": 5374,
      "Ġtomatoes": 5375,
      "Ġsaving": 5376,
      "Ġ56": 5377,
      "Ġmere": 5378,
      "Ġaluminium": 5379,
      "Ġexists": 5380,
      "Ġprovider": 5381,
      "Ġprove": 5382,
      "Ġmorocco": 5383,
      "Ġspa": 5384,
      "Ġdebts": 5385,
      "Ġrecalled": 5386,
      "Ġbulk": 5387,
      "Ġcompetitiveness": 5388,
      "Ġutiliz": 5389,
      "Ġdesirable": 5390,
      "Ġinterpret": 5391,
      "Ġmajeure": 5392,
      "Ġcultivation": 5393,
      "Ġmovements": 5394,
      "424": 5395,
      "ply": 5396,
      "Ġrepayment": 5397,
      "ols": 5398,
      "Ġyoung": 5399,
      "Ġrecyc": 5400,
      "Ġslaughtered": 5401,
      "yal": 5402,
      "umb": 5403,
      "Ġliberal": 5404,
      "formation": 5405,
      "Ġfalls": 5406,
      "ca": 5407,
      "Ġunderg": 5408,
      "Ġcompetence": 5409,
      "Ġplanning": 5410,
      "Ġwholesale": 5411,
      "flow": 5412,
      "Ġdemocra": 5413,
      "Ġroute": 5414,
      "Ġworldwide": 5415,
      "Ġliving": 5416,
      "germany": 5417,
      "Ġinland": 5418,
      "stream": 5419,
      "isis": 5420,
      "Ġpersonnel": 5421,
      "Ġexchanges": 5422,
      "Ġdrin": 5423,
      "Ġatomic": 5424,
      "Ġminer": 5425,
      "Ġcomprise": 5426,
      "Ġdischarge": 5427,
      "Ġsupplying": 5428,
      "Ġentr": 5429,
      "Ġ805": 5430,
      "Ġreliable": 5431,
      "Ġwholesal": 5432,
      "Ġcheese": 5433,
      "Ġtravel": 5434,
      "Ġprob": 5435,
      "Ġrefers": 5436,
      "Ġtonnage": 5437,
      "Ġkey": 5438,
      "aysia": 5439,
      "Ġmeets": 5440,
      "Ġregulated": 5441,
      "Ġfeatures": 5442,
      "Ġshareholder": 5443,
      "Ġbarriers": 5444,
      "respective": 5445,
      "Ġpreserved": 5446,
      "Ġtenderers": 5447,
      "Ġforestry": 5448,
      "Ġowing": 5449,
      "Ġtan": 5450,
      "Ġclearance": 5451,
      "mar": 5452,
      "Ġadvice": 5453,
      "financing": 5454,
      "Ġconsent": 5455,
      "Ġownership": 5456,
      "Ġcd": 5457,
      "\")": 5458,
      "mr": 5459,
      "Ġpak": 5460,
      "`,": 5461,
      "Ġreform": 5462,
      "ficients": 5463,
      "Ġmobile": 5464,
      "Ġspecifying": 5465,
      "Ġmilitary": 5466,
      "Ġclosed": 5467,
      "Ġoffices": 5468,
      "Ġtransparent": 5469,
      "Ġprocurement": 5470,
      "Ġligh": 5471,
      "Ġlaboratories": 5472,
      "Î½": 5473,
      "luc": 5474,
      "Ġsulph": 5475,
      "ruction": 5476,
      "Ġsurveys": 5477,
      "Ġstages": 5478,
      "Ġforeseen": 5479,
      "Ġwhilst": 5480,
      "liance": 5481,
      "Ġafore": 5482,
      "Ġstri": 5483,
      "Ġinitially": 5484,
      "Ġcoefficients": 5485,
      "Ġsupplemented": 5486,
      "Ġmultiannual": 5487,
      "ione": 5488,
      "Ġmoney": 5489,
      "Ġconsistency": 5490,
      "Ġcaught": 5491,
      "Ġber": 5492,
      "Ġaims": 5493,
      "Ġnuclear": 5494,
      "iesel": 5495,
      "Ġquestions": 5496,
      "following": 5497,
      "Ġwhy": 5498,
      "Ġfinds": 5499,
      "teur": 5500,
      "Ġindian": 5501,
      "Ġpipe": 5502,
      "eland": 5503,
      "advanta": 5504,
      "Ïĥ": 5505,
      "Ġside": 5506,
      "Ġaware": 5507,
      "Ġfell": 5508,
      "Ġlegitimate": 5509,
      "bb": 5510,
      "Ġfabric": 5511,
      "Ġaforementioned": 5512,
      "sy": 5513,
      "Ġplaces": 5514,
      "106": 5515,
      "econom": 5516,
      "Ġ371": 5517,
      "Ġgained": 5518,
      "Ġpostal": 5519,
      "Ġraise": 5520,
      "Ġsurplus": 5521,
      "inf": 5522,
      "oto": 5523,
      "Ġchecking": 5524,
      "Ġdivisions": 5525,
      "Ġnine": 5526,
      "Ġresulted": 5527,
      "Ġjustification": 5528,
      "Ġ(\"": 5529,
      "iox": 5530,
      "do": 5531,
      "bers": 5532,
      "Ġannually": 5533,
      "Ġisrael": 5534,
      "lom": 5535,
      "Ġalone": 5536,
      "Ġfreight": 5537,
      "quarters": 5538,
      "Ġacquire": 5539,
      "wear": 5540,
      "Ġcolour": 5541,
      "hood": 5542,
      "Ġtechniqu": 5543,
      "Ġconsiderably": 5544,
      "Ġcorresponds": 5545,
      "Ġstrengthening": 5546,
      "Ġreinfor": 5547,
      "Ġpestic": 5548,
      "Ġdemocratic": 5549,
      "Ġdistinction": 5550,
      "Ġoutlets": 5551,
      "Ġremove": 5552,
      "Ġpromoting": 5553,
      "Ġbuyer": 5554,
      "iological": 5555,
      "Ġfertilis": 5556,
      "Ġmalaysia": 5557,
      "Ġannounced": 5558,
      "Ġcapac": 5559,
      "Ġ2423": 5560,
      "Ġhousehold": 5561,
      "Ġforeg": 5562,
      "Ġexecutive": 5563,
      "Ġevolution": 5564,
      "pped": 5565,
      "Ġconditional": 5566,
      "Ġtelex": 5567,
      "tract": 5568,
      "long": 5569,
      "Ġflows": 5570,
      "Ġpurchases": 5571,
      "iterrane": 5572,
      "gien": 5573,
      "Ġreplied": 5574,
      "Ġcalculate": 5575,
      "Ġirrespective": 5576,
      "Ġchemicals": 5577,
      "icon": 5578,
      "Ġnear": 5579,
      "Ġapprove": 5580,
      "Ġerr": 5581,
      "Ġadvances": 5582,
      "going": 5583,
      "Ġintermediate": 5584,
      "iterranean": 5585,
      "Ġseems": 5586,
      "Ġgrade": 5587,
      "Ġformat": 5588,
      "Ġstrict": 5589,
      "Ġtissu": 5590,
      "imp": 5591,
      "Ġinstructions": 5592,
      "ller": 5593,
      "Ġdou": 5594,
      "Ġmun": 5595,
      "Ġpartially": 5596,
      "Ġconsists": 5597,
      "Ġcrim": 5598,
      "import": 5599,
      "Ġexclude": 5600,
      "Ġprivatisation": 5601,
      "iting": 5602,
      "Ġdisadvanta": 5603,
      "Ġirregularities": 5604,
      "Ġbankrupt": 5605,
      "Ġextrac": 5606,
      "arity": 5607,
      "Ġnav": 5608,
      "embly": 5609,
      "tible": 5610,
      "Ġcrisis": 5611,
      "Ġacknowled": 5612,
      "Ġrefuse": 5613,
      "Ġretro": 5614,
      "Ġconfer": 5615,
      "Ġpath": 5616,
      "Ġinterconn": 5617,
      "Ġbrit": 5618,
      "ross": 5619,
      "Ġartific": 5620,
      "ancy": 5621,
      "Ġ2377": 5622,
      "Ġcho": 5623,
      "âĢĻ)": 5624,
      "Ġfailed": 5625,
      "Ġrelief": 5626,
      "ariat": 5627,
      "lar": 5628,
      "Ãł": 5629,
      "eded": 5630,
      "Ġcreditors": 5631,
      "growing": 5632,
      "Ġfinding": 5633,
      "Ġadmission": 5634,
      "Ġhist": 5635,
      "Ġazo": 5636,
      "Ġhygien": 5637,
      "ots": 5638,
      "Ġsic": 5639,
      "Ġvisa": 5640,
      "Ġembry": 5641,
      "wegian": 5642,
      "Ġmetal": 5643,
      "Ġcroati": 5644,
      "cm": 5645,
      "Ġnutrition": 5646,
      "Ġarise": 5647,
      "rine": 5648,
      "Ġsoft": 5649,
      "Ġusually": 5650,
      "aily": 5651,
      "ole": 5652,
      "Ġcab": 5653,
      "peti": 5654,
      "Ġparce": 5655,
      "echnical": 5656,
      "Ġstating": 5657,
      "add": 5658,
      "Ġ1580": 5659,
      "Ġnegotiated": 5660,
      "Ġsmes": 5661,
      "Ġstability": 5662,
      "Ġrecipients": 5663,
      "Ġproblem": 5664,
      "Ġaccounted": 5665,
      "Ġ2201": 5666,
      "Ġreserved": 5667,
      "sch": 5668,
      "Ġjudicial": 5669,
      "Ġspirit": 5670,
      "Ġpackages": 5671,
      "Ġcontinuing": 5672,
      "Ġelimination": 5673,
      "Ġpred": 5674,
      "Ġthereafter": 5675,
      "iÃ³n": 5676,
      "Ġingredients": 5677,
      "Ġunlikely": 5678,
      "Ġsecondly": 5679,
      "Ġoffering": 5680,
      "Ġspecifies": 5681,
      "aceu": 5682,
      "Ġap": 5683,
      "utory": 5684,
      "Ġatlantic": 5685,
      "Ġenterprise": 5686,
      "cons": 5687,
      "Ġconven": 5688,
      "Ġcamp": 5689,
      "idae": 5690,
      "Ġairports": 5691,
      "Ġheat": 5692,
      "Ġyar": 5693,
      "Ġdeprec": 5694,
      "Ġsheepmeat": 5695,
      "ordning": 5696,
      "Ġstarted": 5697,
      "Ġloading": 5698,
      "Ġmerch": 5699,
      "cat": 5700,
      "Ġpossibilities": 5701,
      "Ġsecretariat": 5702,
      "nia": 5703,
      "ury": 5704,
      "Ġassembly": 5705,
      "Ġafrica": 5706,
      "Ġqualifying": 5707,
      "Ġcargo": 5708,
      "oing": 5709,
      "Ġbic": 5710,
      "ightly": 5711,
      "Ġclean": 5712,
      "Ġserve": 5713,
      "Ġsixth": 5714,
      "regard": 5715,
      "Ġforeseeable": 5716,
      "Ġtran": 5717,
      "Ġstamp": 5718,
      "Ġleave": 5719,
      "Ġfundamental": 5720,
      "Ġurgency": 5721,
      "Ġtv": 5722,
      "Ġtranshipment": 5723,
      "Ġreinsurance": 5724,
      "ginned": 5725,
      "Ġff": 5726,
      "Ġsynthe": 5727,
      "Ġvoluntary": 5728,
      "back": 5729,
      "Ġopinions": 5730,
      "dule": 5731,
      "Ġunginned": 5732,
      "Ġenglish": 5733,
      "ste": 5734,
      "ya": 5735,
      "que": 5736,
      "Ġpropagating": 5737,
      "rus": 5738,
      "anged": 5739,
      "Ġexplan": 5740,
      "Ġministry": 5741,
      "Ġdaily": 5742,
      "Ġadditive": 5743,
      "Ġcapacities": 5744,
      "388": 5745,
      "Ġunderst": 5746,
      "Ġsatisfies": 5747,
      "Ġbrands": 5748,
      "Ġtop": 5749,
      "Ġmagn": 5750,
      "ectors": 5751,
      "Ġ130": 5752,
      "Ġentirely": 5753,
      "uals": 5754,
      "Ġmeasured": 5755,
      "Ġcomplex": 5756,
      "contract": 5757,
      "Ġgbp": 5758,
      "Ġprogressive": 5759,
      "Ġ+": 5760,
      "Ġdiox": 5761,
      "Ġnotif": 5762,
      "Ġdatab": 5763,
      "Ġthresholds": 5764,
      "Ġwarran": 5765,
      "Ġpreventing": 5766,
      "capacity": 5767,
      "Ġcomprising": 5768,
      "Ġhectare": 5769,
      "Ġ700": 5770,
      "Ġfrequency": 5771,
      "Ġpossession": 5772,
      "\";": 5773,
      "Ġeib": 5774,
      "Ġ3719": 5775,
      "Ġprocessor": 5776,
      "Ġlegisl": 5777,
      "keli": 5778,
      "Ġbone": 5779,
      "berg": 5780,
      "Ġfarms": 5781,
      "Ġdefinitively": 5782,
      "Ġbroadcasting": 5783,
      "Ġdivers": 5784,
      "phal": 5785,
      "Ġinternet": 5786,
      "Ġalternate": 5787,
      "Ġpacking": 5788,
      "Ġvote": 5789,
      "icip": 5790,
      "ened": 5791,
      "Ġuc": 5792,
      "Ġsatisfying": 5793,
      "Ġengines": 5794,
      "cing": 5795,
      "weet": 5796,
      "lab": 5797,
      "Ġolives": 5798,
      "Ġprimarily": 5799,
      "Ġseem": 5800,
      "Ġswiss": 5801,
      "Ġmodification": 5802,
      "osen": 5803,
      "Ġunrelated": 5804,
      "Ġimprovements": 5805,
      "Ġfilm": 5806,
      "have": 5807,
      "omen": 5808,
      "Ġrequiring": 5809,
      "Ġlost": 5810,
      "Ġcroatia": 5811,
      "era": 5812,
      "Ġfax": 5813,
      "change": 5814,
      "Ġsod": 5815,
      "Ġ120": 5816,
      "Ġfactory": 5817,
      "Ġchecked": 5818,
      "Ġ138": 5819,
      "112": 5820,
      "Ġscheduled": 5821,
      "Ġho": 5822,
      "Ġsanc": 5823,
      "Ġoperates": 5824,
      "Ġnotifying": 5825,
      "Ġeast": 5826,
      "Ġsimplified": 5827,
      "Ġjuice": 5828,
      "ĠâĢľ": 5829,
      "Ġschedule": 5830,
      "Ġretention": 5831,
      "Ġdecline": 5832,
      "Ġapparent": 5833,
      "supp": 5834,
      "Ġimpossible": 5835,
      "Ġgoatmeat": 5836,
      "kelihood": 5837,
      "lla": 5838,
      "Ġovine": 5839,
      "Ġecus": 5840,
      "Ġ.]": 5841,
      "Ġstatutory": 5842,
      "Ġ%]": 5843,
      "Ġguide": 5844,
      "national": 5845,
      "lined": 5846,
      "Ġcontainer": 5847,
      "Ġqualifications": 5848,
      "side": 5849,
      "Ġassurance": 5850,
      "Ġeconomically": 5851,
      "uk": 5852,
      "employed": 5853,
      "lit": 5854,
      "Ġ2847": 5855,
      "Ġchosen": 5856,
      "rehen": 5857,
      "Ġchlor": 5858,
      "Ġinterpretation": 5859,
      "anim": 5860,
      "Ġmobil": 5861,
      "425": 5862,
      "Ġnord": 5863,
      "Ġassumed": 5864,
      "france": 5865,
      "Ġseek": 5866,
      "Ġgrown": 5867,
      "case": 5868,
      "Ġcement": 5869,
      "Ġviable": 5870,
      "Ġfatten": 5871,
      "Ġsecured": 5872,
      "Ġoften": 5873,
      "Ġhygiene": 5874,
      "bit": 5875,
      ".)": 5876,
      "onds": 5877,
      "Ġreflected": 5878,
      "Ġpharmaceu": 5879,
      "Ġinvoice": 5880,
      "Ġpattern": 5881,
      "bel": 5882,
      "Ġending": 5883,
      "Ġisol": 5884,
      "Ġfootwear": 5885,
      "oms": 5886,
      "competi": 5887,
      "Ġpotato": 5888,
      "Ġsavings": 5889,
      "raints": 5890,
      "Ġflo": 5891,
      "Ġje": 5892,
      "Ġlikelihood": 5893,
      "Ġflax": 5894,
      "Ġinjection": 5895,
      "Ġremainder": 5896,
      "compliance": 5897,
      "fir": 5898,
      "meas": 5899,
      "Ġreasonably": 5900,
      "establish": 5901,
      "Ġrevealed": 5902,
      "agen": 5903,
      "Ġinitiating": 5904,
      "Ġcri": 5905,
      "Ġcred": 5906,
      "Ġdeposit": 5907,
      "Ġrescue": 5908,
      "Îµ": 5909,
      "ulative": 5910,
      "Ġsystematic": 5911,
      "uted": 5912,
      "Ġgame": 5913,
      "Ġix": 5914,
      "Ġconsidering": 5915,
      "Ġrecipro": 5916,
      "Ġhazard": 5917,
      "Ġrating": 5918,
      "Ġcaprine": 5919,
      "Ġ2771": 5920,
      "Ġsmo": 5921,
      "Ġfluc": 5922,
      "Ġazores": 5923,
      "hr": 5924,
      "Ġstrategic": 5925,
      "Ġdistributed": 5926,
      "Ġkorean": 5927,
      "subject": 5928,
      "Ġpsr": 5929,
      "Ġsubjected": 5930,
      "Ġwholesalers": 5931,
      "laying": 5932,
      "Ġchilled": 5933,
      "cee": 5934,
      "Ġpursued": 5935,
      "Ġconference": 5936,
      "Ġbayer": 5937,
      "Ġload": 5938,
      "pa": 5939,
      "Ġstra": 5940,
      "that": 5941,
      "kes": 5942,
      "iche": 5943,
      "Ġvoc": 5944,
      "Ġunderstanding": 5945,
      "Ġmunicip": 5946,
      "Ġprote": 5947,
      "Ġlegally": 5948,
      "oted": 5949,
      "Ġ250": 5950,
      "Ġexact": 5951,
      "Ġrequesting": 5952,
      "Ġcomprehen": 5953,
      "Ġfoc": 5954,
      "izes": 5955,
      "tor": 5956,
      "Ġsweet": 5957,
      "Ġdiscounts": 5958,
      "ppor": 5959,
      "which": 5960,
      "Ġexplicit": 5961,
      "pporteur": 5962,
      "Ġlots": 5963,
      "Ġbt": 5964,
      "ck": 5965,
      "Ġwall": 5966,
      "ican": 5967,
      "ract": 5968,
      "Ġzero": 5969,
      "gro": 5970,
      "eses": 5971,
      "airs": 5972,
      "Ġattributed": 5973,
      "Ġindividuals": 5974,
      "Ġmalt": 5975,
      "Ġcas": 5976,
      "Ġoriginally": 5977,
      "Ġ07": 5978,
      "expor": 5979,
      "furthermore": 5980,
      "quality": 5981,
      "Ġvit": 5982,
      "Ġ173": 5983,
      "Ġinvent": 5984,
      "Ġwarehouse": 5985,
      "Ġcease": 5986,
      "Ġstrengthen": 5987,
      "Ġillegal": 5988,
      "defin": 5989,
      "Ġdependent": 5990,
      "otes": 5991,
      "Ġtechniques": 5992,
      "rued": 5993,
      "pper": 5994,
      "Ġpartner": 5995,
      "Ġsecure": 5996,
      "Ġundergone": 5997,
      "Ġ[.": 5998,
      "rose": 5999,
      "Ġfines": 6000,
      "Ġsociety": 6001,
      "Ġpoli": 6002,
      "italy": 6003,
      "Ġconfirms": 6004,
      "Ġcandid": 6005,
      "Ġ*": 6006,
      "Ġrapporteur": 6007,
      "Ġsampled": 6008,
      "dem": 6009,
      "Ġpic": 6010,
      "rap": 6011,
      "Ġgeneration": 6012,
      "Ġcheeses": 6013,
      "Ġadvis": 6014,
      "Ġmag": 6015,
      "Ġclin": 6016,
      "Ġdesignations": 6017,
      "Ġharmonisation": 6018,
      "Ġforegoing": 6019,
      "how": 6020,
      "pay": 6021,
      "Ġ392": 6022,
      "Ġbenefiting": 6023,
      "Ġstrictly": 6024,
      "Ġprovince": 6025,
      "Ġfoods": 6026,
      "Ġdispl": 6027,
      "Ġinvolves": 6028,
      "Ġcold": 6029,
      "Ġminutes": 6030,
      "Ġprotocols": 6031,
      "houses": 6032,
      "sm": 6033,
      "ics": 6034,
      "ria": 6035,
      "Ġtoler": 6036,
      "Ġfind": 6037,
      "ultane": 6038,
      "Ġgenerated": 6039,
      "Ġasset": 6040,
      "105": 6041,
      "Ġ030": 6042,
      "Ġsectoral": 6043,
      "iel": 6044,
      "Ġhard": 6045,
      "Ġnecessarily": 6046,
      "Ġitl": 6047,
      "Ġbook": 6048,
      "Ġbp": 6049,
      "Ġproportionate": 6050,
      "Ġmolasses": 6051,
      "Ãª": 6052,
      "Ġservants": 6053,
      "Ġinsol": 6054,
      "ruption": 6055,
      "Ġcompletely": 6056,
      "ci": 6057,
      "Ġmonit": 6058,
      "Ġcore": 6059,
      "Ġsegments": 6060,
      "Ġmerged": 6061,
      "Ġdeterioration": 6062,
      "Ġbicyc": 6063,
      "Ġpropose": 6064,
      "Ġlowest": 6065,
      "Ġfarmed": 6066,
      "Ġshell": 6067,
      "Ġcorporate": 6068,
      "Ã£o": 6069,
      "Ġcarn": 6070,
      "Ġkong": 6071,
      "Ġanalysed": 6072,
      "Ġsensitive": 6073,
      "Ġsubmitting": 6074,
      "met": 6075,
      "Ġrevision": 6076,
      "Ġdepreciation": 6077,
      "Ġcam": 6078,
      "Ġdestinations": 6079,
      "herent": 6080,
      "lucose": 6081,
      "Ġremedy": 6082,
      "Ġreturned": 6083,
      "ÏĢ": 6084,
      "Ġmarks": 6085,
      "Ġmediterranean": 6086,
      "Ġdiscussed": 6087,
      "Ġachieving": 6088,
      "run": 6089,
      "inct": 6090,
      "discriminatory": 6091,
      "Ġ1254": 6092,
      "Ġproportionality": 6093,
      "Ġmass": 6094,
      "vere": 6095,
      "Ġhong": 6096,
      "Ġdestined": 6097,
      "Ġdefines": 6098,
      "Ġattest": 6099,
      "Ġdra": 6100,
      "Ġselective": 6101,
      "ansion": 6102,
      "Ġconfidentiality": 6103,
      "Ġequidae": 6104,
      "oglucose": 6105,
      "ickness": 6106,
      "Ġautomatically": 6107,
      "iers": 6108,
      "zing": 6109,
      "Ġveterin": 6110,
      "Ġsynthetic": 6111,
      "ben": 6112,
      "Ġhot": 6113,
      "Ġalb": 6114,
      "acting": 6115,
      "196": 6116,
      "Ġgrowers": 6117,
      "Ġiceland": 6118,
      "Ġvocational": 6119,
      "fishing": 6120,
      "Ġvo": 6121,
      "Ġquick": 6122,
      "Ġobstac": 6123,
      "Ġresidual": 6124,
      "ique": 6125,
      "Ġharmonized": 6126,
      "Ġaspect": 6127,
      "Ġspeed": 6128,
      "Ġdimension": 6129,
      "employment": 6130,
      "Ġadmitted": 6131,
      "Ġsimultane": 6132,
      "Ġconverted": 6133,
      "Ġrespond": 6134,
      ".';": 6135,
      "ights": 6136,
      "0000": 6137,
      "phas": 6138,
      "Ġinvestigated": 6139,
      "Ġdistortions": 6140,
      "Ġcard": 6141,
      "Ġminister": 6142,
      "Ġslightly": 6143,
      "Ġrecommended": 6144,
      "Ġutilization": 6145,
      "atching": 6146,
      "Ġfraud": 6147,
      "Ġentitlements": 6148,
      "Ġdouble": 6149,
      "atched": 6150,
      "Ġoperative": 6151,
      "Ġdealer": 6152,
      "Ġpolitical": 6153,
      "ids": 6154,
      "Ġlamps": 6155,
      "Ġindividually": 6156,
      "Ġliquidation": 6157,
      "Ġarrival": 6158,
      "isters": 6159,
      "exam": 6160,
      "Ġshipbuilding": 6161,
      "Ġconfirmation": 6162,
      "bas": 6163,
      "Ã¥": 6164,
      "Ġparamet": 6165,
      "mpic": 6166,
      "Ġchildren": 6167,
      "Ġprolong": 6168,
      "Ġspecification": 6169,
      "Ġphil": 6170,
      "prof": 6171,
      "Ġcalculations": 6172,
      "Ġforecasts": 6173,
      "Ġoutbreaks": 6174,
      "Ġmoment": 6175,
      "specific": 6176,
      "Ġnorwegian": 6177,
      "Ġpilot": 6178,
      "Ġcane": 6179,
      "Ġextre": 6180,
      "fol": 6181,
      "103": 6182,
      "ground": 6183,
      "orti": 6184,
      "Ġpetro": 6185,
      "Ġverifying": 6186,
      "Ġul": 6187,
      "rates": 6188,
      "Ġconstant": 6189,
      "Ġsoil": 6190,
      "Ġmind": 6191,
      "ars": 6192,
      "Ġincentives": 6193,
      "Ġmineral": 6194,
      "opard": 6195,
      "Ġcomprehensive": 6196,
      "favoured": 6197,
      "llus": 6198,
      "Ġdoubt": 6199,
      "tre": 6200,
      "Ġessentially": 6201,
      "norm": 6202,
      "iment": 6203,
      "Ġhun": 6204,
      "bet": 6205,
      "isp": 6206,
      "Ġlending": 6207,
      "Ġweightings": 6208,
      "Ġjeopard": 6209,
      "articles": 6210,
      "Ġmedia": 6211,
      "Ġclasses": 6212,
      "implement": 6213,
      "ills": 6214,
      "Ġ1973": 6215,
      "Ġconstraints": 6216,
      "Ġweighing": 6217,
      "Ġblue": 6218,
      "Ġstations": 6219,
      "Ġsums": 6220,
      "Ġaccident": 6221,
      "Ġanalyses": 6222,
      "wa": 6223,
      "Ġaccredit": 6224,
      "Ġgatt": 6225,
      "Ġadvanced": 6226,
      "Ġgases": 6227,
      "Ġlinks": 6228,
      "alid": 6229,
      "Ġdissemination": 6230,
      "Ġlate": 6231,
      "Ġdeuts": 6232,
      "ocation": 6233,
      "Ġbecame": 6234,
      "Ġrenewable": 6235,
      "'(": 6236,
      "kg": 6237,
      "Ġtargets": 6238,
      "Ġbusinesses": 6239,
      "Ġshipy": 6240,
      "tonne": 6241,
      "Ġquestionnaires": 6242,
      "Ġtables": 6243,
      "Ġexpired": 6244,
      "Ġexpansion": 6245,
      "ij": 6246,
      "Ġegy": 6247,
      "opoly": 6248,
      "urs": 6249,
      "Ġrefused": 6250,
      "Ġbecomes": 6251,
      "Ġmerely": 6252,
      "Ġcity": 6253,
      "Ġbeer": 6254,
      "Ġspark": 6255,
      "Ġdistinct": 6256,
      "Ġsurface": 6257,
      "Ġsanctions": 6258,
      "cn": 6259,
      "Ġanticip": 6260,
      "uling": 6261,
      "Ġpersp": 6262,
      "Ġtrail": 6263,
      "arb": 6264,
      "Ġwish": 6265,
      "Ġmanager": 6266,
      "Ġlicensing": 6267,
      "Ġsettlement": 6268,
      "Ġ%).": 6269,
      "Ġcomes": 6270,
      "Ġflu": 6271,
      "Ġ1291": 6272,
      "Ġcyc": 6273,
      "Ġspect": 6274,
      "Ġinitiatives": 6275,
      "Ġconsigned": 6276,
      "Ġrevenues": 6277,
      "Ġbankruptcy": 6278,
      "Ġplatform": 6279,
      "period": 6280,
      "Ġtubes": 6281,
      "Ġheard": 6282,
      "Ġemphas": 6283,
      "Ġdurum": 6284,
      "sole": 6285,
      "Ġholders": 6286,
      "orial": 6287,
      "Ġrespected": 6288,
      "Ġrip": 6289,
      "462": 6290,
      "Ġ1966": 6291,
      "Ġsolvency": 6292,
      "Ġcast": 6293,
      "Ġeasily": 6294,
      "Ġevaluated": 6295,
      "Ġderogating": 6296,
      "Ġplanting": 6297,
      "Ġelectrical": 6298,
      "Ġmesh": 6299,
      "Ġvariable": 6300,
      "Ġappearing": 6301,
      "relation": 6302,
      "Ġtyp": 6303,
      "Ġtemper": 6304,
      "Ġtelephone": 6305,
      "Ġembryos": 6306,
      "elfare": 6307,
      "Ġcontributed": 6308,
      "Ġstake": 6309,
      "Ġfinn": 6310,
      "Ġbasf": 6311,
      "101": 6312,
      "Ġintegral": 6313,
      "processed": 6314,
      "Ġfirstly": 6315,
      "Ġ1974": 6316,
      "Ġgenetically": 6317,
      "Ġaggregate": 6318,
      "Ġbatch": 6319,
      "Ġdip": 6320,
      "lympic": 6321,
      "Ġ308": 6322,
      "432": 6323,
      "Ġmaced": 6324,
      "Ġlam": 6325,
      "Ġmeasurement": 6326,
      "Ġrecording": 6327,
      "Ġfluctu": 6328,
      "Ġbos": 6329,
      "Ġbeans": 6330,
      "Ġdiscount": 6331,
      "ana": 6332,
      "fer": 6333,
      "oks": 6334,
      "embl": 6335,
      "Ġretained": 6336,
      "Ġsubd": 6337,
      "Ġmollus": 6338,
      "aution": 6339,
      "Ġ729": 6340,
      "Ġkeeping": 6341,
      "Ġunused": 6342,
      "Ġsecretary": 6343,
      "Ġseat": 6344,
      "ears": 6345,
      "mer": 6346,
      "uel": 6347,
      "Ġsi": 6348,
      "Ġhectolitres": 6349,
      "Ġachievement": 6350,
      "inves": 6351,
      "Ġcame": 6352,
      "Ġclim": 6353,
      "Ġlargely": 6354,
      "ili": 6355,
      "Ġhatching": 6356,
      "omet": 6357,
      "Ġpercentages": 6358,
      "Ġplastic": 6359,
      "isite": 6360,
      "Ġtoxic": 6361,
      "Ġonwards": 6362,
      "Ġexisted": 6363,
      "iven": 6364,
      "aint": 6365,
      "Ġcollabor": 6366,
      "Ġpharmaceutical": 6367,
      "mination": 6368,
      "Ġ797": 6369,
      "Ġrestore": 6370,
      "Ġbroadcasters": 6371,
      "Ġentrusted": 6372,
      "Ġ251": 6373,
      "Ġdeadlines": 6374,
      "Ġrenewed": 6375,
      "Ġsave": 6376,
      "Ġepid": 6377,
      "Ġisoglucose": 6378,
      "Ġpublicly": 6379,
      "cies": 6380,
      "116": 6381,
      "Ġsimply": 6382,
      "Ġrefusal": 6383,
      "eces": 6384,
      "Ġveterinarian": 6385,
      "Ġmad": 6386,
      "Ġqualities": 6387,
      "Ã©d": 6388,
      "Ġargent": 6389,
      "Ġsimple": 6390,
      "Ġdestruction": 6391,
      "Ġdiffer": 6392,
      "Ġchannel": 6393,
      "gement": 6394,
      "Ġparis": 6395,
      "Ġrecently": 6396,
      "402": 6397,
      "Ġmacedonia": 6398,
      "Ġhemp": 6399,
      "Ġreciprocal": 6400,
      "Ġice": 6401,
      "Ġapart": 6402,
      "Ġ2204": 6403,
      "Ġauthenticity": 6404,
      "Ġfurnished": 6405,
      "Ġinvalid": 6406,
      "Ġrot": 6407,
      "urity": 6408,
      "Ġfertilisers": 6409,
      "Ġepidem": 6410,
      "cine": 6411,
      "Ġshar": 6412,
      "Ġhistor": 6413,
      "Ġreferring": 6414,
      "Ġoptim": 6415,
      "Ġauthorizations": 6416,
      "Ġadjusting": 6417,
      "Ġfederation": 6418,
      "dam": 6419,
      "ogenic": 6420,
      "Ġconflic": 6421,
      "Ġprecaution": 6422,
      "Ġpatent": 6423,
      "anol": 6424,
      "Ġwelfare": 6425,
      "Ġtract": 6426,
      "Ġcorrelation": 6427,
      "Ġsignature": 6428,
      "Ġattem": 6429,
      "Ġfittings": 6430,
      "Ġdatabase": 6431,
      "Ġ%]*": 6432,
      "Ġbritain": 6433,
      "Ġhous": 6434,
      "Ġinvoked": 6435,
      "Ġcooperated": 6436,
      "Ġsimilarly": 6437,
      "Ġpurchasers": 6438,
      "yed": 6439,
      "Ġwhenever": 6440,
      "hn": 6441,
      "Ġ1601": 6442,
      "ceptible": 6443,
      "Ġ2173": 6444,
      "Ġconfeder": 6445,
      "Ġproperties": 6446,
      "Ġevaluate": 6447,
      "ores": 6448,
      "Ġtimet": 6449,
      "Ġargues": 6450,
      "Ġberlin": 6451,
      "Ġindependently": 6452,
      "Ġinterf": 6453,
      "Ġexpressly": 6454,
      "Ġblo": 6455,
      "Ġmen": 6456,
      "Ġ%;": 6457,
      "Ġrunning": 6458,
      "Ġsay": 6459,
      "Ġexamining": 6460,
      "ob": 6461,
      "metic": 6462,
      "economic": 6463,
      "`;": 6464,
      "Ġhops": 6465,
      "Ġmachine": 6466,
      "usion": 6467,
      "107": 6468,
      "Ġinward": 6469,
      "Ġstation": 6470,
      "Ġacross": 6471,
      "Ġinnovation": 6472,
      "Ġstop": 6473,
      "Ġinstalment": 6474,
      "*)": 6475,
      "sid": 6476,
      "Ġtruc": 6477,
      "Ġwo": 6478,
      "verages": 6479,
      "109": 6480,
      "Ġsatisfaction": 6481,
      ".`;": 6482,
      "Ġyarn": 6483,
      "rete": 6484,
      "Ġnitro": 6485,
      "Ġlegislative": 6486,
      "ulate": 6487,
      "Ġintervals": 6488,
      "Ġedf": 6489,
      "Ġeco": 6490,
      "Ġolympic": 6491,
      "ocks": 6492,
      "ester": 6493,
      "sibly": 6494,
      "Ġ110": 6495,
      "Ġsard": 6496,
      "Ġpa": 6497,
      "position": 6498,
      "Ġunlo": 6499,
      "Ġsubparagraphs": 6500,
      "Ġlicensed": 6501,
      "Ġmultiplied": 6502,
      "Ġconfederation": 6503,
      "Ġjust": 6504,
      "istance": 6505,
      "auses": 6506,
      "Ġbenefited": 6507,
      "Ġcorrected": 6508,
      "iber": 6509,
      "Ġmort": 6510,
      "Ġcell": 6511,
      "Ġmandatory": 6512,
      "tate": 6513,
      "inder": 6514,
      "Ġcontents": 6515,
      "Ġroyal": 6516,
      "Ġmerc": 6517,
      "pre": 6518,
      "Ġexhib": 6519,
      "Ġcommod": 6520,
      "Ġprepare": 6521,
      "Ġprocedural": 6522,
      "Ġbru": 6523,
      "Ġcompensate": 6524,
      "Ġrenewal": 6525,
      "nes": 6526,
      "Ġmess": 6527,
      "new": 6528,
      "Ġforfe": 6529,
      "cast": 6530,
      "Ġtherefrom": 6531,
      "Ġgeneralized": 6532,
      "Ġdispatched": 6533,
      "Ġdiscussions": 6534,
      "Ġadversely": 6535,
      "Ġterritorial": 6536,
      "Ġclinical": 6537,
      "Ġdirected": 6538,
      "Ġinteroper": 6539,
      "Ġzinc": 6540,
      "Ġafford": 6541,
      "Ġappeared": 6542,
      "inding": 6543,
      "information": 6544,
      "Ġconsorti": 6545,
      "Ġalign": 6546,
      "ola": 6547,
      "olute": 6548,
      "Ġecb": 6549,
      "Ġdiagn": 6550,
      "Ġdeduction": 6551,
      "Ġinstalments": 6552,
      "sk": 6553,
      "Ġvotes": 6554,
      "Ġ080": 6555,
      "Ġperiodically": 6556,
      "Ġfeas": 6557,
      "Ġanalytical": 6558,
      "condition": 6559,
      "Ġbuildings": 6560,
      "Ġfattening": 6561,
      "ano": 6562,
      "Ġyard": 6563,
      "Ġholds": 6564,
      "Ġleaving": 6565,
      "Ġcomparability": 6566,
      "Ġadministr": 6567,
      "Î¿Ï": 6568,
      "vency": 6569,
      "rand": 6570,
      "Ġcurrencies": 6571,
      "Ġextreme": 6572,
      "Ġspare": 6573,
      "Ġhell": 6574,
      "ney": 6575,
      "Ġdistributor": 6576,
      "orand": 6577,
      "Ġdefence": 6578,
      "sen": 6579,
      "Ġbf": 6580,
      "Ġclauses": 6581,
      "Ġappreciable": 6582,
      "Ġparameters": 6583,
      "Ġak": 6584,
      "Ġgi": 6585,
      "Ġacted": 6586,
      "Ġpursue": 6587,
      "Ġrender": 6588,
      "lÃ©": 6589,
      "ift": 6590,
      "ribe": 6591,
      "Ġcoverage": 6592,
      "Ġcircumvention": 6593,
      "Ġviol": 6594,
      "Ġnominal": 6595,
      "Ġrang": 6596,
      "ado": 6597,
      "Ġcooperatives": 6598,
      "Ġportion": 6599,
      "Ġbs": 6600,
      "Ġaffects": 6601,
      "Ġproved": 6602,
      "Ġvisit": 6603,
      "tage": 6604,
      "Ġegypt": 6605,
      "rating": 6606,
      "Ġ1249": 6607,
      "Ġcaptive": 6608,
      "Ġdrinks": 6609,
      "Ġfabrics": 6610,
      "elux": 6611,
      "Ġrepair": 6612,
      "Ġsubsidised": 6613,
      "'t": 6614,
      "Ġproven": 6615,
      "ras": 6616,
      "Ġcuts": 6617,
      "utral": 6618,
      "cul": 6619,
      "Ġdetection": 6620,
      "view": 6621,
      "ofar": 6622,
      "Ġreimbursed": 6623,
      "Ġcountervail": 6624,
      "Ġrecycling": 6625,
      "Ġconstituting": 6626,
      "Ġoutst": 6627,
      "Ġ2727": 6628,
      "ĠÂ´": 6629,
      "Ġpakistan": 6630,
      "given": 6631,
      "cope": 6632,
      "Ġconstrued": 6633,
      "Ġill": 6634,
      "Ġrefin": 6635,
      "otic": 6636,
      "Ġmemorand": 6637,
      "essential": 6638,
      "Ġcontamin": 6639,
      "Ġvariations": 6640,
      "Ġrepeated": 6641,
      "Ġirre": 6642,
      "Ġsolvay": 6643,
      "hing": 6644,
      "non": 6645,
      "Ġciti": 6646,
      "Ġapples": 6647,
      "Ġalong": 6648,
      "Ġuseful": 6649,
      "Ġprinted": 6650,
      "Ġabsolute": 6651,
      "Ġstring": 6652,
      "Ġ%),": 6653,
      "Ġsusceptible": 6654,
      "Ġultim": 6655,
      "Ġ('": 6656,
      "Ġverord": 6657,
      "Ġlevied": 6658,
      "Ġexit": 6659,
      "Ġvac": 6660,
      "single": 6661,
      "Ġposte": 6662,
      "Ġfranch": 6663,
      "inte": 6664,
      "Ġgar": 6665,
      "ourse": 6666,
      "Ġ355": 6667,
      "road": 6668,
      "Ġflight": 6669,
      "Ġaside": 6670,
      "Ġmexic": 6671,
      "âĢĺ(": 6672,
      "Ġcredits": 6673,
      "enti": 6674,
      "Ġdisregard": 6675,
      "Ġflavour": 6676,
      "Ġdair": 6677,
      "Ġoral": 6678,
      "garian": 6679,
      "vol": 6680,
      "Ġcertainty": 6681,
      "Ġcontributing": 6682,
      "Ġincorrect": 6683,
      "Ġclub": 6684,
      "force": 6685,
      "iscal": 6686,
      "Ġici": 6687,
      "Ġaccuracy": 6688,
      "Ġ900": 6689,
      "hers": 6690,
      "Ġequivalence": 6691,
      "Ġxx": 6692,
      "terdam": 6693,
      "Ġmetres": 6694,
      "Ġaddresses": 6695,
      "Ġsun": 6696,
      "bour": 6697,
      "Î¼": 6698,
      "idents": 6699,
      "Ġinsolvency": 6700,
      "Ġnar": 6701,
      "Ġcontinuity": 6702,
      "Ġbrucell": 6703,
      "uf": 6704,
      "Ġauthorizing": 6705,
      "Ġtotalling": 6706,
      "Ġoutstanding": 6707,
      "Ġpublicity": 6708,
      "group": 6709,
      "Ã½": 6710,
      "Ġshor": 6711,
      "Ġfulfils": 6712,
      "Ġportfol": 6713,
      "Ġnavig": 6714,
      ".\";": 6715,
      "special": 6716,
      "Ġadding": 6717,
      "Ġinstalled": 6718,
      "Ġregistry": 6719,
      "Ġargue": 6720,
      "Ġharmonization": 6721,
      "Ġfinnish": 6722,
      "writ": 6723,
      "Ġ620": 6724,
      "Ġaustral": 6725,
      "afo": 6726,
      "Ã©t": 6727,
      "Ġdiplom": 6728,
      "Ġmaster": 6729,
      "notwithstanding": 6730,
      "Ġnegligible": 6731,
      "Ġarable": 6732,
      "Ġbiod": 6733,
      "exc": 6734,
      "Ġenables": 6735,
      "Ġgdp": 6736,
      "Ġprotein": 6737,
      "Ġsparkling": 6738,
      "aign": 6739,
      "dis": 6740,
      "Ġsucrose": 6741,
      "Ġkm": 6742,
      "Ġsuspected": 6743,
      "493": 6744,
      "Ġcmo": 6745,
      "Ġdistance": 6746,
      "Ġfuels": 6747,
      "tot": 6748,
      "zy": 6749,
      "Ã²": 6750,
      "Ġsemi": 6751,
      "Ġvic": 6752,
      "Ġmilled": 6753,
      "Ġeuropol": 6754,
      "Ġ640": 6755,
      "Ġflights": 6756,
      "Ġsupplementing": 6757,
      "Ġunfair": 6758,
      "cill": 6759,
      "Ġattrac": 6760,
      "within": 6761,
      "water": 6762,
      "Ġsubstantiated": 6763,
      "Ġextract": 6764,
      "Ġaccorded": 6765,
      "Ġweak": 6766,
      "Ġpieces": 6767,
      "Ġly": 6768,
      "Ġuniversal": 6769,
      "Ġnos": 6770,
      "Ġabuse": 6771,
      "Ġposts": 6772,
      "Ġliquidity": 6773,
      "Ġwomen": 6774,
      "exp": 6775,
      "Ġadapting": 6776,
      "Ġtranche": 6777,
      "Ġbig": 6778,
      "Ġ2011": 6779,
      "Ġinsofar": 6780,
      "Ġcattle": 6781,
      "she": 6782,
      "Ġrye": 6783,
      "Ġserial": 6784,
      "Ã¬": 6785,
      "Ġpas": 6786,
      "Ġsharing": 6787,
      "Ġoverrun": 6788,
      "Ġmandate": 6789,
      "Ġask": 6790,
      "Ġvaluation": 6791,
      "Ġfoundation": 6792,
      "hum": 6793,
      "Ġcontamination": 6794,
      "Ġflexibility": 6795,
      "da": 6796,
      "tise": 6797,
      "Ġsow": 6798,
      "Ġrefining": 6799,
      "Ġ1971": 6800,
      "Ġslaughterhouse": 6801,
      "quare": 6802,
      "type": 6803,
      "Ġhellenic": 6804,
      "Ġmg": 6805,
      "Ġstressed": 6806,
      "Ġoranges": 6807,
      "atever": 6808,
      "ader": 6809,
      "Ġdup": 6810,
      "aside": 6811,
      "Ġlem": 6812,
      "Ġquickly": 6813,
      "yt": 6814,
      "abit": 6815,
      "Ġplayers": 6816,
      "Ġcriminal": 6817,
      "Ġincorporation": 6818,
      "Ġrequisite": 6819,
      "aft": 6820,
      "Ġmembership": 6821,
      "Ġclarify": 6822,
      "bed": 6823,
      "ites": 6824,
      "Ġdownstream": 6825,
      "Ġconcentrations": 6826,
      "Ġcampaign": 6827,
      "mann": 6828,
      "nung": 6829,
      "Ġneutral": 6830,
      "Ġ148": 6831,
      "117": 6832,
      "Ġdisinf": 6833,
      "Ġ3632": 6834,
      "Ġ133": 6835,
      "ondon": 6836,
      "Ġprevented": 6837,
      "Ġ2784": 6838,
      "Ġbiological": 6839,
      "Ġendorsed": 6840,
      "Ġmig": 6841,
      "aust": 6842,
      "source": 6843,
      "hered": 6844,
      "Ġworker": 6845,
      "Ġresponsibilities": 6846,
      "competitive": 6847,
      "Ġaccum": 6848,
      "Ġbenelux": 6849,
      "nor": 6850,
      "ris": 6851,
      "arus": 6852,
      "alt": 6853,
      "andon": 6854,
      "uses": 6855,
      "Ġcertifying": 6856,
      "Ġdeliber": 6857,
      "Ġidentifying": 6858,
      "Ġta": 6859,
      "uge": 6860,
      "lev": 6861,
      "Ġart": 6862,
      "Ġdispute": 6863,
      "Ġsmooth": 6864,
      "head": 6865,
      "Ġshipment": 6866,
      "emens": 6867,
      "Ġappend": 6868,
      "Ġunprocessed": 6869,
      "Ġvitam": 6870,
      "Ġgoats": 6871,
      "Ġsolid": 6872,
      "retion": 6873,
      "Ġarti": 6874,
      "Ġmi": 6875,
      "Ġshared": 6876,
      "iding": 6877,
      "Ġindents": 6878,
      "Ġpostp": 6879,
      "Ġtrials": 6880,
      "cillary": 6881,
      "owned": 6882,
      "Ġfulfilment": 6883,
      "Ġobjection": 6884,
      "Ġcompensating": 6885,
      "Ġinventory": 6886,
      "cephal": 6887,
      "Ġdiscip": 6888,
      "Ġmemorandum": 6889,
      "puts": 6890,
      "Ġgraph": 6891,
      "pi": 6892,
      "Ġsom": 6893,
      "Ġsubmissions": 6894,
      "ink": 6895,
      "Ġ1520": 6896,
      "note": 6897,
      "Ġspecimen": 6898,
      "Ġucits": 6899,
      "Ġcher": 6900,
      "Ġrecourse": 6901,
      "Ġmonitored": 6902,
      "Ġgrading": 6903,
      "cession": 6904,
      "Ġstringent": 6905,
      "rum": 6906,
      "etnam": 6907,
      "Ġgovernments": 6908,
      "Ġformula": 6909,
      "Ġnitrogen": 6910,
      "Ġwhatever": 6911,
      "Ġdifferenti": 6912,
      "Ġinterpre": 6913,
      "Ġlaunch": 6914,
      "Ġchall": 6915,
      "Ġinteroperability": 6916,
      "Ġconcrete": 6917,
      "Ġconstitu": 6918,
      "Ġnumer": 6919,
      "pers": 6920,
      "itude": 6921,
      "Ġvoting": 6922,
      "Ġpossibly": 6923,
      "ungs": 6924,
      "total": 6925,
      "mal": 6926,
      "Îº": 6927,
      "financ": 6928,
      "Ġcitrus": 6929,
      "Ġmolluscs": 6930,
      "Ġequally": 6931,
      "Ġprecisely": 6932,
      "vina": 6933,
      "Ġfire": 6934,
      "Ġallocating": 6935,
      "provision": 6936,
      "Ġhaul": 6937,
      "Ġdeutsche": 6938,
      "Ġabsor": 6939,
      "can": 6940,
      "Ġserved": 6941,
      "Ġsubscri": 6942,
      "Ġsevere": 6943,
      "Ġlemons": 6944,
      "gre": 6945,
      "alities": 6946,
      "Ġrecurrence": 6947,
      "Ġtraw": 6948,
      "Ġpsf": 6949,
      "una": 6950,
      "take": 6951,
      "Ġinterchange": 6952,
      "Ġpossess": 6953,
      "Ġrebates": 6954,
      "ov": 6955,
      "Ġstain": 6956,
      "Ġundue": 6957,
      "ĠÂ£": 6958,
      "Ġcomplementary": 6959,
      "Ġcritical": 6960,
      "Ġmos": 6961,
      "Ġlease": 6962,
      "Ġdestro": 6963,
      "Ġclients": 6964,
      "Ġpanel": 6965,
      "Î·": 6966,
      "Ġabandon": 6967,
      "Ġjob": 6968,
      "Ġporcine": 6969,
      "Ġentran": 6970,
      "Ġbackground": 6971,
      "Ġcarnations": 6972,
      "uous": 6973,
      "art": 6974,
      "Ġpreclud": 6975,
      "Ġbranch": 6976,
      "Ġtrailers": 6977,
      "Ġtemperature": 6978,
      "financial": 6979,
      "Ġgrades": 6980,
      "subsid": 6981,
      "Ġblock": 6982,
      "Ġuncertain": 6983,
      "Ġdiscretion": 6984,
      "Ġexperi": 6985,
      "ipped": 6986,
      "first": 6987,
      "Ġferro": 6988,
      "fish": 6989,
      "han": 6990,
      "Ġorganised": 6991,
      "Ġextensive": 6992,
      "Ġemployee": 6993,
      "Ġupdate": 6994,
      "Ġmining": 6995,
      "115": 6996,
      "Ġcooperative": 6997,
      "Ġcoordinated": 6998,
      "Ġwire": 6999,
      "Ġquarterly": 7000,
      "Ġhectares": 7001,
      "tonnes": 7002,
      "Ġunderstood": 7003,
      "Ġensures": 7004,
      "nings": 7005,
      "sg": 7006,
      "Ġpta": 7007,
      "Ġperiodic": 7008,
      "Ġscen": 7009,
      "united": 7010,
      "Ġadmissible": 7011,
      "Ġdism": 7012,
      "Ġgrand": 7013,
      "Ġreceives": 7014,
      "Ġda": 7015,
      "right": 7016,
      "zego": 7017,
      "268": 7018,
      "ips": 7019,
      "commit": 7020,
      "Ġdisposed": 7021,
      "Ġsense": 7022,
      "ispens": 7023,
      "Ġmac": 7024,
      "Ġforces": 7025,
      "Ġbeverages": 7026,
      "urea": 7027,
      "Ġsubstitution": 7028,
      "Ġtrust": 7029,
      "Ġsuggest": 7030,
      "Ġdairy": 7031,
      "Ġclient": 7032,
      "Ġmixtures": 7033,
      "Ġancillary": 7034,
      "Ġ659": 7035,
      "Ã¤n": 7036,
      "Ġlitres": 7037,
      "Ġchoose": 7038,
      "zegovina": 7039,
      "ags": 7040,
      "Ġintell": 7041,
      "Ġyields": 7042,
      "bus": 7043,
      "Ġreti": 7044,
      "Ġcontested": 7045,
      "Ġfulfilling": 7046,
      "eff": 7047,
      "orem": 7048,
      "Ġseal": 7049,
      "Ã§Ã£o": 7050,
      "Ġsolutions": 7051,
      "Ġundertakes": 7052,
      "Ġnewly": 7053,
      "Ġhectolitre": 7054,
      "exporters": 7055,
      "Ġpursuit": 7056,
      "comm": 7057,
      "Ġlisting": 7058,
      "ĠÃ¡": 7059,
      "Ġtimetable": 7060,
      "1998": 7061,
      "rd": 7062,
      "origin": 7063,
      "Ġhus": 7064,
      "Ġ1765": 7065,
      "titude": 7066,
      "Ġderiv": 7067,
      "Ġcomparative": 7068,
      "Ġvietnam": 7069,
      "Ġwestlb": 7070,
      "126": 7071,
      "Ġgradu": 7072,
      "works": 7073,
      "Ġformed": 7074,
      "Ġrepresentation": 7075,
      "Ġcomplainants": 7076,
      "Ġbranches": 7077,
      "))": 7078,
      "Ġcreos": 7079,
      "Ġbosnia": 7080,
      "Ġinvolvement": 7081,
      "agement": 7082,
      "Ġceased": 7083,
      "uine": 7084,
      "Ġunp": 7085,
      "Ġvalorem": 7086,
      "Ġworkforce": 7087,
      "hed": 7088,
      "Ġdiver": 7089,
      "Ġky": 7090,
      "Ġlastly": 7091,
      "Ġadminister": 7092,
      "ional": 7093,
      "Ġlittle": 7094,
      "Ġcm": 7095,
      "Ġreorgan": 7096,
      "Ġham": 7097,
      "Ġ785": 7098,
      "Ġhybr": 7099,
      "Ã¶r": 7100,
      "label": 7101,
      "Ġpharmac": 7102,
      "Ġelse": 7103,
      "Ġvide": 7104,
      "Ġregardless": 7105,
      "Ġdeclined": 7106,
      "662": 7107,
      "Ġfluctuations": 7108,
      "Ġdealing": 7109,
      "Ġartificial": 7110,
      "Ġcourts": 7111,
      "isia": 7112,
      "Ġhom": 7113,
      "Ġthai": 7114,
      "rie": 7115,
      "Ġtrave": 7116,
      "Ġbelarus": 7117,
      "Ġ730": 7118,
      "Ġinfected": 7119,
      "Ġprincipally": 7120,
      "Ġdisplay": 7121,
      "aired": 7122,
      "Ġnv": 7123,
      "108": 7124,
      "Ġmixed": 7125,
      "opening": 7126,
      "date": 7127,
      "definitions": 7128,
      "Ġtal": 7129,
      "ita": 7130,
      "leum": 7131,
      "Ġrestor": 7132,
      "Ġgenuine": 7133,
      "requ": 7134,
      "taking": 7135,
      "kt": 7136,
      "Ġsilicon": 7137,
      "Ġcommenc": 7138,
      "Ġunemployment": 7139,
      "Ġcollecting": 7140,
      "prov": 7141,
      "Ġadministrator": 7142,
      "adings": 7143,
      "Ġ2013": 7144,
      "Ġ2309": 7145,
      "Ġprevailing": 7146,
      "trade": 7147,
      "ede": 7148,
      "Ġspot": 7149,
      "Ġsimultaneously": 7150,
      "Ġhoc": 7151,
      "Ġ103": 7152,
      "Ġaccessible": 7153,
      "sd": 7154,
      "Ġsuper": 7155,
      "Ġhoriz": 7156,
      "zone": 7157,
      "Ġtechnically": 7158,
      "Ġleads": 7159,
      "scope": 7160,
      "wor": 7161,
      "Ġserving": 7162,
      "ture": 7163,
      "Ġinputs": 7164,
      "Ġ([": 7165,
      "Ġrepaid": 7166,
      "Ġoutlined": 7167,
      "Ġbrucellosis": 7168,
      "Ġchallen": 7169,
      "mental": 7170,
      "Ġunderlying": 7171,
      "Ġindispens": 7172,
      "Ġpollut": 7173,
      "Ġtuber": 7174,
      "Ġ299": 7175,
      "ficiencies": 7176,
      "Ġidentif": 7177,
      "Ġcatalog": 7178,
      "Ġputting": 7179,
      "Ġsake": 7180,
      "Ġenlar": 7181,
      "Ġdevice": 7182,
      "Ġcreosote": 7183,
      "Ġuns": 7184,
      "Ġcasein": 7185,
      "Ġcrus": 7186,
      "Ġsubheadings": 7187,
      "Ġcumulative": 7188,
      "kew": 7189,
      "Ġ426": 7190,
      "ivision": 7191,
      "159": 7192,
      "kewise": 7193,
      "Ġgin": 7194,
      "Ġproduces": 7195,
      "pose": 7196,
      "Ġcancelled": 7197,
      "llation": 7198,
      "Ġcontinues": 7199,
      "Ġamongst": 7200,
      "ship": 7201,
      "Ġ101": 7202,
      "product": 7203,
      "Ġbfrs": 7204,
      "introduc": 7205,
      "Ġexplicitly": 7206,
      "Ġargentina": 7207,
      "Ġstay": 7208,
      "Ġinstitute": 7209,
      "Ġabolished": 7210,
      "Ġappra": 7211,
      "Ġleather": 7212,
      "Ġforming": 7213,
      "Ġcoordinating": 7214,
      "Ġflor": 7215,
      "Ġ337": 7216,
      "Ġallegedly": 7217,
      "Ġcombat": 7218,
      "Ġconting": 7219,
      "Ġdefer": 7220,
      "Ġstainless": 7221,
      "ery": 7222,
      "users": 7223,
      "Ġerdf": 7224,
      "cor": 7225,
      "Ġinside": 7226,
      "ixed": 7227,
      "Ġarbit": 7228,
      "Ġxi": 7229,
      "Ġinterconnection": 7230,
      "catches": 7231,
      "Ġcows": 7232,
      "Ġ296": 7233,
      "Ġchic": 7234,
      "Ġ115": 7235,
      "220": 7236,
      "ventive": 7237,
      "Ġze": 7238,
      "Ġsiemens": 7239,
      "524": 7240,
      "lete": 7241,
      "Ġexpand": 7242,
      "Ġappointing": 7243,
      "Ġportfolio": 7244,
      "agre": 7245,
      "Ġwording": 7246,
      "lovak": 7247,
      "Ġminus": 7248,
      "Ġdifferentiated": 7249,
      "spain": 7250,
      "Ġcreating": 7251,
      "Ġvaccine": 7252,
      "Ġsummar": 7253,
      "rich": 7254,
      "erve": 7255,
      "holders": 7256,
      "Ġdepends": 7257,
      "Ġbuyers": 7258,
      "orghum": 7259,
      "vious": 7260,
      "Ġdirectors": 7261,
      "Ġones": 7262,
      "Ġcompil": 7263,
      "dep": 7264,
      "ÏĤ": 7265,
      "Ġtick": 7266,
      "rement": 7267,
      "Ã¨g": 7268,
      "Ġsuggested": 7269,
      "apital": 7270,
      "Ġmixture": 7271,
      "Ġstrip": 7272,
      "Ġprospects": 7273,
      "Ġgm": 7274,
      "Ġmeal": 7275,
      "Ġcars": 7276,
      "during": 7277,
      "Ġsand": 7278,
      "eless": 7279,
      "Ġ1702": 7280,
      "Ġrapidly": 7281,
      "Ġsove": 7282,
      "Ġcontrast": 7283,
      "sequently": 7284,
      "whe": 7285,
      "Ġdistric": 7286,
      "Ġattributable": 7287,
      "cted": 7288,
      "hs": 7289,
      "those": 7290,
      "Ġroses": 7291,
      "Ġ235": 7292,
      "Ġseeking": 7293,
      "lt": 7294,
      "Ġsme": 7295,
      "ull": 7296,
      "ongue": 7297,
      "Ġallocations": 7298,
      "Ġresident": 7299,
      "Ġnitrate": 7300,
      "Ġface": 7301,
      "Ġattach": 7302,
      "ario": 7303,
      "Ġmention": 7304,
      "Ġgear": 7305,
      "Ġ1006": 7306,
      "Ġlodge": 7307,
      "rupted": 7308,
      "annexes": 7309,
      "--": 7310,
      "just": 7311,
      "Ġsis": 7312,
      "Ġdecides": 7313,
      "lamento": 7314,
      "Ġammon": 7315,
      "Ġborders": 7316,
      "Ġappointment": 7317,
      "Ġperspective": 7318,
      "sf": 7319,
      "ued": 7320,
      "wo": 7321,
      "Ġtrig": 7322,
      "stan": 7323,
      "Ġcited": 7324,
      "Ġbund": 7325,
      "Ġseats": 7326,
      "Ġadministered": 7327,
      "Ġ404": 7328,
      "Ġoccupational": 7329,
      "las": 7330,
      "Ġhoney": 7331,
      "tee": 7332,
      "Ġneigh": 7333,
      "Ġ1666": 7334,
      "Ġdocumentary": 7335,
      "Ġretroactive": 7336,
      "Ġenough": 7337,
      "Ġincumb": 7338,
      "Ġstores": 7339,
      "Ġblood": 7340,
      "Ġsecondary": 7341,
      "regist": 7342,
      "Ġsymb": 7343,
      "Ġsubmits": 7344,
      "production": 7345,
      "Ġalleg": 7346,
      "'-": 7347,
      "icides": 7348,
      "Ġvideo": 7349,
      "Ġ375": 7350,
      "119": 7351,
      "Ġpassed": 7352,
      "Ġsulphur": 7353,
      "Ġcutting": 7354,
      "Ġunanim": 7355,
      "Ġ1422": 7356,
      "Ġaustralia": 7357,
      "Ġband": 7358,
      "pel": 7359,
      "Ġcreditor": 7360,
      "amend": 7361,
      "Ġmanage": 7362,
      "Ġdefining": 7363,
      "moreover": 7364,
      "Ġcontacts": 7365,
      "Ġfitted": 7366,
      "Ġsncm": 7367,
      "Ġethylene": 7368,
      "determ": 7369,
      "\").": 7370,
      "orting": 7371,
      "Ġwilling": 7372,
      "Ġeliminated": 7373,
      "riptions": 7374,
      "ĠrÃ©": 7375,
      "itis": 7376,
      "ÃŁ": 7377,
      "Ġcarcase": 7378,
      "ontal": 7379,
      "Ġsing": 7380,
      "Ġcloth": 7381,
      "Ġovercapacity": 7382,
      "Ġshipown": 7383,
      "Ġamerican": 7384,
      "Ġpropri": 7385,
      "113": 7386,
      "Ġattend": 7387,
      "Ġcountervailable": 7388,
      "quota": 7389,
      "oph": 7390,
      "nix": 7391,
      "Â´": 7392,
      "Ġongoing": 7393,
      "Ġhal": 7394,
      "oming": 7395,
      "Ġadvised": 7396,
      "Ġmodifications": 7397,
      "Ġnuts": 7398,
      "Ġpreventive": 7399,
      "Ġsimplify": 7400,
      "apters": 7401,
      "Ġextremely": 7402,
      "ureau": 7403,
      "book": 7404,
      "Ġupdating": 7405,
      "bm": 7406,
      "jects": 7407,
      "taining": 7408,
      "Ġcharter": 7409,
      "Ġmechanical": 7410,
      "Ġmodify": 7411,
      "Ġtunisia": 7412,
      "Ġ0406": 7413,
      "stein": 7414,
      "Ġwto": 7415,
      "Ġoriginate": 7416,
      "Ġprud": 7417,
      "Ġhistorical": 7418,
      "Ġcosmetic": 7419,
      "Ġepidemiological": 7420,
      "Ġgaz": 7421,
      "Ġ2131": 7422,
      "Ġconforming": 7423,
      "Ġcausing": 7424,
      "processing": 7425,
      "Ġconsortium": 7426,
      "Ġindispensable": 7427,
      "120": 7428,
      "ona": 7429,
      "Ġexpression": 7430,
      "bor": 7431,
      "Ġusual": 7432,
      "Ġmonopoly": 7433,
      "Ġpetroleum": 7434,
      "Ġprinting": 7435,
      "Ġvisits": 7436,
      "Ġcomprises": 7437,
      "pack": 7438,
      "aria": 7439,
      "Ġdetected": 7440,
      "pric": 7441,
      "Ġdram": 7442,
      "Ġframeworks": 7443,
      "Ġherring": 7444,
      "Ã¨glement": 7445,
      "ystem": 7446,
      "Ġans": 7447,
      "olamento": 7448,
      "Ġquoted": 7449,
      "Ġ1798": 7450,
      "Ġshipped": 7451,
      "Ġirregularity": 7452,
      "Ġdetrim": 7453,
      "111": 7454,
      "Ġairways": 7455,
      "Ġsurv": 7456,
      "433": 7457,
      "Ġbioc": 7458,
      "shall": 7459,
      "Ġcru": 7460,
      "Ġsaint": 7461,
      "italia": 7462,
      "Ġsheets": 7463,
      "Ġpensions": 7464,
      "Ġneighbour": 7465,
      "Ġsorghum": 7466,
      "Ġ125": 7467,
      "Ġ1408": 7468,
      "Ġways": 7469,
      "Ġexposed": 7470,
      "Ġcollaboration": 7471,
      "public": 7472,
      "handling": 7473,
      "Ġpesticide": 7474,
      "Ġphas": 7475,
      "Ġtransform": 7476,
      "....": 7477,
      "Ġpul": 7478,
      "umed": 7479,
      "Ġ2012": 7480,
      "Ġ1600": 7481,
      "Ġdisclosed": 7482,
      "Ġascertain": 7483,
      "changed": 7484,
      "Ġ1051": 7485,
      "Ġstatute": 7486,
      "Ġconventional": 7487,
      "Ġengineering": 7488,
      "third": 7489,
      "Ġtolerance": 7490,
      "Ġ366": 7491,
      "Ġdoing": 7492,
      "brussels": 7493,
      "vii": 7494,
      "Ġtow": 7495,
      "Ġunre": 7496,
      "Ġlikewise": 7497,
      "Ġcollect": 7498,
      "Ġtotally": 7499,
      "rolled": 7500,
      "ames": 7501,
      "Ġexpense": 7502,
      "Ġtwice": 7503,
      "Ġexaminations": 7504,
      "Ġallowable": 7505,
      "Ġnavigation": 7506,
      "west": 7507,
      "chlor": 7508,
      "illa": 7509,
      "Ġaudio": 7510,
      "675": 7511,
      "gence": 7512,
      "Ġcad": 7513,
      "Ġruled": 7514,
      "Ġpool": 7515,
      "Ġhandic": 7516,
      "Ġtissue": 7517,
      "Ġ109": 7518,
      "Ġscho": 7519,
      "Ġstraw": 7520,
      "producing": 7521,
      "applications": 7522,
      "ĠÃł": 7523,
      "bi": 7524,
      "oses": 7525,
      "Ġ574": 7526,
      "Ġterminate": 7527,
      "Ġrose": 7528,
      "Ġ2371": 7529,
      "Ġpolyester": 7530,
      "Ġprecautionary": 7531,
      "necess": 7532,
      "ficial": 7533,
      "Ġconsecutive": 7534,
      "Ġairline": 7535,
      "Ġdrug": 7536,
      "Ġboneless": 7537,
      "Ġelsewhere": 7538,
      "Ġhynix": 7539,
      "Ġmexico": 7540,
      "Ġtradition": 7541,
      "Ġreproductive": 7542,
      "Ġmale": 7543,
      "Ġpurity": 7544,
      "chem": 7545,
      "proportion": 7546,
      "Ġconsolidation": 7547,
      "Ġcabin": 7548,
      "ray": 7549,
      "Ġchapters": 7550,
      "Ġconsistently": 7551,
      "Ġaccurate": 7552,
      "isal": 7553,
      "uty": 7554,
      "Ġsubsidized": 7555,
      "Ġsickness": 7556,
      "aland": 7557,
      "Ġdensity": 7558,
      "gram": 7559,
      "jo": 7560,
      "Ġ170": 7561,
      "Ġerror": 7562,
      "Ġretirement": 7563,
      "vable": 7564,
      "Ġemployer": 7565,
      "Ġpeaches": 7566,
      "Ġsimplification": 7567,
      "Ġprobably": 7568,
      "Ġmagnes": 7569,
      "Ġlondon": 7570,
      "Ġdeep": 7571,
      "ama": 7572,
      "Ġgoing": 7573,
      "Ġappendix": 7574,
      "Ġdt": 7575,
      "Ġ1964": 7576,
      "cooperating": 7577,
      "Ġbelieve": 7578,
      "Ġequipped": 7579,
      "Ġcontractor": 7580,
      "bean": 7581,
      "Ġbir": 7582,
      "Ġdealt": 7583,
      "zens": 7584,
      "tious": 7585,
      "Ġfiscal": 7586,
      "Ġtrees": 7587,
      "Ġfocus": 7588,
      "Ġ2759": 7589,
      "Ġeducational": 7590,
      "Ġang": 7591,
      "ĠÃĹ": 7592,
      "ball": 7593,
      "final": 7594,
      "Ġenqu": 7595,
      "Ġacceler": 7596,
      "prot": 7597,
      "Ġindependence": 7598,
      "Ġhorizontal": 7599,
      ")).": 7600,
      "Ġparcels": 7601,
      "Ġadvisable": 7602,
      "Ġhomog": 7603,
      "rad": 7604,
      "Ġpln": 7605,
      "Ġexpertise": 7606,
      "Ġpotentially": 7607,
      "balance": 7608,
      "Ġgreenhouse": 7609,
      "Ġnotifier": 7610,
      "110": 7611,
      "Ġ853": 7612,
      "Ġtransferable": 7613,
      "llers": 7614,
      "otechnical": 7615,
      "measures": 7616,
      "ais": 7617,
      "hes": 7618,
      "Ġax": 7619,
      "Ġmatch": 7620,
      "Ġanticipated": 7621,
      "Ġ376": 7622,
      "Ġunloading": 7623,
      "Ġ105": 7624,
      "Ġbes": 7625,
      "Ġcombus": 7626,
      "Ġpacific": 7627,
      "second": 7628,
      "Ġ2220": 7629,
      "136": 7630,
      "Ġworth": 7631,
      "cooperation": 7632,
      "Ġholid": 7633,
      "Ġseller": 7634,
      "Ġbuilt": 7635,
      "Ġtyres": 7636,
      "Ġencephal": 7637,
      "Ġhabit": 7638,
      "Ġenters": 7639,
      "âĢĻ).": 7640,
      "Ġexercised": 7641,
      "ĠÂ°": 7642,
      "Ġsplit": 7643,
      "apore": 7644,
      "ontin": 7645,
      "Ġconventions": 7646,
      "Ġhazardous": 7647,
      "Ġsid": 7648,
      "Ġintend": 7649,
      "Ġbooks": 7650,
      "114": 7651,
      "Ġxii": 7652,
      "Ġscot": 7653,
      "Ġlimiting": 7654,
      "Ġforwarding": 7655,
      "Ġseasonal": 7656,
      "Ġmor": 7657,
      "Ġnafo": 7658,
      "Ġordered": 7659,
      "Ġassembl": 7660,
      "Ġbalanced": 7661,
      "ethyl": 7662,
      "Ġspectrum": 7663,
      "yan": 7664,
      "Ġdeficiencies": 7665,
      "Ġroche": 7666,
      "Ġencoun": 7667,
      "\"),": 7668,
      "self": 7669,
      "Ġfast": 7670,
      "Ġarch": 7671,
      "Ġdecis": 7672,
      "Ġvolvo": 7673,
      "Ġexperim": 7674,
      "Ġpears": 7675,
      "Ġblu": 7676,
      "etongue": 7677,
      "Ġlasting": 7678,
      "aret": 7679,
      "150": 7680,
      "Ġproceed": 7681,
      "invest": 7682,
      "mium": 7683,
      "Ġtools": 7684,
      "Ġsoda": 7685,
      "Ġresol": 7686,
      "Ġcitizens": 7687,
      "Ġ2081": 7688,
      "],": 7689,
      "low": 7690,
      "vity": 7691,
      "Ġace": 7692,
      "ostic": 7693,
      "Ġfootnote": 7694,
      "Ġsyrups": 7695,
      "Ġfranchise": 7696,
      "Ġmisle": 7697,
      "Ġ390": 7698,
      "Ġ950": 7699,
      "Ġrape": 7700,
      "consequently": 7701,
      "Ġconsumed": 7702,
      "Ġpreference": 7703,
      "before": 7704,
      "Ġsubdivision": 7705,
      "Ġdisregarded": 7706,
      "athered": 7707,
      "Ġtreas": 7708,
      "Ġaudits": 7709,
      "Ġseriously": 7710,
      "aw": 7711,
      "band": 7712,
      "Ġvul": 7713,
      "enda": 7714,
      "Ġau": 7715,
      "Ġdiesel": 7716,
      "Ġwishing": 7717,
      "titutional": 7718,
      "abilities": 7719,
      "fully": 7720,
      "lovakia": 7721,
      "Ġfreely": 7722,
      "Ġammonium": 7723,
      "Ġcc": 7724,
      "Ġfaced": 7725,
      "Ġestate": 7726,
      "Ġadministrations": 7727,
      "Ġfruits": 7728,
      "Ġconsignee": 7729,
      "Ã¼r": 7730,
      "eaggf": 7731,
      "sector": 7732,
      "Ġmodernization": 7733,
      "Ġsoftware": 7734,
      "Ġimplic": 7735,
      "geria": 7736,
      "ortion": 7737,
      "chec": 7738,
      "Ġborn": 7739,
      "Ġunduly": 7740,
      "Ġbrazilian": 7741,
      "Ġwishes": 7742,
      "Ġnoise": 7743,
      "Ġflour": 7744,
      "Ġelectro": 7745,
      "Ġfails": 7746,
      "Ġcancellation": 7747,
      "130": 7748,
      "Ġallocate": 7749,
      "Ġhungarian": 7750,
      "Ġaccreditation": 7751,
      "Ġreaction": 7752,
      "Ġ1257": 7753,
      "Ġ174": 7754,
      "appropri": 7755,
      "Ġbill": 7756,
      "Ġoptions": 7757,
      "adequ": 7758,
      "Ġcorrection": 7759,
      "Ġdisturbances": 7760,
      "Ġenabled": 7761,
      "Ġinput": 7762,
      "Ġundergo": 7763,
      "Ġplc": 7764,
      "Ġcarb": 7765,
      "Ġbluetongue": 7766,
      "oys": 7767,
      "conf": 7768,
      "Ġreasoned": 7769,
      "Ġattainment": 7770,
      "Ġduplic": 7771,
      "aces": 7772,
      "Ġjcb": 7773,
      "Ġabnorm": 7774,
      "Ġinspectors": 7775,
      "atured": 7776,
      "additional": 7777,
      "Ġbvs": 7778,
      "ĠâĢ¦": 7779,
      "Ġweather": 7780,
      "keep": 7781,
      "Ġcraft": 7782,
      "Ġspp": 7783,
      "Ġjord": 7784,
      "aming": 7785,
      "Ġdiscontin": 7786,
      "Ġtitles": 7787,
      "Ġferries": 7788,
      "Ġ3832": 7789,
      "Ġdecisive": 7790,
      "Ġbonds": 7791,
      "Ġdy": 7792,
      "ques": 7793,
      "tigation": 7794,
      "aties": 7795,
      "Ġcoinc": 7796,
      "asa": 7797,
      "Ġdisproportion": 7798,
      "db": 7799,
      "Ġunchanged": 7800,
      "cream": 7801,
      "Ġsizes": 7802,
      "ulin": 7803,
      "Ġshipyard": 7804,
      "Ġmel": 7805,
      "Ġsealed": 7806,
      "Ġformally": 7807,
      "Ġspecialised": 7808,
      "Ġreturns": 7809,
      "control": 7810,
      "Ġillust": 7811,
      "Ġstress": 7812,
      "Ġecological": 7813,
      "prohib": 7814,
      "Ġclothing": 7815,
      "Ġurea": 7816,
      "except": 7817,
      "Ġdepri": 7818,
      "Ġobvious": 7819,
      "Ġfreezing": 7820,
      "Ġprivati": 7821,
      "Ġconsequent": 7822,
      "Ġsingapore": 7823,
      "ev": 7824,
      "kers": 7825,
      "Ġdpag": 7826,
      "oflu": 7827,
      "Ġ02": 7828,
      "Ġdestroyed": 7829,
      "Ġ1182": 7830,
      "Ġvariation": 7831,
      "Ġstabilisation": 7832,
      "Ġcontaminated": 7833,
      "Ġartikel": 7834,
      "Ġcur": 7835,
      "548": 7836,
      "compens": 7837,
      "Ġtaca": 7838,
      "scale": 7839,
      "Ġinterpreted": 7840,
      "Ġdioxide": 7841,
      "ints": 7842,
      "resse": 7843,
      "Ġacquiring": 7844,
      "detail": 7845,
      "Ġdro": 7846,
      "idal": 7847,
      "Ġlen": 7848,
      "Ġ106": 7849,
      "Ġready": 7850,
      "Ġconflict": 7851,
      "cp": 7852,
      "food": 7853,
      "ÏĮ": 7854,
      "held": 7855,
      "Ġweighting": 7856,
      "Ã©dit": 7857,
      "Ġ),": 7858,
      "Ġsuited": 7859,
      "Ġ999": 7860,
      "Ġabroad": 7861,
      "hern": 7862,
      "doc": 7863,
      "Ġbse": 7864,
      "Ġacs": 7865,
      "verord": 7866,
      "Ġaffairs": 7867,
      "Ġoccurrence": 7868,
      "Ġ388": 7869,
      "Ġ951": 7870,
      "rew": 7871,
      "Ġpip": 7872,
      "Ġreliability": 7873,
      "Ġenforce": 7874,
      "Ġ630": 7875,
      "Ġsoya": 7876,
      "Ġprogressively": 7877,
      "develop": 7878,
      "traditional": 7879,
      "Ġgrub": 7880,
      "pet": 7881,
      "ode": 7882,
      "Ġencouraged": 7883,
      "Ġtreaties": 7884,
      "Ġlabels": 7885,
      "Ġspecimens": 7886,
      "Ġpesticides": 7887,
      "Ġdon": 7888,
      "tax": 7889,
      "Ġrent": 7890,
      "Ġcrossing": 7891,
      "Ġruns": 7892,
      "Ġincumbent": 7893,
      "price": 7894,
      "Ġreac": 7895,
      "Ġcarton": 7896,
      "Ġderogate": 7897,
      "Ġboned": 7898,
      "Ġinvoices": 7899,
      "Ġmeasuring": 7900,
      "oking": 7901,
      "Ġfigs": 7902,
      "Ġfiles": 7903,
      "Ġthreatens": 7904,
      "Ġabolition": 7905,
      "necessary": 7906,
      "Ġjordan": 7907,
      "Ġbival": 7908,
      "ectivity": 7909,
      "Ġofficers": 7910,
      "party": 7911,
      "Ġgrains": 7912,
      "Ġmarginal": 7913,
      "Ġfacilitating": 7914,
      "Ġaquatic": 7915,
      "Ġpel": 7916,
      "Ġbind": 7917,
      "Ġ1898": 7918,
      "Ġ1831": 7919,
      "took": 7920,
      "Ġpara": 7921,
      "Ġoverl": 7922,
      "Ġgreenland": 7923,
      "Ġhousing": 7924,
      "Ġcherries": 7925,
      "Ġdrawback": 7926,
      "rc": 7927,
      "spe": 7928,
      "inia": 7929,
      "elig": 7930,
      "area": 7931,
      "Ġkilogram": 7932,
      "Ġbegan": 7933,
      "ume": 7934,
      "elect": 7935,
      "Ġpenalty": 7936,
      "Ġassume": 7937,
      "Ġcoastal": 7938,
      "gt": 7939,
      "Ġundertook": 7940,
      "Ġleased": 7941,
      "Ġpacked": 7942,
      "lorous": 7943,
      "Ġnordic": 7944,
      "')": 7945,
      "Ġsout": 7946,
      "Ġlas": 7947,
      "Ġmanual": 7948,
      "ibbean": 7949,
      "Ġtelephony": 7950,
      "Ġbicycles": 7951,
      "Ġzealand": 7952,
      "Ġregisters": 7953,
      "Ġbringing": 7954,
      "Ġtissues": 7955,
      "Ġcf": 7956,
      "Ġforced": 7957,
      "407": 7958,
      "Ġcausation": 7959,
      "Ġdivest": 7960,
      "ĠcrÃ©dit": 7961,
      "therefore": 7962,
      "Ġenhance": 7963,
      "Ġcig": 7964,
      "Ġrefrain": 7965,
      "Ġexpires": 7966,
      "Ġinitialled": 7967,
      "Ġtextiles": 7968,
      "Ġclarified": 7969,
      "Ġisolation": 7970,
      "Ġnarrow": 7971,
      "Ġsac": 7972,
      "Ġfem": 7973,
      "Ġcaribbean": 7974,
      "indust": 7975,
      "Ġshareholding": 7976,
      "Ġcrude": 7977,
      "urg": 7978,
      "Ġsuit": 7979,
      "Ġcompounds": 7980,
      "erce": 7981,
      "Ġib": 7982,
      "assess": 7983,
      "ethylene": 7984,
      "Ġwidely": 7985,
      "Ġbric": 7986,
      "Ġfurnish": 7987,
      "ressees": 7988,
      "Ġ382": 7989,
      "ountain": 7990,
      "Ġindicator": 7991,
      "Ġliqueur": 7992,
      "Ġgradually": 7993,
      "dist": 7994,
      "liances": 7995,
      "Ġpreparing": 7996,
      "Ġreflects": 7997,
      "Ġcultivated": 7998,
      "Ġsouthern": 7999,
      "Ãº": 8000,
      "Ġ124": 8001,
      "Ġtermin": 8002,
      "Ġ3831": 8003,
      "Ġrebate": 8004,
      "Ġpipeline": 8005,
      "Ġbiodiesel": 8006,
      "called": 8007,
      "Ġcontributes": 8008,
      "Ġczechos": 8009,
      "rav": 8010,
      "hu": 8011,
      "ationally": 8012,
      "Ġusd": 8013,
      "Ġ2182": 8014,
      "Ġmoving": 8015,
      "application": 8016,
      "castle": 8017,
      "Ġvoice": 8018,
      "union": 8019,
      "umptions": 8020,
      "Ġverifications": 8021,
      "Ġadequately": 8022,
      "ofluoroc": 8023,
      "Ġeconomies": 8024,
      "âĢĻ),": 8025,
      "Ġroll": 8026,
      "teneg": 8027,
      "Ġesf": 8028,
      "Ġ1445": 8029,
      "Ġtransportation": 8030,
      "oil": 8031,
      "technical": 8032,
      "Ġcontrolling": 8033,
      "Ġsuffering": 8034,
      "Ġdisadvantage": 8035,
      "Ġnotices": 8036,
      "lif": 8037,
      "Ġinherent": 8038,
      "Ġ1969": 8039,
      "Ġadult": 8040,
      "opath": 8041,
      "Ġcharacterised": 8042,
      "Ġboards": 8043,
      "Ġintervening": 8044,
      "arbons": 8045,
      "Ġexceptionally": 8046,
      "Ġengage": 8047,
      "Ġfiled": 8048,
      "Ġhusked": 8049,
      "ault": 8050,
      "bod": 8051,
      "mone": 8052,
      "Ġauc": 8053,
      "ager": 8054,
      "Ġmiche": 8055,
      "Ġopposed": 8056,
      "Ġlighters": 8057,
      "Ġacknowledged": 8058,
      "ions": 8059,
      "Ġ108": 8060,
      "Ġpenet": 8061,
      "Ġparcel": 8062,
      "Ġneighbouring": 8063,
      "tenegro": 8064,
      "orf": 8065,
      "Ġoxide": 8066,
      "isor": 8067,
      "Ġmountain": 8068,
      "Ġapportion": 8069,
      "Ġsuccessive": 8070,
      "Ġpreclude": 8071,
      "Ġculture": 8072,
      "Ġwent": 8073,
      "accession": 8074,
      "Ġqualit": 8075,
      "Ġ2539": 8076,
      "Ġple": 8077,
      "Ġmoved": 8078,
      "angible": 8079,
      "Ġzootechnical": 8080,
      "imex": 8081,
      "`)": 8082,
      "assi": 8083,
      "Ġdeploy": 8084,
      "Ġchanging": 8085,
      "Ġbivalve": 8086,
      "bound": 8087,
      "Ġcarries": 8088,
      "Ġ1001": 8089,
      "ederland": 8090,
      "Ġwider": 8091,
      "Ġgly": 8092,
      "phos": 8093,
      "Ġrestricting": 8094,
      "Ġcombating": 8095,
      "restrial": 8096,
      "[...]": 8097,
      "anian": 8098,
      "Ġduch": 8099,
      "Ġenzy": 8100,
      "Ġspong": 8101,
      "Ġassumptions": 8102,
      "Ġnewcastle": 8103,
      "Ġcircular": 8104,
      "Ġbuild": 8105,
      "Ġ1043": 8106,
      "Ġissuer": 8107,
      "Ġmerchant": 8108,
      "high": 8109,
      "ifiable": 8110,
      "Ġaccomm": 8111,
      "Ġefsa": 8112,
      "Ġvaccines": 8113,
      "Ġreaching": 8114,
      "Ġdraf": 8115,
      "Ġaccommod": 8116,
      "160": 8117,
      "Ġfal": 8118,
      "Ġsep": 8119,
      "Ġ107": 8120,
      "Ġ118": 8121,
      "Ġwebs": 8122,
      "Ġconvergence": 8123,
      "Ġadaptations": 8124,
      "ecd": 8125,
      "icated": 8126,
      "208": 8127,
      "Ġindexation": 8128,
      "treated": 8129,
      "Ġcommodity": 8130,
      "Ġascer": 8131,
      "Ġsud": 8132,
      "Ġaccidents": 8133,
      "Ġyou": 8134,
      "Ġmontenegro": 8135,
      "Ġmultiple": 8136,
      "Ġq": 8137,
      "Ġ1602": 8138,
      "finally": 8139,
      "Ġturk": 8140,
      "Ġtreasury": 8141,
      "Ġascertained": 8142,
      "bran": 8143,
      "Ġ293": 8144,
      "exist": 8145,
      "Ġtrac": 8146,
      "Ġformation": 8147,
      "Ġ160": 8148,
      "Ġstim": 8149,
      "Ġ1290": 8150,
      "Ġcomparing": 8151,
      "Ġspongiform": 8152,
      "categ": 8153,
      "aden": 8154,
      "Ġleasing": 8155,
      "Ġvolks": 8156,
      "Ġteams": 8157,
      "orily": 8158,
      "Ġrecapital": 8159,
      "Ġseparation": 8160,
      "Ġincomplete": 8161,
      "Ġviney": 8162,
      "made": 8163,
      "Ġdisapp": 8164,
      "Ġderiving": 8165,
      "401": 8166,
      "Ġjustif": 8167,
      "Ġstrategies": 8168,
      "Ġstipulate": 8169,
      "Ġscenario": 8170,
      "Ġreject": 8171,
      "Ġredund": 8172,
      "between": 8173,
      "Ġther": 8174,
      "omb": 8175,
      "Ġtrace": 8176,
      "Ġavo": 8177,
      "Ġqualification": 8178,
      "Ġparticipated": 8179,
      "Ġskills": 8180,
      "Ġprospect": 8181,
      "Ġduchy": 8182,
      "tition": 8183,
      "Ġrepublics": 8184,
      "Ġboxes": 8185,
      "Ġurgent": 8186,
      "Ġpathogenic": 8187,
      "ago": 8188,
      "Ġ550": 8189,
      "Ġterrestrial": 8190,
      "Ġinnovative": 8191,
      "profit": 8192,
      "Ġnumerous": 8193,
      "Ġabb": 8194,
      "121": 8195,
      "conditions": 8196,
      "Ġunpaid": 8197,
      "ofluorocarbons": 8198,
      "Ġaz": 8199,
      "amic": 8200,
      "Ġcollateral": 8201,
      "Ġorganism": 8202,
      "Ġut": 8203,
      "ectual": 8204,
      "Ġ2092": 8205,
      "Ġattractive": 8206,
      "Ġrely": 8207,
      "Ġdrop": 8208,
      "Ġmanif": 8209,
      "Ġphyt": 8210,
      "Ġsubsidiarity": 8211,
      "approved": 8212,
      "Ġautomo": 8213,
      "Ġdistinguish": 8214,
      "committee": 8215,
      "range": 8216,
      "Ġ3013": 8217,
      "Ġdrawings": 8218,
      "Ġdenom": 8219,
      "uing": 8220,
      "rog": 8221,
      "levant": 8222,
      "Ġencephalopath": 8223,
      "Ġpipes": 8224,
      "oe": 8225,
      "Ġoa": 8226,
      "Ġinstitutional": 8227,
      "Ġgap": 8228,
      "Ġppas": 8229,
      "pg": 8230,
      "xy": 8231,
      "Ġtraded": 8232,
      "Ġsigning": 8233,
      "122": 8234,
      "Ġfisher": 8235,
      "Ġdial": 8236,
      "Ġresign": 8237,
      "Ġ180": 8238,
      "Ġconfined": 8239,
      "Ġpermissible": 8240,
      "Ġmoist": 8241,
      "Ġcoordin": 8242,
      "Ġherds": 8243,
      "Ġtrigger": 8244,
      "Ġavoided": 8245,
      "lose": 8246,
      "tory": 8247,
      "vc": 8248,
      "Ġimmun": 8249,
      "Ġinterventions": 8250,
      "tin": 8251,
      "Ġbb": 8252,
      "portug": 8253,
      "Ġdistorts": 8254,
      "Ġcomputerised": 8255,
      "Ġexpectations": 8256,
      "Ġantig": 8257,
      "Ġ140": 8258,
      "125": 8259,
      "Ġstrengthened": 8260,
      "ey": 8261,
      "imports": 8262,
      "rium": 8263,
      "Ġfootball": 8264,
      "Ġextracts": 8265,
      "appropriate": 8266,
      "Ġamb": 8267,
      "Ġguaranteeing": 8268,
      "Ġliaison": 8269,
      "werke": 8270,
      "ror": 8271,
      "Ã«": 8272,
      "arc": 8273,
      "Ġunal": 8274,
      "Ġattained": 8275,
      "Ġobjects": 8276,
      "govern": 8277,
      "Ġcoordinate": 8278,
      "urities": 8279,
      "Ġruling": 8280,
      "arantine": 8281,
      "raint": 8282,
      "Ġagenda": 8283,
      "Ġ169": 8284,
      "Ġ350": 8285,
      "Ġwaterway": 8286,
      "Ġpermanently": 8287,
      "Ġattempt": 8288,
      "space": 8289,
      "Ġalternatives": 8290,
      "Ġwaiver": 8291,
      "zione": 8292,
      "esa": 8293,
      "endo": 8294,
      "Ġassumption": 8295,
      "Ġdeclining": 8296,
      "Ġcorrectly": 8297,
      "Ġmoisture": 8298,
      "Ġinadequ": 8299,
      "Ġcharging": 8300,
      "Ãµ": 8301,
      "asb": 8302,
      "Ġinfringed": 8303,
      "Ġferment": 8304,
      "thal": 8305,
      "Ġsubcontract": 8306,
      "Ġinvested": 8307,
      "Ġundercut": 8308,
      "serv": 8309,
      "Ġappliances": 8310,
      "Ġ565": 8311,
      "Ġheating": 8312,
      "Ġnets": 8313,
      "Ġnegotiate": 8314,
      "Ġfailing": 8315,
      "Ġslaughterhouses": 8316,
      "payment": 8317,
      "assium": 8318,
      "well": 8319,
      "Ġcauses": 8320,
      "Ġhortic": 8321,
      "Ġimplications": 8322,
      "Ġunnecessary": 8323,
      "Ã©lÃ©": 8324,
      "Ġweekly": 8325,
      "system": 8326,
      "Ġtubercul": 8327,
      "arks": 8328,
      "Ġlear": 8329,
      "Ġgrad": 8330,
      "Ġphr": 8331,
      "portugal": 8332,
      "iat": 8333,
      "turn": 8334,
      "Ġsports": 8335,
      "Ġscrap": 8336,
      "Ġ1418": 8337,
      "Ġincreasingly": 8338,
      "Ġwind": 8339,
      "Ġsalmone": 8340,
      "Ġflowers": 8341,
      "Ġven": 8342,
      "Ġmobility": 8343,
      "Ġbaltic": 8344,
      "Ġwarning": 8345,
      "Ġcycle": 8346,
      "Ġintellectual": 8347,
      "Ġtraditionally": 8348,
      "Ġunaltered": 8349,
      "Ġdriver": 8350,
      "repe": 8351,
      "berries": 8352,
      "Ġ228": 8353,
      "Ġappraisal": 8354,
      "ensee": 8355,
      "Ġmeant": 8356,
      "intendo": 8357,
      "commercial": 8358,
      "Ġbiocidal": 8359,
      "Ġpromp": 8360,
      "Ġroaming": 8361,
      "496": 8362,
      "Ġtoy": 8363,
      "derog": 8364,
      "Ġ143": 8365,
      "Ġpermitting": 8366,
      "earing": 8367,
      "Ġcontractors": 8368,
      "Ġdecreasing": 8369,
      "Ġdistiller": 8370,
      "Ġinvalidity": 8371,
      "Ġvacant": 8372,
      "Ġannul": 8373,
      "Ġlabelled": 8374,
      "flower": 8375,
      "Ġova": 8376,
      "usp": 8377,
      "Ġstm": 8378,
      "Ġoccurs": 8379,
      "Ġcandidates": 8380,
      "Ġrata": 8381,
      "Ġ411": 8382,
      "Ġjustifying": 8383,
      "Ġgenetic": 8384,
      "Ġmills": 8385,
      "Ġhsy": 8386,
      "Ġrespects": 8387,
      "Ġorganized": 8388,
      "visual": 8389,
      "belg": 8390,
      "basic": 8391,
      "Ġshipowners": 8392,
      "ht": 8393,
      "bral": 8394,
      "Ġsustained": 8395,
      "Ġenjoyed": 8396,
      "sales": 8397,
      "Ġaw": 8398,
      "Ġoats": 8399,
      "Ġpy": 8400,
      "seed": 8401,
      "Ġcham": 8402,
      "Ġproceeds": 8403,
      "Ġherzegovina": 8404,
      "Ġencouraging": 8405,
      "Ġhimself": 8406,
      "gage": 8407,
      "ura": 8408,
      "imb": 8409,
      "Ġrefrig": 8410,
      "Ġkw": 8411,
      "Ġswitching": 8412,
      "Ġquarantine": 8413,
      "Ġfavouring": 8414,
      "Ġ0202": 8415,
      "Ġczechoslovakia": 8416,
      "ĠÎ±": 8417,
      "Ġknit": 8418,
      "Ġavoiding": 8419,
      "Ġtube": 8420,
      "Ġod": 8421,
      "Ġpage": 8422,
      "Ġforum": 8423,
      "Ġdeath": 8424,
      "Ġmetall": 8425,
      "Ġbiof": 8426,
      "Ġdiscriminatory": 8427,
      "sign": 8428,
      "Ġcass": 8429,
      "Ġwid": 8430,
      "Ġinterruption": 8431,
      "Ġcandidate": 8432,
      "Ġhomogene": 8433,
      "gs": 8434,
      "ios": 8435,
      "jus": 8436,
      "rin": 8437,
      "Ġbn": 8438,
      "Ġbonus": 8439,
      "Ġobstacles": 8440,
      "Ġmichelin": 8441,
      "viii": 8442,
      "ena": 8443,
      "Ġ1251": 8444,
      "Ġ070": 8445,
      "Ġhypo": 8446,
      "Ġtractors": 8447,
      "Ġcadmium": 8448,
      "kler": 8449,
      "Ġue": 8450,
      "Ġdemonstration": 8451,
      "Ġ3448": 8452,
      "Ġfrequently": 8453,
      "Ġsymbol": 8454,
      "square": 8455,
      "Ġgold": 8456,
      "Ġquite": 8457,
      "Ġlicensee": 8458,
      "Ġrough": 8459,
      "Ġvirtually": 8460,
      "Ġdossiers": 8461,
      "jin": 8462,
      "tiers": 8463,
      "Ġspecially": 8464,
      "Ġnamed": 8465,
      "originating": 8466,
      "zation": 8467,
      "âĢ²": 8468,
      "Ġpostpon": 8469,
      "belgium": 8470,
      "bing": 8471,
      "isen": 8472,
      "Ġorient": 8473,
      "Ġdeclare": 8474,
      "Ġsunflower": 8475,
      "Ġtil": 8476,
      "Ġaven": 8477,
      "Ġster": 8478,
      "Ġexchanged": 8479,
      "Ġcamera": 8480,
      "Ġcatalogue": 8481,
      "some": 8482,
      "Ġgoi": 8483,
      "flowered": 8484,
      "ao": 8485,
      "lex": 8486,
      "Ġdisasters": 8487,
      "Ġrolling": 8488,
      "regional": 8489,
      "viet": 8490,
      "Ġ6403": 8491,
      "Ġ510": 8492,
      "soever": 8493,
      "Ġfallen": 8494,
      "Ġunlawfully": 8495,
      "level": 8496,
      "Ġplanted": 8497,
      "Ġperforming": 8498,
      "Ġzoon": 8499,
      "Ġadministering": 8500,
      "Âº": 8501,
      "Ġball": 8502,
      "Ġvirgin": 8503,
      "Ġdistilled": 8504,
      "Ġgains": 8505,
      "Ġinsured": 8506,
      "Ġadm": 8507,
      "Ġsubperiod": 8508,
      "Ġ1442": 8509,
      "Ġtoys": 8510,
      "Ã©Ã³": 8511,
      "Ġdiversity": 8512,
      "Ġsowing": 8513,
      "rak": 8514,
      "Ġvice": 8515,
      "Ġstatutes": 8516,
      "Ġdrams": 8517,
      "135": 8518,
      "123": 8519,
      "Ġxiv": 8520,
      "bies": 8521,
      "tel": 8522,
      "Ġpal": 8523,
      "Ġcoup": 8524,
      "Ġcommence": 8525,
      "Ġconv": 8526,
      "Ġpresumed": 8527,
      "Ġ0206": 8528,
      "implementation": 8529,
      "Ġmadrid": 8530,
      "state": 8531,
      "Ġchaired": 8532,
      "Ġyearly": 8533,
      "Ġdiffers": 8534,
      "Ġsells": 8535,
      "imexe": 8536,
      "Ġour": 8537,
      "Ġ1774": 8538,
      "netic": 8539,
      "Ġdeposits": 8540,
      "aire": 8541,
      "Ġstem": 8542,
      "Ġdirection": 8543,
      "Ġkaz": 8544,
      "axony": 8545,
      "Ġsubstitute": 8546,
      "Ġconstituents": 8547,
      "Ġsour": 8548,
      "Ġinqu": 8549,
      "Ġnl": 8550,
      "oster": 8551,
      "Ġalgeria": 8552,
      "Ġpotassium": 8553,
      "Ġheadings": 8554,
      "Ġliberalisation": 8555,
      "schaft": 8556,
      "akh": 8557,
      "Ġherb": 8558,
      "anger": 8559,
      "Ġ1301": 8560,
      "Ġassessments": 8561,
      "approving": 8562,
      "Ġ102": 8563,
      "Ġ114": 8564,
      "Ġvaried": 8565,
      "Ġingredient": 8566,
      "Ġalbania": 8567,
      "Ġscre": 8568,
      "Ġlicense": 8569,
      "Ġdisproportionate": 8570,
      "Ġcigaret": 8571,
      "Ġqualitative": 8572,
      "Ġwhiche": 8573,
      "Ġunique": 8574,
      "Ġsuspending": 8575,
      "Ġcumulation": 8576,
      "Ġtrucks": 8577,
      "Ġwhichever": 8578,
      "ectious": 8579,
      "Ġsuckler": 8580,
      "Ġobstacle": 8581,
      "Ġfishermen": 8582,
      "Ġsalmonella": 8583,
      "Ġpurely": 8584,
      "bund": 8585,
      "Ġcommenced": 8586,
      "Ġstead": 8587,
      "Ġmaintains": 8588,
      "Ġ[...](": 8589,
      "Ġ3002": 8590,
      "Î¸": 8591,
      "ificance": 8592,
      "Ġreplacing": 8593,
      "Ġintermediary": 8594,
      "Ġginned": 8595,
      "onic": 8596,
      "Ġhop": 8597,
      "Ġintent": 8598,
      "Ġ3030": 8599,
      "Ġ259": 8600,
      "Ġdescriptions": 8601,
      "Ġpatents": 8602,
      "Ġinvoke": 8603,
      "Ġderivatives": 8604,
      "bred": 8605,
      "Ġfort": 8606,
      "aves": 8607,
      "Ġ520": 8608,
      "Ġ112": 8609,
      "Ġsoviet": 8610,
      "128": 8611,
      "Ġ0201": 8612,
      "Ġflexible": 8613,
      "Ġewe": 8614,
      "Ġcommissions": 8615,
      "Ġ397": 8616,
      "Ġ0102": 8617,
      "limited": 8618,
      "written": 8619,
      "lusiv": 8620,
      "124": 8621,
      "Ġconcluding": 8622,
      "Ġpreserve": 8623,
      "Ġearth": 8624,
      "ĠÏĢ": 8625,
      "Ġspr": 8626,
      "Ġtaric": 8627,
      "zz": 8628,
      "Ġcommerce": 8629,
      "Ġimplies": 8630,
      "Ġreception": 8631,
      "Ġstandardisation": 8632,
      "Ġaccepting": 8633,
      "Ġgoes": 8634,
      "Ġdistrict": 8635,
      "ĠtÃ©lÃ©": 8636,
      "Ġ395": 8637,
      "Ġrecons": 8638,
      "Ġsocio": 8639,
      "spr": 8640,
      "Ġded": 8641,
      "Ġarith": 8642,
      "Ġalitalia": 8643,
      "Ġpresid": 8644,
      "Ġpeas": 8645,
      "Ġpreparatory": 8646,
      "Ġbelongs": 8647,
      "ias": 8648,
      "Ġclimate": 8649,
      "name": 8650,
      "ova": 8651,
      "Ġnewco": 8652,
      "Ġmaxim": 8653,
      "Ġanalyse": 8654,
      "Ġrendered": 8655,
      "Ġcleaning": 8656,
      "Ġ320": 8657,
      "Ġchile": 8658,
      "Ġaffir": 8659,
      "Ġprohibiting": 8660,
      "Ġmanagers": 8661,
      "Ġpresents": 8662,
      "2010": 8663,
      "neider": 8664,
      "Ġfrontiers": 8665,
      "oresaid": 8666,
      "fram": 8667,
      "Ġft": 8668,
      "Ġbg": 8669,
      "Ġwinding": 8670,
      "osph": 8671,
      "ague": 8672,
      "Ġ1701": 8673,
      "Ġadditionality": 8674,
      "Ġaforesaid": 8675,
      "Ġdelegation": 8676,
      "Ġexplanation": 8677,
      "Ġonto": 8678,
      "erel": 8679,
      "Ġ1623": 8680,
      "prop": 8681,
      "Ġquarters": 8682,
      "Ġmodernisation": 8683,
      "Ġphilipp": 8684,
      "(*)": 8685,
      "dpe": 8686,
      "ja": 8687,
      "ogue": 8688,
      "127": 8689,
      "Ġrental": 8690,
      "but": 8691,
      "Ġwr": 8692,
      "ums": 8693,
      "Ġupgra": 8694,
      "Ġcausal": 8695,
      "transition": 8696,
      "Ġdiam": 8697,
      "Ġgradual": 8698,
      "Ġvien": 8699,
      "financed": 8700,
      "Ġearnings": 8701,
      "Ġcampaigns": 8702,
      "Ġpt": 8703,
      "ermark": 8704,
      "Ġpoor": 8705,
      "Ġworked": 8706,
      "Ġairspace": 8707,
      "Ġwhatsoever": 8708,
      "Ġdiamet": 8709,
      "Ġchargeable": 8710,
      "Ġspirits": 8711,
      "Ġci": 8712,
      "Ġford": 8713,
      "mod": 8714,
      "Ġcopper": 8715,
      "Ġvend": 8716,
      "posing": 8717,
      "Ġ121": 8718,
      "common": 8719,
      "Ġinfectious": 8720,
      "Ġrealistic": 8721,
      "gran": 8722,
      "times": 8723,
      "Ġtoll": 8724,
      "Ġnederland": 8725,
      "Ġash": 8726,
      "Ġseam": 8727,
      "Ġnecessit": 8728,
      "determining": 8729,
      "Ġkazakh": 8730,
      "uels": 8731,
      "Ġrefined": 8732,
      "Ġelectronics": 8733,
      "Ġefficiently": 8734,
      "Ġtourism": 8735,
      "Ġgaza": 8736,
      "ida": 8737,
      "Ġrub": 8738,
      "Ġapplicability": 8739,
      "Ġdeferred": 8740,
      "Ġcircuit": 8741,
      "Ġbrew": 8742,
      "Ġconcentrate": 8743,
      "Ġliner": 8744,
      "Ġherd": 8745,
      "Ġdirectorate": 8746,
      "entral": 8747,
      "Ġye": 8748,
      "Ġmanure": 8749,
      "Ġpersist": 8750,
      "Ġ04": 8751,
      "management": 8752,
      "Ġbio": 8753,
      "Ġpertaining": 8754,
      "Ġexpensive": 8755,
      "Ġevident": 8756,
      "Ġrabies": 8757,
      "ssen": 8758,
      "Ġremote": 8759,
      "Ġretailer": 8760,
      "Ġlaunched": 8761,
      "Ġinterference": 8762,
      "Ã©tÃ©": 8763,
      "Ġsaxony": 8764,
      "Ġintens": 8765,
      "Ġtrader": 8766,
      "Ġ2777": 8767,
      "Ġconfidence": 8768,
      "Ġaffili": 8769,
      "institutional": 8770,
      "Ġseparated": 8771,
      "Ġcomplaints": 8772,
      "Ġdriving": 8773,
      "data": 8774,
      "Ġspring": 8775,
      "Ġ178": 8776,
      "Ġauditor": 8777,
      "examination": 8778,
      "di": 8779,
      "ruit": 8780,
      "iries": 8781,
      "Ġrefiner": 8782,
      "ackerel": 8783,
      "133": 8784,
      "Ġgravity": 8785,
      "Ġpatterns": 8786,
      "Ġtrawls": 8787,
      "Ġturkish": 8788,
      "Ġae": 8789,
      "ticides": 8790,
      "ppers": 8791,
      "Ġspecialized": 8792,
      "Ġcontinental": 8793,
      "Î¹Ïĥ": 8794,
      "Ġhouseholds": 8795,
      "Ġultimately": 8796,
      "Ġaudiovisual": 8797,
      "Ġnationality": 8798,
      "Ġpackaged": 8799,
      "Ġequality": 8800,
      "Ġobservation": 8801,
      "Ġcorrespondence": 8802,
      "Ġspreading": 8803,
      "Ġnothing": 8804,
      "Ġperce": 8805,
      "Ġouter": 8806,
      "Ġformulation": 8807,
      "Ġfreezer": 8808,
      "Ġmethyl": 8809,
      "cbs": 8810,
      "Ã°": 8811,
      "Ã¹": 8812,
      "Ġconsignor": 8813,
      "Ġ1962": 8814,
      "Ġ750": 8815,
      "Ġmode": 8816,
      "Ġoccasions": 8817,
      "Ġerrors": 8818,
      "Ġdiagnostic": 8819,
      "Ġdialogue": 8820,
      "farm": 8821,
      "opol": 8822,
      "Ġrepresentations": 8823,
      "incial": 8824,
      "Ġphot": 8825,
      "Ġserbia": 8826,
      "Ġ936": 8827,
      "Ġfunctional": 8828,
      "Ġartificially": 8829,
      "Ġdiscipline": 8830,
      "ief": 8831,
      "Ġthereon": 8832,
      "Ġtakeover": 8833,
      "Ġ3759": 8834,
      "Ġknitted": 8835,
      "217": 8836,
      "Î¯": 8837,
      "Ġwages": 8838,
      "Ġ111": 8839,
      "ylum": 8840,
      "Ġschneider": 8841,
      "Ġremedies": 8842,
      "inces": 8843,
      "Ġleader": 8844,
      "Ġspent": 8845,
      "Ġversions": 8846,
      "Ġrationalization": 8847,
      "Ġorn": 8848,
      "Ġfacing": 8849,
      "housing": 8850,
      "Ġuncertainty": 8851,
      "Ã¤nder": 8852,
      "Ġhypothe": 8853,
      "bearing": 8854,
      "stand": 8855,
      "appo": 8856,
      "Ġexercising": 8857,
      "furt": 8858,
      "del": 8859,
      "Ġtsi": 8860,
      "Ġbags": 8861,
      "Ġsigns": 8862,
      "Ġaccessories": 8863,
      "Ġdisputes": 8864,
      "Ġreflecting": 8865,
      "Ġinfrastructures": 8866,
      "Ġvaccinated": 8867,
      "Ġ0714": 8868,
      "Ġram": 8869,
      "Ġtheore": 8870,
      "Ġrtd": 8871,
      "aching": 8872,
      "Ġovercome": 8873,
      "Ġexclusiv": 8874,
      "Ã©n": 8875,
      "transitional": 8876,
      "Ġasylum": 8877,
      "Ġsuggests": 8878,
      "Ġakzo": 8879,
      "Ġore": 8880,
      "Ġcors": 8881,
      "Ġprotecting": 8882,
      "Ġseaf": 8883,
      "Ġassur": 8884,
      "ensis": 8885,
      "Ġ08": 8886,
      "ros": 8887,
      "Ġinforming": 8888,
      "404": 8889,
      "Ġschool": 8890,
      "ische": 8891,
      "Ġreact": 8892,
      "Ġrefinancing": 8893,
      "Ġbirth": 8894,
      "eness": 8895,
      "Ġprop": 8896,
      "131": 8897,
      "Ġprime": 8898,
      "addy": 8899,
      "Ġisland": 8900,
      "gl": 8901,
      "Ġlamp": 8902,
      "Ġperish": 8903,
      "Ġ881": 8904,
      "Ġiia": 8905,
      "Ġ2799": 8906,
      "Ġvertical": 8907,
      "Ġende": 8908,
      "abwe": 8909,
      "Ġslight": 8910,
      "Ġsubstituted": 8911,
      "detailed": 8912,
      "ah": 8913,
      "cost": 8914,
      "last": 8915,
      "Ġhil": 8916,
      "Ġtranslation": 8917,
      "Ġfunded": 8918,
      "Ġsafeguards": 8919,
      "confidential": 8920,
      "Ġtuberculosis": 8921,
      "imbabwe": 8922,
      "until": 8923,
      "Ġ295": 8924,
      "Ġincur": 8925,
      "Ġ2571": 8926,
      "Ġaffixed": 8927,
[...]
